#version: 0.2
Ġ t
Ġ a
i n
h e
r e
o n
e r
Ġt he
Ġ s
a t
Ġ o
Ġ w
Ġ c
n d
Ġ ì
i t
o r
e n
e s
i s
Ġ f
o u
Ġ p
Ġ b
in g
a l
e d
a n
Ġt o
Ġ m
a r
Ġ in
Ġo f
Ġa nd
Ġ d
i c
l e
i on
Ġ ë
ì Ŀ
a s
o m
Ġ h
Ġt h
en t
i l
Ġ re
r o
Ġ e
s t
c t
Ġ l
v e
Ġ n
e t
Ġ y
í ķ
Ġ ê
â Ģ
Ġ g
Ġ I
Ġ is
l y
Ġ T
Ġy ou
o t
u t
i d
Ġf or
ë ĭ
Ġb e
Ġ S
u r
i m
c e
s e
Ġ on
i g
o w
r a
o l
Ġ C
Ġ A
at ion
Ġ u
c h
a y
v er
it h
Ġth at
Ġs t
a m
e l
ì Ĺ
Ġw ith
a d
i r
Ġ 1
ëĭ ¤
u l
Ġ it
ìĿ ´
i f
Ġ M
Ġ í
Ġa n
ê ³
Ġa s
Ġp ro
Ġa l
âĢ Ļ
t er
Ġ (
Ġc on
ë Ĭ
he r
Ġ P
at e
g e
Ġ 2
il l
Ġw h
o d
Ġa re
p p
ì ŀ
ëĬ Ķ
Ġ B
Ġw e
Ġo r
er s
a b
ì Ħ
m ent
ì ł
k e
Ġh a
es s
ê °
r i
Ġ W
Ġc om
ĠT he
es t
ìĹ Ĳ
Ġ v
Ġ he
q u
p e
Ġa t
a c
ì §
Ġe x
Ġd e
u s
Ġ D
o re
is t
Ġ H
Ġ F
r om
Ġs u
ig h
t h
ë ¡
an t
Ġs e
ìĿ Ħ
0 0
l d
Ġn e
re s
it y
n t
u m
i ve
Ġ R
Ġ L
Ġw as
e m
o p
a in
íķ ĺ
Ġyou r
u n
o s
or t
o c
ìĿ ĺ
Ġì Ŀ
Ġth is
Ġì ŀ
Ġb y
ar t
Ġ r
- -
ê³ ł
Ġf rom
Ġn ot
Ġha ve
ì ĭ
ë¡ ľ
¸ °
Ġc an
Ġ G
íķ ľ
u st
Ġs h
Ġ E
Ġ N
i es
Ġc h
a nd
igh t
ë ¥
ë ı
i v
ì§ Ģ
u d
e ct
Ġì ł
al l
ou r
ì ľ
Ĥ ¬
ì ļ
u re
Ġ âĢ
Ī ëĭ¤
Ġ $
Ġ le
Ġw ill
i al
ê° Ģ
ar d
om e
Ġ O
ì ķ
p t
p er
t e
Ġ "
in e
ou ld
ë ¦
re d
p l
ou t
o st
Į Ģ
Ġw or
Ġ -
Ġp l
a g
id e
r ou
Ġa b
ê ²
ì Ĭ
ìĿ Ģ
Ġal l
Ġ j
a ge
o o
ct ion
ìĦ ľ
Ġu s
el l
f f
g h
i e
Ġd o
´ ë
ë¥ ¼
Ġê °
ab le
Ġw he
Ġë °
Ġa d
ic e
. .
a k
Ġ k
ê ¸°
Ġcom p
al ly
Ġc l
as t
ic h
Ġ =
at ed
Ġ 3
ë §
ê µ
Ġ J
in d
Ġh as
t her
i z
ëı Ħ
o g
ì Ľ
e ar
ac k
0 1
Ġì ķ
Ġê ²
' s
Ġ en
ë ĵ
a re
Ġm e
u e
ì ĸ
Ġg o
Ġb ut
Ġ U
i p
c l
im e
íķ ´
T he
ë Ĥ
or m
Ī ĺ
c c
Ġ im
a ke
Ġo ut
r y
am e
as e
Ġs o
on e
ë¦ ¬
i b
as s
oo k
ion s
Ġcon t
d u
Ġre s
on g
ĠT h
a ct
Ġa pp
it e
ĠI n
ig n
an s
Ġu p
ul t
ou s
ë °
ìĿ ¸
ver y
s o
an ce
Ġthe ir
a p
ìŀ Ĳ
Ġm ore
Ġwh ich
a il
Ġon e
Ġo ur
Ġì Ĺ
ìľ ¼
Ġë §
ë ¶
l l
Ġthe y
Ġì ĭ
ì Ĥ¬
í ĸ
r u
ìĭ ľ
ation s
Ŀ ¼
Ġm y
ë ł
f e
Ġì §
i re
a ce
i le
a ch
ìĬ ¤
ar y
u b
Ġin t
Ġwor k
ë ³
Ġ qu
Ġ if
Ġp er
Ġm an
b er
ë ©
en ce
Ġt e
re e
i ke
ĥ ģ
ic al
Ġ 4
) .
Ġd is
* *
Ġì Ħ
re at
Ġ K
i a
âĢ Ŀ
f orm
Ġ \
it ion
ìŀ ¥
-- --
a v
Ġe v
£ ¼
er v
Ġab out
Ġê ³
Ġal so
Ġu n
a u
Ġf e
ë Ŀ¼
Ġan y
Ġo ther
ve l
p ort
in t
Ġt ime
Ġ Y
ou nt
Ġp art
Ġ 5
ĠS t
or d
c k
ĠìĿ ´
o se
ìľ¼ ë¡ľ
ent s
Ġof f
res s
Ġa r
en s
e p
Ġ V
ë ¬
ì ĺ
ic k
Ġh is
on d
ìĽ Ĳ
Ġì ĺ
ar k
Ġ2 01
Ġne w
ĠâĢ ľ
ow n
ì ²
o ve
Ġg et
Ġwh o
í Ļ
ĠI t
or s
Ġs ome
Ġs p
il d
Ġthe re
Ġë Ĥ
ing s
at h
Ġy ear
Ġwe re
Ġwhe n
or y
= =
ay s
Ġë ĮĢ
Ġë ĭ
Ġl ike
Ġs c
Ġ 0
Ġre c
í ĺ
p h
nd er
Ġs pe
n e
ìł ķ
an g
ë ĮĢ
ì ¹
Ġp re
Ġt ra
ê³ ¼
Ġa g
Ġo ver
Ġ ro
Ġthe m
Ġbe en
ìĹĲ ìĦľ
l ow
ìĿ ¼
ou nd
Ġë ³
) ;
Ġt r
re n
ë ħ
Ġne ed
x t
f t
Ġw ould
Ġì Ĥ¬
ĠC h
Ġì Īĺ
· ¸
Ġ {
ìĸ ´
ëĭ Īëĭ¤
in k
ë ŀ
ur n
o b
Ġ '
Ġh ad
l ic
ĠW e
Ġth an
) ,
Ġê µ
cl ud
Ġë ¶
Ġê ¸°
Ġa m
Ġ1 9
Ġa cc
ou gh
Ġk n
j ect
Ġd es
Ġp e
Ġcom m
ë Ĳ
ëĵ ¤
is h
ir st
Ġwh at
ì Ĩ
ĠTh is
ver s
ë¶ Ģ
at er
ë Ł
o v
Ġs a
Ġpro v
Ġ +
Ġìŀ Ī
ë į
o od
w n
Ċ Ċ
Ġbe c
ol d
Ġ *
o y
Ġì ľ
Ġint o
Ġit s
¹ Ħ
re nt
{ \
e nd
c es
Ġh ow
r ic
ì Ļ
ê² Į
ë ª
í Ĭ
Ġ 6
f ter
ì ĥģ
Ġj ust
ra m
Ġad d
Ġìł Ħ
/ /
Ġë ĵ
Ġn o
rou gh
Ġu se
at es
ê ¸
ment s
p le
Ġt w
Ġm ay
Ġì§ Ģ
ëĤ ĺ
ë§ Į
Ġ <
ìł ľ
Ġin d
u al
Ġ her
ļ Į
Ġe m
on s
ìķ Ħ
ìł Ħ
Ġë ª
it t
êµ Ń
Ġon ly
Ġc ol
ter n
if ic
Ġ &
Ġc o
er t
Ġu nder
l p
ë© ´
¤ ĳ
w e
Ġb et
¡ °
ìł ģ
Ġ [
ì °
op le
Ġcon s
k s
g et
i ous
f ul
Ġf irst
he d
ie w
au se
on t
ì £¼
ë ²
Ġb u
´ Ģ
Ġ íķ
Ġê° Ģ
Ġm ake
íĬ ¸
le ct
ìļ Ķ
ìĦ ±
c om
n ing
Ġë ¬
Ġhe lp
i an
Ġs y
Ġb l
Ġin clud
er m
c ial
t y
Ġs erv
Ġd if
Ġpro du
Ġê² ĥ
is e
Ġas s
Ġa ct
ĠH e
Ġp h
rou nd
at ing
c ess
Ġm ost
Ġ 7
Ġw ell
Ġthe se
Ġkn ow
c ed
Ġth rough
is s
Ġ ra
Ġp o
at a
e c
Ġl ook
e f
Ġre l
Ġpe ople
ì Īĺ
Ġtw o
Ġre g
i ed
ro w
et h
= "
it ies
Ġê ·¸
Ġsu pp
ot h
ĥ Ŀ
h at
Ġ }
Ġë ı
y s
íķĺ ëĬĶ
an ge
Ġse e
r ing
Ġ 8
se l
ad e
Ġ íķľ
Ġìĭ ľ
Ġre t
Ġs et
he n
oc k
b s
ìĹ ħ
Ġe very
ìļ ©
at ive
il ity
Ġf l
Ġwhe re
Ġp os
Ġb ack
pe ct
ê ±
Ġin v
íĻ Ķ
ë³ ´
Ġp r
Ġw ant
l es
' t
I n
Ġ1 0
ĠâĢ ĵ
ëı Ļ
ri b
Ġst ud
ib le
st em
í ļĮ
m er
Ġin c
ul ar
í Ħ
íĸ Īëĭ¤
Ġí Ļ
Ġre m
¯ ¸
en er
as ed
Ġthe n
al s
a w
s s
Ġm od
Ġs he
Ġex per
Ġre qu
f ore
.. .
Ġ very
Ġa fter
Ġìķ Ħ
êµ ¬
Ġsh ould
Ġsu ch
il y
o ol
ra ct
Ġs m
i ent
ìĻ Ģ
Ġin st
e w
Ġ ent
Ġ ke
Ġí ĺ
u res
Ġc ould
Ġìł ķ
ic es
p s
Ġì °
Ġì ļ
ĠY ou
Ġman y
ì ¶
in ess
Ġe ff
_ {
Ġa c
Ĩ µ
a x
ic t
Ġ 9
Ġì ĸ
Ġw ay
Ĥ °
u ch
r it
ol og
Ġse c
b le
---- ----
Ġf ind
Ġl oc
ëħ Ħ
an y
it s
Ġde c
í ı
ation al
Ġf in
Ġgo od
Ġdif fe
Ġc our
Ġëĵ ±
if e
ers on
Ġv al
Ġyear s
p ro
ë¬ ¸
Ġìł ľ
Ġg reat
ul l
Ġb us
iz e
íĦ °
Ġ2 00
Ġev en
e x
t ing
ur ing
Ġr ight
íķĺ ê³ł
Ġat t
ĠU n
d ay
Ġsu b
Ġin s
w ard
t s
í ĥ
ak ing
i x
Ġh igh
} }
Ġtr ans
Ġo wn
Ġsh ow
vel op
Ġì Ĩ
ìĬ µ
id ent
Ġin form
it ed
Ġs im
ĠR e
Ġp res
T h
1 9
Ġd et
ìŀ ¬
Ġë³ ´
pt ion
Ġìŀ Īëĭ¤
d er
Ġbec ause
ĠâĢ ĺ
Ġì ¶
he s
Ġst art
c y
Ġf un
ĠI f
Ġn ow
ë ¹Ħ
ic s
Ġin te
or k
i ence
i o
ìĭ ł
Ġus ed
Ġin ter
a ir
Ġc ar
Ġn um
ì§ Ħ
Ġì £¼
ar ch
od e
ĠC om
ê ¹
u p
Ġm in
1 0
ìĨ Į
l ine
Ġìŀ Ĳ
Ġg u
Ġcl ass
Ġfor m
Ġsy stem
Ġd id
Ġ$ \
Ġd own
ri v
Ġpl ay
u es
ê³ Ħ
ut ion
Ġb est
Ġl ong
ow er
Ġê² ½
n g
Ġdo es
h ip
== ==
Ġì ¤ĳ
00 0
Ġsa id
Ġm uch
Ġ .
Ġe nd
ol low
Ġdis c
ub lic
Ġdes ign
í Ķ
Ġa v
Ġde f
Ġre ad
Ġc he
ì Ĥ°
g an
ëĭ Ī
ëĵ ľ
Ġs ur
Ġd ay
ot her
íķ ł
ĠìĿ ¸
Ġ íķĺ
Ġh ome
í Į
Ġd on
Ġëĭ ¤
Ġm on
ĠìĿ ´ë
i el
Ġê³ µ
an k
Ġo b
u nd
ì¹ ĺ
e ver
Ġm ade
ĠP ro
Ġbe fore
ut e
d e
Ġe ach
ë© °
Ġto o
Ġbus iness
al th
Ġt ake
Ġc re
Ġprov id
Ġc all
as h
Ġde velop
Ġhe re
e e
Ġp erson
Ġinform ation
Ġm ark
n er
Ġv ar
< /
Ġc ur
Ġpro g
ëĭ ¨
re st
Ġex p
Ġìľ Ħ
ìĦ ¸
Ġch ar
we en
Ġcomp le
ëª ħ
ê³ µ
Ġth ose
ê° Ħ
Ġag ain
Ġres ult
íĸ ī
ìĬµ ëĭĪëĭ¤
l ed
Ġdiffe rent
ag es
Ġo p
Ġt y
Ġf am
Ġë¶ Ģ
2 0
Ġbe ing
ìĹ ¬
o ad
ain t
ch n
v en
al ity
ì° ¨
ìĿ´ ëĭ¤
Ġus ing
c on
im es
ìļ °
as on
Ġret urn
Ġbet ween
Ġm em
u ally
Ġê ±
Ġv is
Ġf ollow
Ġs ign
ëį °
Ġprodu ct
Ġha nd
in ce
Ľ Ħ
Ġf act
Ġth ink
ì ¡°
re ad
Ġì ²
ire ct
in s
Ġa ut
Ġ i
sel f
ust om
Ġsupp ort
ê¸ Ī
Ġc or
at ch
Ġ Ċ
in es
ëŁ ¬
ch ool
Ġm ed
ĠëĤ ĺ
al e
ë £
Ġd ist
ìľ Ħ
Ġg ra
iel d
m s
Ġd ata
ction s
p r
m ath
ĠA nd
ìķ Ī
Ġpro cess
Ġwh ile
Ġì ĥģ
a ve
et s
ĠA l
ìĦ ł
Ġs ame
ou n
ĠìĿ ¼
Ġp ol
Ġëª ¨
w ay
" ,
¯ ¼
Ġê ¸
iz ed
ìķ ¼
i er
t t
ĠF or
Ġg ener
Ġb o
ê² ½
E R
at ure
Ġh im
m a
Ġ2 0
Ġb oth
v iew
Ġs er
} $
ou se
ĠA s
ê ´Ģ
Ġar t
Ġcon st
Ġwor ld
n ess
Ġwe e
u g
Ġp at
c o
ê ·
Ġc le
at her
Ġp ur
l and
Ġl ife
in ed
ë§ Ī
Ġs ol
ru ct
Ġch ild
Ġe as
1 2
Ġex t
p os
Ġ ed
iv es
ant s
Ġ1 2
ĠD e
Ġë Ĳ
Ġt ri
Ġf ound
Ġë ²
µ ľ
ìĽ Ķ
Ġapp ro
Ġad v
i red
S t
ar n
ê¹ Į
Ġìĺ ¤
Ġpo int
Ġl ar
t he
ìŀ ħ
al k
am p
Ġs k
Ġst ate
Ġl ist
ê° ľ
Ġc ase
Ġp ost
W e
ak es
Ġim port
. ,
ar s
g er
Ġt est
Ġle ad
Ġf il
Ġst r
Ġa round
Ġre p
ate g
. "
Ġl ast
Ġc are
ëĭ ¹
Ġí ı
Ġí Į
rou p
ĠA n
i et
Ġc ount
_ _
Ġg l
Ġprog ram
le ase
i vers
Ġ /
Ġpl ace
en se
r ight
Ġcomm un
at or
Ġêµ Ń
ce pt
ì² ´
el s
Ġpart ic
Ġnum ber
t o
ë Ħ
ëĲ ĺ
b e
Ġì Ĭ
Ġs om
Ġê ´Ģ
Ġpro f
Ġ Q
Ġre ally
Ġeff ect
Ġd el
Ġc ustom
i qu
Ġav ail
m e
Ġin f
l ess
Ġpro per
Ġ :
Ġpos s
ê± °
w ays
in ing
Ġre f
5 0
ion al
1 1
Ġsm all
Th is
Ġr un
Ġf ree
t on
ter s
^ {
a z
Ġb ook
ĠC l
ĠS h
Ġspe c
Ġte chn
ar m
Ġis s
ĠN ew
Ġst ill
ĠA r
I N
Ġp ublic
Ġex am
Ġì ¹
Ġì ¡°
ìĭ Ŀ
¶ Į
Ġwith out
Ġm ust
Ġl ove
Ġor der
Ġë į
Ġpl an
Ġcon f
Ġìľ ł
Ġth ough
u c
Ġto p
ĳ ľ
ë¶ Ħ
Ġê³ ł
Ġres p
ĠìĨ Į
ìĺ ģ
i ents
Ġte am
v ed
íı ¬
Ġë ¹Ħ
Ġë Ķ
ëĲ ľ
Ġall ow
v ing
ìĹ °
í ŀ
ĠThe re
ic ally
od y
pe nd
er n
íķ ©
Ġí ĸ
er g
ìĺ ¤
Ġpro ject
Ġth ree
ëł ¥
Â ·
ro ss
olog y
Ġd uring
í ģ
ri end
ìľ ł
Ġ1 8
pl oy
( )
id er
g g
Ġì Ľ
Ġavail able
Ġe qu
er r
Ġbu ild
v ent
Ġre ce
ë¬ ´
Ġfe w
g in
o ver
ì ¦
Ġc ent
Ġre al
íķ Ļ
it al
ar ly
ĠThe y
w are
ì¶ ľ
a pp
n ect
iv ing
Ġinte rest
ĠB ut
Ġgo ing
ro l
Ġl ot
O N
ĠìĦ ľ
í Ĩµ
Ġop en
ĠH ow
p ar
Ġper form
Ġ ide
Ġí Ķ
Ġsec ond
a h
Ġst and
m an
Ġn ame
itt le
ren ce
ĠìŀĪ ëĬĶ
Ġre st
Ġê° ľ
is ion
Ġqu est
Ġìĭ ł
Ġinc re
a red
ĠW h
ist s
ìĭ ¤
ur al
3 0
Ġserv ice
s c
Ġe l
ëł ¤
Ġmon th
ĠìĿ ĺ
I t
Ġhe alth
ìŀ Ħ
Ġw r
ĠA d
Ġ est
b ers
ĠìĹ °
if ied
Ġmark et
Ġcomp any
ĠìĹ ¬
is hed
í ħ
2 01
Ġle vel
ķ Į
Ġke ep
" >
Ġinclud ing
Ġë§ Ī
en g
Ġha pp
Ġpro ble
ë ¯¼
í Ĵ
Ġp ay
Ġw ater
st and
ent ial
Ġêµ ¬
as es
Ġcont in
Ġle t
am es
Ġ ve
Ġ1 1
Ġm at
i en
a ut
Ġ1 5
Ġì µľ
Ġor gan
Ġo per
us s
p ut
** **
Ġìķ Ĭ
Ġp ass
ĠP l
i k
Ġt ry
Ġbe l
ĠìĹ Ĩ
Ġd irect
Ġt erm
Ġexper ience
íŀ Ī
Ġë ¯¸
Ġfe el
ì Ī
ë ¯¸
Ġal ways
r al
Ġwith in
êµ Ĳ
if y
ĠìĦ ł
r id
th ing
Ġprov ide
Ġì Ļ
s h
re t
Ġë¬ ´
Ġpres ent
ate ly
re en
ê ¶Į
ì ĥĿ
b o
d ition
Ġfam ily
Ġimport ant
Ġ íķ´
Ġth ings
ĠO n
ìĹ Ń
eth ing
ê ·¸
¢ ħ
ĠS o
in al
cc ess
Ġne xt
ì ¤ĳ
Ġex pl
Ġval ue
o id
Ġbet ter
Ġs chool
Ġsu re
iv id
ìĿ´ ëĿ¼
Ġs ay
Ġl ittle
Ġc ost
Ġre port
ra y
Ġcur rent
ì ¡
Ġoff er
ot e
ëħ ¸
ab ility
Ġapp lic
ot t
Ġs l
o f
r ation
o int
ĠE x
Ġc ert
p art
ìŀ ĳ
r on
mer ic
Ġs ince
i or
ëĤ ľ
er y
Ġë° ľ
Ġan other
E S
Ġ |
Ġcom e
Ġìķ Ī
Ġl ight
c ent
o ot
e ad
Ġcour t
eth od
iz ation
Ġë§ Ĳ
Ġ //
Ġë° ©
Ġ @
Ġg ive
Ġab le
A T
Ġa ff
Ġadd ition
Ġí Ĩµ
Ġm ight
a j
Ġl aw
Ġsom ething
v es
ìļ ¸
Ġp ut
í ĳľ
Ġare a
m in
Ġë ħ
Ġë§ Į
Ġb re
Ġë° Ķ
A R
Ġserv ices
} \
Ġo pp
a im
- >
íĺ ¸
ain s
Ġpro t
Ġf ull
Ġc r
Ġinv est
Ġp ower
Ġhe ad
at ic
ĠI nd
s p
ur y
Ġf riend
iv en
i um
iss ion
Ġb ra
Ġm et
ĠS e
Ġacc ess
i ver
ĳ Ĳ
Ġ3 0
íĴ Ī
Ġfun ction
ĠS c
te nd
í İ
Ġspe cial
1 5
ìļ ´
1 6
or n
ëŀ ĺ
Ġb ig
ìĿ Į
I f
an n
Ġì° ¨
Ġl ess
Ĩ ł
ë° ©
Ġp ar
e red
ì§Ģ ë§Į
Ġv iew
ĠC on
l ing
Ġo pt
w ork
Ġe le
Ġm us
ì² ľ
W hat
ī ´
Ġ Z
p or
Ġs oc
ard s
í Ĺ
ĠA ll
Ġg row
Ġì ĥĿ
our ce
om m
Ġen g
ir d
it ions
em s
Ġim p
Ġ x
íķľ ëĭ¤
Ġc a
íĥ Ģ
is m
ë° Ķ
Ġloc al
w w
ent ly
te xt
r an
½ Ķ
Ġì ´
¤ Ģ
Ġo ld
Ġí ĥ
Ġlar ge
ĠA meric
Ġl ine
ĠS he
Ġê ¹
Ġh ard
one y
ĠL et
Ġre se
Ġon line
ĠìĬ ¤
ì¹ ´
Ġb en
Ġph ot
Ġd ays
Ġb ro
Ġn on
ĠP h
ra c
Ġ1 6
Ġact iv
m ed
Ġs it
ort un
v al
Ġem ploy
ĠA pp
O R
Ġë ķĮ
Ġë° ı
Ġìŀ ¬
) )
ì ħ
Ġb as
Ġm ov
o k
he re
ra ph
Ġ1 4
ain ed
Ġìļ °
Ġne ver
ìĸ ĳ
it ive
ĠI s
ĠW hat
ivers ity
Ġwe bs
ĠC ol
Ġt urn
m on
Ġu nt
is ed
are nt
Ġche ck
Ġìĺ Ī
ir on
id ence
ĠëĤ ´
ĠB l
Ġëı Ļ
in ation
t en
Ġch ang
ëª ¨
1 8
our s
ĠìĦ ¸
Ġro om
1 4
ìĨ į
oc i
ir c
Ġëı Ħ
Ġí Ĭ
r ist
ë° ľ
Ġ1 3
" :
2 5
c ing
ĠL e
el f
-------- --------
\ ]
ë² ķ
Ġch ange
Ġp op
ĠS p
Ġë¬ ¸
j oy
Ġs ing
Ġíĺ Ħ
! !
Ġwork ing
re am
Ġm ult
ent ion
Ġ z
Ġas k
Ġrec ord
ê¹Į ì§Ģ
Ġg roup
ric t
] {
ëĬ ¥
ĠB e
o pe
Ġp rom
Ġim pro
1 3
Ġl im
le t
Ġf ac
Ġcon nect
Ġb ased
Ġagain st
m m
Ġp ract
í ĽĦ
Ġwee k
Ġev ent
íĸ Ī
ë¡ Ŀ
) $
ã Ģ
Ġê° ķ
ëĤ ´
Ġc ap
Ġty pe
Ġin tern
íģ ¬
ab ly
iv ed
Ġ19 9
ot s
h or
Ġan al
os s
E N
Ġde v
Ġchild ren
Ġt reat
ê° ģ
s et
Ġìĺ ģ
o h
Ġs ite
ë§ ¤
at s
Ġprof ess
Ġg ame
um p
ie ve
Ġme et
ê± ´
Ġle g
f ect
t a
g ed
ater ial
íĶ Ħ
A N
en cy
Ġm aking
Ġunder stand
Ġbe h
Ġvis it
Ġp a
l oad
iqu e
( \
ut es
Ġcomple te
age ment
Ġqu ality
Ġìĭ ¤
y n
: :
Ġf ood
Ġex pect
I T
u pp
Ġê ·
v ious
Ġposs ible
y le
Ġsu ccess
us h
Ġì§ Ħ
o or
ëł Ī
l ish
Ġt em
ic le
Ġm ethod
ë° °
em ber
ìĭ ¬
Ġs al
at t
ĠìĦ ±
ou th
Ġstud ents
Ġspec ific
Ġ X
ê² ©
ëį ĺ
Ġë Ħ
S T
==== ====
ë¬ ¼
ĠT o
Ġj ob
le ction
â ĸ
as ter
Ġf our
Ġg ot
Ġê¸ Ī
n ot
Ġe lect
Ġlook ing
ure d
ë Ķ
Ġal ong
ĠíĻ ķ
2 00
Ġunt il
Ġproduct s
R e
Ġcour se
ĠT e
f er
ĠR es
Ġd i
b y
Ġcre ate
Ġo cc
Ġw in
oc us
Ġf ield
Ġìŀ ¥
Ġcon c
Ġgo ver
Ġ1 7
ĠU S
Ġcont rol
Ġto day
ro om
ë° ĺ
Ġneed s
m b
Ġg r
Ī ¬
ìł Ģ
Ġê± °
Ġ ,
c ri
1 7
ind ow
ur ther
ëĵ¤ ìĿ´
Ġc reat
Ġp ot
it her
Ġh ist
ĠW hen
Ġ #
ivid ual
Ġcons ider
Ġcl aim
2 4
âĢ ľ
ill ion
ë¥ ´
ĠW ith
Ġen joy
Ġacc ount
ìĸ ´ë
Ġind ust
Y ou
ĠìĽ Ĳ
Ġh um
Ġdet ail
ar ing
Ġre view
Ġ vers
ri es
Ġrequ ire
Ġë Ĩ
iet y
Ġm ot
i pp
í ĭ
Ġë¶ Ħ
' ,
f or
ê¸ ī
E D
er ing
ro p
ì² Ń
ìł Ĳ
Ġd ra
ff ic
Ġs w
ne y
A L
Ġt imes
u ment
ĠC o
Ġêµ Ĳ
Ġ1 00
Ġì¶ Ķ
]{ }
Ġan n
ìĦ Ŀ
am b
or ies
ĠT r
ĠëĶ °
du ct
c al
Ġa way
get her
Ġto gether
Ġle ft
ĠO r
Ġw rit
Ġd ri
Ġof ten
or th
ĠA t
Ġle arn
Ġbu y
Ġeas y
Ġse ver
3 2
Ġh ouse
Ġê³ Ħ
Ġl ow
Ġwebs ite
is ing
n ment
s ide
_ {\
ra p
Ġp riv
Ġha ving
Ġfollow ing
in a
ne w
Ġben ef
Ġg iven
Ġre ason
Ġresult s
v iron
Ġke y
ì ´
Ġinclud e
if t
Ġm aterial
Ġ ident
ë£ Į
ill s
Ġì Ĥ
: //
Ġprot ect
Ġs ide
Ġm oney
ë¥ ¸
d ing
ul ation
res ent
Ġí ĽĦ
Ġind ividual
if f
fe rence
ì ¢ħ
ver t
í Ĩł
Ġ Â
ìĹĲ ê²Į
Ġwh y
Ġexam ple
ĠM an
Ġty p
le y
at ures
Ġn et
A s
Ġe t
Ġre du
s on
fe nd
Ġsh ort
Ġstud y
read y
ëŁ ī
ì ¸
op y
ë©´ ìĦľ
r m
Ġí ģ
ĺ Ĳ
ĠN o
Ġwor d
Ġsp ace
Ġë§ ¤
Ġso ft
ìĹ Īëĭ¤
Ġì¶ ľ
Ġs elf
Ġme ans
Ġ2 4
ìłģ ìĿ¸
aj or
Ġh ig
ìĹ Ī
ĠTh at
om en
íĺ ķ
Ġëį Ķ
í Ĥ
an e
ìĦ ¤
Ġ es
Ġh old
Ġsever al
f rac
ìķ ½
an ces
Ġ2 5
ì ¤Ģ
ĠCom m
Ġdet erm
Ġrese arch
Ġd one
ĠThe se
Ġpartic ular
Ġm ain
it ing
Ġor ig
Ġme an
Ġa ir
Ġcommun ity
pe cial
u se
r ont
Ġperson al
Ġê² °
ord ing
ë¶Ģ íĦ°
± ħ
ro ll
Ġp ast
Ġf ocus
Ġv ide
Ġm ove
ur s
id s
ĠHow ever
Ġt re
Ġc ou
8 0
Ġk ind
, âĢĿ
Ġex ce
Ġinv ol
Ġcert ain
Ġwhe ther
u ck
ĠCh rist
ĠC ent
Ġper fect
ê² ł
u le
Ġë¶ Ī
Ġcomm on
Ġdevelop ment
Ġpro b
Ġmod el
Ġl ink
íĺ Ħ
Ġp age
Ġ err
Ġbe aut
ut ions
l ab
Ġproble m
ĠC an
o ice
u ro
i od
ĠëĮĢ íķľ
Ġf ile
Ġë° Ľ
ë³ ¸
Ġal ready
Ġchar act
Ġc ell
Ġbec ome
ĠëĲ ĺ
Ġb ody
ã ģ
ain ing
Ġab ove
ore d
Ġcont act
Ġmem bers
l i
I C
ëł ¨
ë¦ °
a ff
Ġm akes
Ġê¹ Ģ
Ġì ¢
Ġl and
ive ly
Ġth ing
Ġc al
ut ure
Ġìĸ ´ë
6 0
a pe
u ff
ì§ ģ
Ġr ange
ìĹĲ ëĬĶ
ìĪ ł
A S
( "
ag n
Ġf ore
' m
l er
viron ment
E x
Ġopp ortun
ìłģ ìľ¼ë¡ľ
, "
Ġen ough
Ġë§ İ
( -
Ġob ject
Ġs ize
in c
ĠUn iversity
Ġm ar
Ġproper ty
´ ĳ
ateg ory
4 0
ëŀ Į
Ġst at
Ġst ruct
Ġcall ed
og raph
Ġm ajor
Ġf av
âĢ Ķ
pl ay
Ġ201 8
Ġp ack
Ġf und
Ġme as
L et
¸ Į
# #
Ġle ast
ê° Ĳ
Ġì ¦
s w
Ġcom b
Ġsu per
Ġí ļĮ
Ġn ight
Ġê¸° ìŀĲ
al f
Ġf ar
F or
c rib
2 2
Ġen erg
Ġëĭ ¹
Ġëħ ¸
os p
ìķ ĺ
âĢ ĵ
ĠE ng
ac es
ĠG od
Ġë° ĺ
ë¡ ł
Ġb it
ap s
Ġother s
Ġoff ic
Ġed uc
Ġì§Ģ ëĤľ
ì§Ģ ëħ¸
ĠSt ate
P ro
ur ity
ĠM ar
os ed
u nt
ìĸ µ
ĠM y
Ġf ail
ĠO ur
R E
as k
Ġìł ģ
Ġp ort
Ġst ep
c er
Ġsoc ial
Ġto t
Ġ5 0
Ġê° Ļ
oo se
Ġam ount
Ġac ross
00 00
g es
Ġd ue
íķĺ ê²Į
f ace
pl ace
c he
Ġbe low
Ġdisc uss
Ġl a
Ġcom es
Ķ ëĭ¤
$ .
Ġc e
ĠâĢ Ķ
y l
' re
en n
Ġv ol
st r
Ġto ol
y pe
A C
l ished
Ġan t
itt ed
t r
Ġen s
Ġrequ ired
ward s
Ġqu ick
Ġê° Ĳ
ëĭ ¬
Ġadd ress
Ġel se
is k
$ ,
ĠUn ited
H e
id es
Ġco ver
c hes
íĮ Į
Ġsing le
$ \
Ġìķ Į
d d
íĹ ĺ
ë ī´
Ġsign ific
ĥ Ī
an ks
ëĭ¤ ëĬĶ
au gh
Ġpur ch
Ġre le
Ġquest ion
ign ed
our ces
íķĺ ê¸°
Ġe ver
a ult
ëĤ ¨
Ġw a
Ġget ting
o x
con om
en e
ĠF l
il t
is ter
Ġstr ong
Ġp ri
er al
Ġmus ic
Ġin it
Ġapp ear
Ġf uture
Ġd oc
ê· ¼
Ġdo ing
u f
Ġinst all
Ġm ind
Ġh ot
Ġìł Ģ
ic y
ĠíĬ ¹
Ġde al
ent al
Ġper iod
ib ility
ĠC our
if ul
il ities
Ġtr ue
Ġkn own
um e
Ġpr ice
Ġë ©
Ġenerg y
Ġcont ent
Ġar g
m ber
ĠC al
Ġcomp an
Ġcle an
. âĢĿ
C h
ìĿ´ íĬ¸
Ġen c
ct or
ific ation
Ġcom pl
C on
Ġcomp et
Ġl ive
ĠC ar
id d
Ġcount ry
it or
ì² ĺ
Ġbre ak
Ġact ually
ì¦ Ŀ
ìŀħ ëĭĪëĭ¤
Ġìĺ ¬
in o
2 3
T o
íĥ ľ
Ġe ither
I D
Ġí İ
b ack
e b
9 9
Ġt ell
I S
ar get
c ul
Ġsh are
ĠM ay
Ġf urther
Ġc ity
ĠS y
Ġon ce
ak en
Ġcl ose
ì Ķ
m l
Ġp ick
Ġch all
th ough
A n
ĠìĦ ¤
Ġl ater
Ġrequ est
o pp
Ġìŀ ħ
m ost
le ft
n ame
on es
' ve
a i
ar ning
il ar
un e
Ġte xt
.. ..
ëł ¹
g le
pl es
7 0
Ġse ason
ru ction
Ġa ction
ê »
et er
} {
ĠìľĦ íķ´
Ġresp ons
Ġprovid es
Ġph ys
ê° ķ
Ġm om
Ġë° °
Ġh y
C l
ir m
Ġse lect
Ġcor re
ĠA ss
oh n
p ly
ur ance
Ġrec omm
Ġ ess
c hed
Ġm aint
u ed
Ġb r
Ġrep resent
Ġíı ¬
Ġmonth s
Ġmin utes
Ġrecomm end
Ġb ring
ress ion
W h
Ġpat ients
Ġt ax
Ġë ĺĲ
Ġ* /
6 4
Ġsu gg
ìĺ Ģ
Ġl og
Ġsugg est
Ġh ours
ëĦ ¤
Ġíķľ êµŃ
ì »
as ing
Ġsim ple
Ġgover nment
O n
Ġfe atures
Ġdoes n
Ġstart ed
Ġres pect
on y
Ġcomp ut
led ge
Ġf re
Ġaut hor
Ġse arch
Ġê²ĥ ìľ¼ë¡ľ
Ġcon d
Ġiss ue
Ġsignific ant
Ġt alk
Ġdid n
ê² °
Ġm il
Ġm en
ic ro
ì§ Ī
Ġc ut
Ġm ess
n ers
at ural
Ġb ar
ip le
Ġst ory
( );
Ġwork s
Ġpot ential
Ġbe gin
Ġe arly
Ġê² Į
Ġen vironment
Ġj ud
Ġex ist
b b
og n
Ġindust ry
Ġt able
íĻ ĺ
Ġë Ĭ
Ġc ode
ang u
ab les
Ġd r
Ġëĭ ¨
cl us
Ġíķ ł
Ġev idence
ĠO ne
re g
ic ation
E C
o le
Ġiss ues
, \
Ġl o
Ġdif f
Ġcompan ies
Ġne cess
b ook
Ġd ig
Ġb ed
Ġst ore
Ġ< /
Ġbuild ing
res h
Ġoff ers
H ow
ëĬĶ ëį°
Ġvar ious
Ġë° Ŀ
ĠIn st
Ġp ress
Ġp ie
Ġde m
ol l
Ġo bs
ĠIn tern
st er
ëĶ Ķ
ë ĳĲ
íĭ °
Ġs ent
Ġw alk
Ġup d
i ans
ĠD o
Ġ --
Ġrel ations
ĠT ra
ac y
Ġprovid ed
Ġass oci
ĠCour t
Ġc red
Ġëĵ ¤
tt p
a ction
ĠE n
Ġc oun
Ġe y
it le
Ġtoo k
et a
e al
Ġde pend
Ġapplic ation
g s
Ġc irc
Ġyou ng
ip s
Ġ201 7
Ġthough t
an cial
Ġfin al
Ġimpro ve
Ġc amp
ĠSt ates
im ate
Ġë ¹
Ġvide o
ë¦ ½
Ġpriv ate
ëĭ¤ ê³ł
The re
í ļ
Ġag ree
Ġy et
Ġc ame
Ġì° ¸
Ġtri al
at ors
Ġfriend s
Ġs ound
ar r
ì ½Ķ
t ed
Ġhe art
Ġa ge
Ġw on
Ġem ail
f ig
ĠAmeric an
ful ly
Ġcol or
Ġìŀ ĳ
Ġst ay
n ow
Ġd ou
ìĻ ¸
Ġhow ever
´ë ©
Ġde fend
Ġperform ance
Ġth ird
Ġtra ining
A M
Ġl ab
ĠC ount
un ch
Ġest ab
Ġd am
Ġevery thing
g a
ĠS erv
ĠM ed
g r
d a
f ort
pecial ly
Ġp ict
Ġab s
Ġbeaut iful
ĠëĤ ¨
ic ated
Ġpos ition
] .
Ġam ong
ph a
Ġ4 0
Ġs at
Ġman agement
Ġc ard
ĠC ont
Ġquest ions
Ġhum an
Ġgener al
Ġbra nd
Ġj o
g o
Ġcustom ers
u ation
3 5
Ġwe b
Ġtechn ology
Ġm illion
Ġp arent
s y
ob al
Ġwho le
ir t
ie f
c le
ib r
Ġse en
2 8
ë² Ħ
Ġc ult
Ġbl og
ê» ĺ
E T
b r
2 7
' ll
íĮ Ĳ
Ġus er
us ed
ill ed
u x
eng th
Ġhapp en
ys is
Ġpre vious
Ġsub ject
2 1
ëĵ ł
ìĺ ¨
i res
is on
Ġe conom
Ġcle ar
Ġp ub
ĠíĶ Ħ
ight s
Ġob t
Ġex c
**** ****
Ġun ique
Ġw ond
Ġ201 9
Ġman ag
Ġpartic ip
Ġcharact er
ì ¼
O U
Ġf ive
íĤ ¤
a f
al se
Ġpr int
her s
Ġprofess ional
ĠA fter
Ġvers ion
ĠW or
Ġt aking
ĠíĮ Ĳ
Ġsim ilar
Ġare as
d ef
ĠCom p
Ġs ays
Ġne ar
Ġp lease
h ib
Ġê³ ¼
\ [
ĠP r
ë° ķ
Ġtreat ment
Ġìļ ´
Ġterm s
Ġtra vel
t ime
g est
i ate
g ra
ĠC he
ĠíĨµ íķ´
ic ult
ĠE uro
Ġb ase
ĠíĮ Į
Ġide a
Ġst e
ĠS te
Ġent ire
Ġcont ract
on se
Ġstr ateg
Ġp ain
ast ic
Ģ ìĿ´
Ġc rit
Ġc ra
Ġì Ī
Ġdist rib
2 6
om es
Ġsystem s
o ber
Ġf low
Ġper cent
ol ution
Ġe ar
ë£ ¨
Ġa ch
4 5
í Ŀ
Ġtra ck
Ġup on
Ġser ies
ĠJ ohn
Ġra d
Ġs ell
Ġpa per
I L
Ġëĭ ¬
Ġw ent
Ġ ...
Ġë ¨
ur ch
Ġh ost
at ter
ĠC ity
Ġh ope
Ġf ront
Ġìļ Ķ
id ed
Ġneed ed
Ġreg ard
it es
Ġre d
is es
Ġhist ory
ëį Ķ
] ,
op s
g ing
Ġw omen
iv al
h ing
le ge
g round
re et
Ġa ud
êµ °
he ad
Ġmat ter
ro du
and s
Ġsoft ware
ì ĥ
3 3
em pt
Ġbel ieve
Ġsim ply
íĶ ¼
ëĵ ±
Ġne g
Ġan sw
ë² Ī
Ġn orm
Ġtot al
Ġl iving
le x
ĠD es
it ch
7 5
ke y
2 9
Ġsome one
im um
or g
Ġst yle
Ġdef in
ĠN e
Ġass ist
b l
ìĿ´ëĿ¼ ê³ł
O T
Ġ201 6
re me
ul es
im al
ĠG u
Ġ >
Ġfav or
Ġadd ed
Ġopt ions
ob ile
Ġchang es
Ġì¢ ĭ
Ġexper ien
Ġr ate
av ing
ens ive
i ol
re w
Ġse ction
Ġdown load
Ġì§ ģ
uf act
ov ed
Ã ©
Ġde b
se c
Ġmed ia
i able
Ġev ents
ect ion
Ġíĸ ī
ad d
Ġdes crib
m p
Ġcan not
o on
m y
í ĥĿ
ìľ ¡
Ġhig her
ict ion
Ġt aken
Ġqu ite
Ġíı ī
Ġl ay
± Ħ
Ġpart y
ĠS ec
c ome
Ġìĸ ´
ëĵ¤ ìĿĺ
ĠíĶ ¼
ĠT H
Ġf ace
W hen
g ment
Ġm ach
Ġd en
Ġpoint s
Ġë¬ ¼
ëĲ Ĳ
f l
Ġc ases
Ġdesign ed
Ġoff ice
Ġm or
Ġê²½ ìļ°
Ġhe ld
Ġ19 8
íķ Ń
ĠM e
Ġp an
Ġpri or
íĸ ¥
b all
Ġext ra
Ġm ass
Ġwrit ing
Ġë°Ŀ íĺ
sel ves
ĠìĹ Ń
Ġcre ated
math cal
ir l
Ġes pecially
m it
ens ion
a ur
Ġdiff icult
ìĬ ¹
ĠìĤ¬ ëŀĮ
w h
Ġì¹ ´
Ġw ide
Ġr ather
e es
Ġac cept
ëī´ ìĬ¤
Ġr isk
Ġinclud es
Ġstand ard
Ġo ption
Ġknow ledge
ìħ ĺ
Ġf all
Ġn atural
Ġë Ī
Ġd ate
Ġh alf
un g
at ory
ì ±ħ
O M
C ategory
) /
Ġde g
Ġproble ms
íķ ¨
Ġst aff
Ġp ath
Ġrelations hip
Ġincre ase
Ġeng ine
Ġm iss
ach ing
Ġnet work
Ġany thing
Ġinf l
Ġlike ly
Ġal most
angu age
Ġeff ort
Ġim age
A l
our n
Ġcont rib
re c
Ġrece ived
z e
Ġ2 1
Ġw all
Ġaut om
Ġbl ack
ĠEuro pe
Ġsu m
) :
Ġin j
Ġro le
´ë ĵ
itt en
Ġì¦ Ŀ
ĠìĦľ ìļ¸
nd ing
s er
min ist
Ġíķ ¨
Ġch oose
Ġë¬´ ëĭ¨
an ced
Ġet c
re f
ë³ µ
¤ Ħ
Ġaddition al
ĠM in
· ¨
Ġfin ancial
Ġg round
cri ption
ĠìĹ ´
ë³ Ħ
Ġíķ Ħ
in ary
Ġse em
Ġf oot
9 0
am s
w here
Ġd om
ë§ Ŀ
ëĵ¤ ìĿĢ
il le
al pha
ĠS ee
Ġ2 3
ĠìĻ ¸
ro wn
Ġens ure
k r
Ġorig inal
6 5
p ose
ĠëķĮ ë¬¸
Ġo il
Ġapp ly
Ġì »
( '
ĠìŀĪ ìĬµëĭĪëĭ¤
Ġë ¦
íİ ¸
ĠN ot
indow s
Ġve h
Ġc ook
Ġt arget
Ġ[ @
Ġshow s
Ġsh all
ver age
Ġimp act
ĠY our
ĠA ust
Ġf ul
Ġ2 8
ri ed
ĠN ational
Ġtry ing
ple ment
n ov
it c
Ġdetail s
__ __
itt ing
Ġst ra
Ġcond itions
Ġ201 5
b f
ess ion
ĠS outh
Ġc ause
íĻ ©
Ġfe ature
i ation
Ġwh ite
er c
O S
} (
Ġì ĥĪ
ë¶ ģ
it er
Ġì´ Ŀ
Ġw ays
Ġí Ī¬
r t
Ġs ource
Ġ ut
Ġbo x
I ON
Ġ íķĺëĬĶ
S o
A nd
E L
íķ© ëĭĪëĭ¤
Ġrec ogn
ĠA ct
á Ħ
B ut
Ġmult iple
ì¹´ ì§Ģëħ¸
port s
Ġ _
Ġevery one
Ġg ames
Ġl oss
) \
´ë© ´
at form
¸ Ķ
et y
iv ity
Ġcom fort
l t
ove red
ë°° íı¬
Ġíķ ©
A P
Ġse par
Ġind e
ĠB y
Ġyour self
Ġ !
Ġë ĳĲ
ì¦ Ī
Ġ âĸ
Ġappro ach
Ġdec ision
ĠB o
ĠS chool
Ġpr im
ëĭ ´
ĠIn c
Ġê°Ģ ëĬ¥
Ġê± ´
rou ps
Ġle arning
ren ces
Ġv ia
ë¥ ĺ
ĠJ an
ëŀ Ģ
Ġíĺ ¸
olog ical
Ġl ower
Ġreg ular
ĠN orth
Ġf it
Ġcons um
Ġsec urity
ac ed
Ġrel ated
Ġg en
ĠC or
oo gle
ĠM r
iz ing
Ġpop ular
Ġí Ŀ
dition al
Ġfor ward
op er
ĠìķĦ ëĭĪ
Ġcl ick
ĠY ork
aint iff
ou d
Ġcontin ue
Ġsol ution
Ġcustom er
Ġso on
Ġins urance
Ġm ax
Ġinclud ed
c ont
Ġerr or
Ġf ram
Ġout side
Ġprob ably
Ġro ad
ë ¨
u ild
Ġins ide
ĠQ u
Ġopportun ity
b ar
Ġt ru
ĠëĮĢ íķ´
Ġs ens
ĠD r
le ment
ìĽ Į
Ġf ire
Ġì ½Ķ
Ġloc ated
Ġb ad
Ġrece ive
Ġt akes
t ies
Ġacc ording
ut ed
Ġìļ° ë¦¬
Ġide as
Ġc y
um n
ĠëĨ Ĵ
Ġmem ber
ĠìĤ¬ ìļ©
id th
ĠA g
m ing
Ġs ix
Ġíķľ ëĭ¤
Ġex act
et imes
Ġìł Ĳ
ac he
ĠíĻ ľ
4 4
ì° °
N ame
Ġeff ic
ol id
Ġint rodu
Ġcol lect
Ġman ufact
Ġthrough out
el ta
Ġcl ients
e y
Ġw atch
Ġ `
Ġus ually
Ġus ers
Ġrun ning
er a
c ol
Ġsa fe
pp er
ĠD ep
Ġë° ķ
Ġpre t
clud e
ĠP art
ĠCount y
p ri
Ġê² Ģ
ë¹Ħ ìĬ¤
Ġanal ysis
Ġnecess ary
ìĨ ¡
Ġph one
Ġnew s
W ith
ì§ ĳ
ì¡ ±
C om
ë¦ Ħ
ĠG l
Ġto ld
íķĺ ìĹ¬
Ġí Ĺ
Ġpol it
Ġag o
ìĸ ¸
Ġpract ice
ëª ©
ist ic
Ġgrow th
ĠP ark
Ġë¦ ¬
ail y
íħ Ķ
ë ¸Į
Ġactiv ities
Ġpol icy
is c
Ġit ems
3 8
Ġp ric
Ġëª »
en c
o ff
ĠS u
Ġ2 6
ĠP e
Ġaff ect
erv ed
Ġword s
Ġeduc ation
Ġlong er
´ë Ŀ¼
Ġb ott
Ġê¸Ī ì§Ģ
Ġ2 7
Ġ ver
op h
p m
íļ į
Ġpre p
Ġ201 4
Ġwant ed
Ġf ast
ĠìĹ ħ
ac hed
el t
Ġp ark
ĠWor ld
d iv
ĠH is
Ġíķ Ļ
Ġdis play
ar i
air s
Ġprodu ction
Ġam az
Ġì§ ĳ
ĠS m
Ġfam il
ê ´ĳ
Ġf ix
lab el
A D
Ġp le
ip ment
ĠA pr
ic ense
Ġbu ilt
um b
Ġp red
Ġd iv
Ġ ill
ìĺ Ī
Ġpos itive
d ata
Ġl at
u ge
ag ing
Ġcom ing
ce ed
ou ch
Ġcurrent ly
Ġcon dition
a pt
ty pe
Ġê²ĥ ìĿ´
Ġmed ical
os ing
ĠG e
3 6
Ġ2 2
L E
Ġp ers
Ġeffect ive
3 4
ĠíĻ Ķ
or ing
Ġallow s
Ġlevel s
Ġ6 0
amb da
nd s
h t
T ype
p i
Ġim plement
Ġsk in
íķĺ ì§Ģ
b ased
itc hen
Ġcorre ct
ĠRe g
ĠG ra
ĠM c
Ġwond er
ĠI N
ĠS upp
Ġsub st
Ġat tend
Ġoffic ial
Ġcon duct
Ġì² Ń
Ġis n
Ġsal es
ĠJ ust
Ġdoc ument
Ġ$ $\
Ġìķ ŀ
Ġconc ern
ww w
Ġeas ily
Ġwe ight
Ġapp l
P h
Ġë³ Ģ
9 5
Ġë°Ŀíĺ Ķëĭ¤
Ġëª ħ
Ġread y
ide red
om an
Ġim m
ëĭ ĺ
Ġm ix
ou ra
Ġset t
ĠP er
Ġsc he
Ġs am
Ġë³ ¸
e xt
ĠA m
Ġì´ Ī
Ġs le
ëŁ ¼
ëŀ ĳ
íķĺ ëĭ¤
at ur
Ġrec ent
7 8
Ġch oice
Ġloc ation
am ma
ud e
er ve
I s
Ġem b
^ {\
ĠT w
Ġex ec
" .
t d
Ġd er
Ġd est
ìĶ ¨
es e
Ġinst ead
Ġval ues
Ġle ave
w ise
ad a
ìľ¼ ë©°
Ġcomple x
Ġse ems
an a
I d
ĠS ome
Ġb i
ig ation
S h
o es
Ġwr ite
re l
Ġìĸ ĳ
Ġst op
Ġb al
Ġpret ty
Ġde p
Ġn ice
Ġv iol
IN G
is f
Ġmom ent
Ġsk ills
se qu
l ike
ĠìĥĿ ê°ģ
Ġpre vent
Ġë¬¸ ìłľ
Ġf ig
ĠW ill
Ġdri ve
h old
íİ ĺ
Ġbeh ind
ĠB ar
Ġask ed
Ġtyp es
Ġw ood
n a
ë¦¬ ê³ł
sp an
ĠI nt
s u
Ġwee ks
Ġnot hing
Ġ %
Ġinit ial
ĠA N
Ġm atch
ĠThe n
ì Ĥ
un ction
j ust
Ġart icle
E M
ê° Ŀ
$ $
Ġde ath
4 8
Ġinvol ved
ì¡ Į
Ġproject s
ì´ Ī
Ġs qu
Ġdis e
ang le
Ġíķ¨ ê»ĺ
ag s
Ġins p
w ord
Ġwr itten
Ġê´Ģ ëł¨
Ġfil m
R es
Ġsc reen
p re
í Ī¬
Ġc opy
m itted
7 7
ìĹĲ ëıĦ
Ġc am
ĠëĤ ´ë
ĠSt ud
Ġì Ĥ°
Ġvar iety
1 00
or age
Ġg roups
íĺ ĳ
Ġk ids
ê· ľ
Ġit self
5 5
Ġdra w
Ġto wn
Ġc ross
A pp
et ic
ro id
idd le
ã Ĥ
Ġhapp y
ĠM ark
ic les
Ġ )
im port
u ary
bo x
Ġab ility
it ation
ëĿ¼ ê³ł
Ġcons ist
ir ing
Ġcons idered
ĠJ u
Ġcred it
Ġcomp on
Ġright s
Ġread ing
Ġresp onse
ìĹĲìĦľ ëĬĶ
A ll
Ġwor th
Ġ= =
Ġê° ģ
Ġl anguage
Ġë§Ĳ íĸĪëĭ¤
ìŀĲ ëĬĶ
Ġ201 3
res p
y ear
ìĿ´ ëĤĺ
ĠP ar
in ter
3 9
Ġcost s
Ġr ound
Ġh on
ĠP res
il es
ĠApr il
Ġt our
Ġwork ed
ìŀ¥ ìĿĢ
m ark
Ġë ģ
ĠA f
Ġdev ice
Ġë§ ŀ
Ġbo ard
m ission
Ġann oun
Ġexce ll
Ġì² ĺ
ĠWh ile
Ġpro pos
ë ĥ
cl ass
Ġpar am
ch an
Ġcomput er
ĠO ct
Ġë¯¸ êµŃ
ĠM arch
ì¸ ł
ìľ ¨
ê¸° ë¥¼
Ġspe ak
d es
b or
Ġchall eng
ĠB ra
Ġd riv
ĠV al
ress ed
I G
ic ate
Ġp et
ĠìĿ´ë ²
.. /
} ,
est s
C ont
Ġrec ently
ëŁ °
Ġco ol
Ġsh own
ë³ ĳ
ord er
ear ch
Ġfl oor
Ġdirect ly
ëĲĺ ëĬĶ
ac hes
Ġany one
ĠìĿ´ ìĥģ
r or
" )
st ring
Ġmod ern
ed eral
ĠN ow
Ġ ur
Ġbl ock
Ġg ives
ig ma
U S
m at
Ġquick ly
is ions
íĨµ ëł¹
Ġlook s
Ġfe ed
m u
ĠF in
ĠëĮĢ íĳľ
Ŀ ½
Ġprovid ing
Ġëª ©
av es
Ġim med
Ġs ense
ĠëĶ Ķ
Ġ2 9
Ġtr ust
ì¶ ķ
ĠE d
ir th
ĠI m
l ier
Ġactiv ity
Ġìŀ Ħ
Ġsa f
ĠëĲ ľ
ë§ Ĳ
Ġav oid
ĠG ener
Ġexpect ed
Ġcou ple
Ġhe av
Ġìŀ ĺ
Ġpl atform
l ight
ë¦ ¼
ad em
3 7
Ġs ong
Ġbenef its
Ġpart s
0 5
ĠH igh
Ġì ¢ħ
Ġleg al
Ġb ank
6 8
T r
Ġë ¡
ë³´ ëĭ¤
Ġ201 2
v ant
Ġde ep
Ġmarket ing
ri pt
Ġa verage
Ġamaz ing
ĠíĻ ĺ
Ġs il
Ġ id
ĠìľĦ íķľ
al es
Ġsu n
Ġdefend ant
ĠM ore
ren g
ë¦¬ ëĬĶ
Ġprogram s
ë ¹
ìł Ī
Ġmaterial s
Ġê° Ħ
am ed
Ġar ch
en ing
ëıĦ ë¡Ŀ
ĠCent er
I M
Ġbook s
Ġl oad
Ġpurch ase
Ġintern ational
Ġê°Ļ ìĿĢ
Ġs we
ur ation
Ġon es
Ġst ri
Ġspe ed
= \
Ġ\ [
Ġsa ve
ĠP ol
Ġíĸ Īëĭ¤
Ġlead ing
ëĲľ ëĭ¤
Ġassoci ated
Ġëį °
´ëĵ ľ
rid ge
Ġë² ķ
im ately
Ġ{ \
ĠT V
Ġansw er
Ġex tend
Ġc and
th is
r s
Ġgo al
ĠAust ral
Ġë ¯¼
ê¹ Ģ
c ast
ĠP a
as ons
Ġgl obal
_ \
ĠA cc
ĠHe re
ĠW est
Ġfre qu
h ood
Ġbeh av
Ġd ru
ell ow
ĠëĶ° ëĿ¼
op t
ë³ Ģ
Ġatt empt
cri pt
O L
Ġhigh ly
Ġess ential
Ġe p
Ġtem per
it ution
Ġmeas ure
C C
Ġëĵ ľ
// //
Ġqu al
Ġìĭ ¬
St ring
e v
Ġcol lection
b it
ì £
e qu
ì µľ
m od
ag ed
il s
ë Ŀ½
Ġl ives
ê¸ Ģ
Ġsol utions
Ġlead ers
íħ Į
6 6
Ġcent er
Ġë ī´
Ġce le
her n
ĠA ut
o ke
ĠA b
m iss
Ġass ess
m as
ĠJ une
ä ¸
ag er
ĠO ff
bo ard
Ġcl ient
ĠD ist
ĠSe pt
Ġl ate
Ġre place
Ġdo or
Ġev al
íĶ Į
Ġstud ent
Ġlat est
U L
I I
M y
U n
Ġreg ion
f ield
P S
se e
Ġequ ipment
Ġstruct ure
Ġeffect s
ĠAr t
8 8
s q
Ġst ates
Ġbas is
´ë ³
ĠA ug
Ġm ention
Ġmeet ing
Ġocc ur
Ġpro ced
Ġtool s
h a
u ments
O ur
Ġent er
Ġn ational
ĠE l
Ġsat isf
Ġpl ant
Ġg e
art ment
oc al
ĠìĹ Ĳ
Ġplay ers
ë§Į ìĽĲ
ê² ¬
íı ī
ĠD on
ĠS w
V al
A B
ĠR ep
s um
ic ations
Ġc as
Ġv oid
ĠF rom
Ġad minist
Ġìłķ ë¶Ģ
ëĿ¼ ìĿ¸
Ġphys ical
Ġexper t
ìľĦ ìĽĲ
Ġíģ ¬
Ġsa w
ì ½
Ġlim ited
pp ed
Ġs n
ir it
ĠS oc
ê² ĥ
ill ing
O D
A t
Ġfact ors
Ġì§Ħ íĸī
Ġ Ð
ìł ¸
3 1
Ġì§Ģ ìĹŃ
o e
Ġìķ ½
Ġim ages
Ġpat tern
Ġreg ist
Ġsu it
Ġsum mer
Ġs ale
ì¶ Ķ
Ġpur pose
Ł ģ
Ġb all
Ġmess age
pend ent
ĠSy stem
Ġde mon
us es
Ġcomm it
Ġnorm al
iz es
Ġdevelop ed
Ġë Ĵ
ĠìĤ¬ ìĹħ
L ist
Ġb ath
Ġsu bs
ve y
ĠU K
Ġanal y
um ber
ĠP re
Ġres ources
Ġre lease
Ġatt ack
ish ing
Ġa w
> <
Ġbec ame
C ol
Ġsaf ety
at ives
et ers
. )
Ġìĸ´ë ĸ
Ġthem selves
0 4
Ġs low
Ġdiffe rence
Ġappro pri
tt ps
Ġful ly
Ġg iving
g y
ìĤ¬ ë¥¼
er ous
Ġcomm er
c il
Ġbl ood
h am
Ġf resh
Ġcare er
ough t
Ġn ature
Ġch ance
Ġinst ru
Ġenc oura
---------------- ----------------
Ġatt ention
Ġd ed
======== ========
ce ption
ìĥ ī
Ġrequire ments
im ent
íĻ ľ
er o
Ġst reng
id ing
ite ly
Ġse nd
Ġdec ided
ĠëĮĢ íĨµëł¹
Ġm ount
Ġha ir
v ar
l im
ar ter
ĠR ec
Ġê· ľ
Ġnot e
ìĺĢ ëĭ¤
Ġm obile
Ġcell s
ëŀ ľ
íķĺ ë©´
ĠP lease
Ġb ud
^{ -
Ġre v
ĠF r
ìŀ¥ ìĿĦ
Ġd ire
Ġst ring
F F
ëĮĢ ë¡ľ
od es
math bb
ec ause
Ġc at
Ġf ra
u k
Ġinterest ing
ìŀ Ī
Ġcl os
Ġpl ans
Ġcomplete ly
Ġl ost
Ġ201 0
Ġì² ´
Ġg irl
Ġcount ries
al igned
Ġk itchen
f o
A G
C H
tern al
ìĬ¤ íĬ¸
ibr ary
ìĿ µ
Ġmor ning
Ġl ength
ĠíķĦ ìļĶ
ar ily
ì¶ľ ìŀ¥
Ġinfl u
Ġpre c
ph i
Ġt itle
Ġparent s
Ġwr ong
ìķĺ ëĭ¤
i pe
Ġì§Ģ ìĽĲ
Ġcont ain
Ġlim it
I P
ut h
Ġd at
Ġ â
yn am
U R
Ġdig ital
Ġte ac
Ġíĺ ĳ
Ġmot ion
ìĸµ ìĽĲ
Ġrem ain
k y
Ġconst ruction
ĠJan uary
Ġde cl
am ent
ri al
Ġf air
ul ations
Ġmod els
Ġexcell ent
Ġbe gan
Ġs us
Ġì ·¨
Ġa ward
ĠHe alth
) (
4 9
ì Łģ
Ġim pl
C T
he st
ĠD av
P l
Ġsur face
0 2
ĠÂ §
Ġd aily
r ast
it ute
Ġí Ĵ
ĠF eb
Ġfavor ite
Ġfor mer
ëĵ¤ ìĿĦ
ly ing
ĠAmeric a
Ġach ieve
Ġext reme
Ġv ac
ht ml
Ġhelp s
ĠS im
Ġ201 1
Ġì¤ĳ êµŃ
ĠIntern ational
z y
Ġpie ce
Ġdou ble
A r
Ġnot ice
ar row
en ge
a ign
Ġal tern
ëı ħ
į ¼
Ġrem ember
íķ´ ìķ¼
as te
Ġapplic ations
Ġw el
ĠìĿ´ ìļ©
} _
p en
Ġre ach
ĠJu ly
Ġfil es
Ġre nt
ë ´
ĠS er
ëĦ Ī
Ġre pl
Ġm ag
ëĲĲ ëĭ¤
Ġê¸° ìĹħ
Ġro ll
i am
Ġcon cept
Ġser ious
Ġapp eal
ab y
Ġìĭľ ìŀĳ
ent y
ce mber
Ġf ine
Ġh uge
ĠìĤ ´
g ram
h aps
av a
Ġmach ine
íķĺ ë©°
ograph y
Ġs ort
Ġex erc
s ub
ar ies
ĠAss oci
Ġspe ct
T M
Ġt en
Ġsee k
ã ĥ
Ġ/ *
> </
âĢĿ .
form ation
Ġê°Ģ ìŀ¥
rough t
Ġhand s
w ood
ì§Ģ ëĬĶ
O P
Ġg reen
ard en
Ġb ound
Ġl if
ĠG oogle
Ġorgan ization
Ġëĭ¤ ë¥¸
Ġgo es
al y
ê¸ ¸
Ġìłľ ê³µ
Ġincre ased
ffic ient
A A
ond on
Ġtra ditional
oc ol
Ġsit es
Ġì¹ ĺ
ĠA c
ĠU s
d om
l ambda
Ġemploy ees
ĠH ouse
Ġëĵ¤ ìĸ´
Ġt ouch
Ġì¶ ©
y ond
Ġ= >
Ġst ock
ĠM on
l in
Ġchar ge
Ġm other
u el
? ?
ĠEng lish
o om
st ate
7 9
Ġto wards
Ġpre m
Ġcreat ing
ĠAf ric
Ġtrans fer
ĠD is
ĠSept ember
i ance
Ġplan ning
Ġb ur
ove mber
o oth
ic a
ëĿ¼ ëĬĶ
or ation
Ġmy self
ìķ ¡
Ġa ware
ing ton
Ġê´Ģ ê³Ħ
ol ve
Ġveh icle
Ġal le
Ġdeg ree
Ġë¶ ģ
en ces
ol ute
B C
ĠOct ober
Ġu nd
Ġê²Į ìŀĦ
Ġl ines
ĠTH E
Ġde part
ĠD ay
Ġbro ad
Ġrest aur
Ġun it
ŀ ĺ
ĠH er
Ġsu ff
Ġcommer cial
ĠF irst
am a
Ġresp ond
Ġíĥ Ģ
ĠíĶĦ ë¡ľ
ĠH ar
ĠC oun
Ġê²ĥ ìĿ´ëĭ¤
ĠDep artment
EN T
Ġa im
Ġcomp ared
ourn al
b and
Ġh or
Ġl ack
ra w
Ġf urn
Ġh it
Ġpl aces
osp ital
f ile
Ġsuccess ful
Ġsit uation
Ġplay ing
Ġcl in
Ġconf ig
ì ³
' d
Ġen h
ĠB ro
Ġíİ ¸
ĠìĨ į
Ġdr ink
Ġmethod s
Ġpub lished
ëĤ ł
Ġthere fore
Ġ3 5
Ġf alse
ĠR ed
ad es
Ġhe ar
ìłĦ ìŀ¬
ĠG erm
c ode
Ġus es
ł ¤
Ġreport ed
ĠP at
Ġs old
ĠìĦľ ë¹ĦìĬ¤
Ġac qu
Ġgra du
6 9
Ġtri ed
B S
} _{
ĠG et
v is
ore s
Ġindividual s
Ġprom ot
Ġsur pr
Ġqu ant
Ġte le
opp ing
ĠS an
N o
Ġstud ies
I R
ch ange
Ġin nov
Ġme chan
Ġì ±Ħ
Ġw ar
Ġstart ing
Ġm agn
it ure
Ġunderstand ing
i j
ĠD irect
Ġ$ {\
Ġback ground
ĠB rit
Ġre ve
Ġinte gr
7 4
Ġent ry
be gin
ĠìķĦ ìĿ´
ìĸ´ë Ĥ
Ġê ´ĳ
ĠW ar
Ġë ĸ
r ange
Ġë¬´ëĭ¨ ìłĦìŀ¬
Ġop in
Ġm icro
Ġappro x
ib ly
ìĭľ ìĬ¤
ĠO f
Ġpr inc
l ist
g en
l og
Ġca pt
ap an
Ġfact or
Ġpart ners
ag ue
ĠI S
Ġíķĺ ëĤĺ
Ġìĺ ¨
or ks
r im
ron ic
ĠA ir
Ġg as
Ġcontin u
Ġch o
ol es
ĠDe cember
i ant
ĠAug ust
Ġne igh
Ġact ive
Ġcon vers
Ġem erg
ì¹ ´ëĿ¼
ed ding
Ġtri p
fe rences
m ore
Ġpart ies
Ġdise ase
b ject
ìĦľ ìļ¸
Ġcons ult
Ġuse ful
Ġl ed
id ents
Ġb irth
ĠìĨ Ĳ
a res
Ġadv ant
ìĭľ ê°Ħ
Ġd ark
Ġdeterm ine
Ġinterest ed
Ġê²ĥ ìĿĢ
Ġgr ant
if orn
k en
t op
Ġcar ry
Ġcon v
ĠCh ar
it ect
pl ate
Ġhe at
Ġf irm
íĮ ħ
Ġincre asing
Ġphot os
P R
Ġsom etimes
l ation
g l
Ġg old
Ġpress ure
Ġpl aintiff
ëłĪ ìĿ´
com p
O ne
0 8
et t
ì» ¤
Ġconst ant
}$ $
ëĦ¤ ìļĶ
Ġdel iver
Ġpict ure
Ġexact ly
Ġ q
Ġm id
Ġst orage
Ġdist rict
ĠC ons
Ġí ĳľ
h o
u it
ind ing
Ġthink ing
ìŀĲ ê°Ģ
Ġgl ass
Ġw arm
ĠìĤ ¼
ĠO F
n es
Ġpa id
w ide
ra ft
ìĤ¬ ìĿ´íĬ¸
mb ol
ĠìĿ´ë² Ī
Ġele ments
Ġëĵ± ìĿĦ
Ġbenef it
Ġacc om
ĠìĦ¸ ê³Ħ
ĠN ovember
ĠInd ia
ĠN et
Ġm ap
Ġset ting
} ^
ĠL ondon
ak er
ar ant
ĠPres ident
6 7
Ġdemon str
i very
ìŀĳ ê¶Į
ĠTr ans
d own
Ġë² Ī
ë¡ Ģ
19 9
Ġê· ¼
iforn ia
ĠCh ina
Ġpat ient
Ġr ates
Ġëı Į
ĠAl so
Ġe arn
pe c
z z
Ġ3 1
ĠM ich
Ġappropri ate
Ġmov ing
ìĦ¸ ìļĶ
rap y
A fter
us iness
M S
B y
ĠM od
Ġg ave
E O
Ġst age
ë¦¬ ë¥¼
resp ond
ver se
oc ks
ĠêµŃ ëĤ´
ative ly
Ġì° ¾
Ġpresent ed
Ġí ļ
ĠE m
Ġpric es
it ude
ª ½
ìł ĳ
U T
Ġh our
e k
ĠM us
Ġit em
Ġget s
Ġb and
V iew
Ġd ry
Ġp ull
an cy
Ġregard ing
Ð ¾
Ġestab lished
ĠS ince
Ġh ous
ĠìŀĪ ìĸ´
y m
\ _
as c
ĠìĿ´ ìĸ´
id a
b ody
Ġproper ties
8 5
Ġof fe
Ġclaim s
ĠB r
ann el
} )
al d
ri ef
ĠìĿ´ë Ł
Ġw ish
Ġt al
o ly
Ġse qu
ë ģ
ens es
Ġmean ing
Ġval id
Ġê¸ Ģ
val ue
Ġhealth y
Ġcamp aign
D e
ì° ½
" );
p ite
ĠBl ack
Ġacc ur
Ġro ck
Ġan im
Ġdam age
ĠServ ice
ru ary
Ġë Ŀ¼
Ġcor por
Ġrele ased
Ġgra ph
ê¸° ìĹħ
ĠH ome
Ġcele br
0 3
ĠG roup
Ġor d
ĠìĻ Ħ
us ing
ĠìĪ ľ
ê² Ģ
ê²½ ìłľ
ist ics
ì¡ ´
ert ain
} ^{
Ġ} ,
ĠP C
ĠëķĮë¬¸ ìĹĲ
Ġsle ep
ri x
ĠëĴ ¤
D ata
S upp
ke nd
ĠA P
Ġf elt
Ġbe yond
b ur
ìķ ħ
g ar
Ġp aint
ous ly
te e
Ġgrow ing
4 7
G et
Ġm is
Ġbusiness es
íĿ ¬
Ġexist ing
Ġbas ic
Ġgreat er
in ate
Ġstate ment
Ġrequ ires
l a
Ġas pect
he t
Ġtrans port
qu e
] ;
n own
Ġar riv
ĠF ace
Ġë ł
ë° ±
in ated
ĠI T
ĠA re
Ġorgan iz
Ġcom ment
ut ive
ë² Į
Ġb rought
Ġa part
i ately
att le
ĠS ch
Ġt ick
ìĦ ¼
´ë į
ĠìĿ´ íĽĦ
ë¶ Ī
Ġspe nd
Ġ íķĺê³ł
Ġìĸ ¸
ĠK ing
ìĪ ľ
ce ll
Ġopportun ities
Ġnum bers
ub e
Ġad ult
ur rent
sy ch
d ate
Ġsu mm
cul ate
Ġredu ce
iv il
Ġ ri
E n
ĠL a
ac ity
Ġì° ½
Ġover all
e q
or ge
Ġg ar
ëĲ ł
Ġhig hest
p oint
Ġele ment
n y
Ġdefin itely
Ġ200 8
Ġwa it
Ġë ¸Į
Ġconnect ion
ì² ł
Ġëı ħ
Ġì°¨ ëŁī
Ð °
ĠL aw
sq rt
f ord
un k
v ille
ĠS T
Ġin put
Ġwonder ful
c d
Ġv ict
ĠCal ifornia
á ħ
Ġref lect
Ġad just
re ed
ëĬ ĺ
Ġprofess ion
for ce
ĠBo ard
ff ee
) *
d ed
Ġ200 9
ch ar
ist ry
Ġw indow
Ġal though
Ġfind ing
Ġë© Ķ
ê¸° ëıĦ
Ġdef ined
Ġpolit ical
Ġh ttp
n o
Ġ ?
Ġë§Į ëĵ¤
Ġì ¤Ħ
Ġìĭľ ìŀ¥
Ġser ver
y ing
ĠE very
ou l
ru it
Ġpro te
ĠM ost
Ġhist or
Ġf ab
S S
he l
os is
ĠGener al
ĠíĮĲ ë§¤
ĠComp any
Ġser ve
Ġjud gment
s ize
Ġre asons
O C
Ġcol l
it ary
rid ay
ren ch
Ġdev ices
ê· ¹
Ġallow ed
Ġst ress
Ġê± ¸
ur t
Ġcon text
Ġagree ment
0 9
Ġref er
{ {\
ĠF ree
ĠJ apan
b um
Ġlar ger
ĠComm un
Ġpro ceed
Ð µ
it ter
ar c
s igma
math bf
Ġcl ub
Ġbud get
Ġey es
Ġd im
Ġinvest ment
ic on
Ġoffe red
Ġfamil ies
Ġhe ard
íķ´ ìĦľ
Ġinvest ig
ĠChrist mas
Ġn ull
Ġown ers
h ttp
il on
Ġm er
Ġplay ed
Ġìŀ¬ ë°°íı¬
n ed
Ġgu ide
Ġgo als
ìľ µ
ìĦ± ìĿĦ
íļĮ ìĿĺ
re ate
an c
ë° Ľ
Ġst ru
ìĭľ ìķĦ
n et
Ġprog ress
Ġwas n
Ġmult i
Ġd ream
Ġcont ains
Ġdem and
0 6
Ġr ules
Ġì º
N A
b eta
Ġsur round
Ġf a
Ġinter view
ĠA ng
0 7
Ġprodu ce
4 6
Ġbl ue
Ġr at
Ġchang ed
Ġass um
o very
Ġphot o
ap ter
Ġu lt
in ner
ì§Ģ ë¥¼
ĠFeb ruary
Ġë§İ ìĿĢ
Ġh olid
Ġestab lish
T hat
Ġth us
ru pt
Ġst uff
Ġê²½ ìłľ
Ġche m
ell ant
w ith
ĠíĬ ¸
al ing
Ġstat us
om et
Ġcor respond
ĠëĦ ĺ
b t
Ġbegin ning
Ġprim ary
ic ip
ter m
ul ated
Ġparticular ly
ê¸° ìĹĲ
Ġpay ment
Ġcult ure
Ġimmed iately
ë Ĩ
Ġabs olute
Ġfun ctions
B e
Ġp ages
Ġ4 5
Ġsp ent
Ġbott om
ĠTe chn
Ġident ify
ĠI d
Ġfe et
par am
Ġdef ault
Ġst ar
Ġíĸ Ī
nd ed
Ġcomple ted
h y
ĠS und
ipp ed
Ġeas ier
Ġìĥģ íĻ©
Ġapp rec
ĠT ex
Ġplay er
Ġs av
ìĹ Ķ
Ġpre fer
Ġact ual
ìĿ´ ê³ł
Ġëª¨ ëĳĲ
al ed
ĠE ven
Ġpo ol
ipp ing
Ġim ag
enc ies
- \
und red
Ġt er
ur b
t est
Ġs on
Ġex hib
Ġexp ress
Ġcertain ly
Ġrespons ible
ĠG reat
ĠJ es
Ġn ut
a ctions
Ġe at
Ġpol ice
Ġk new
Ġapp oint
Ġaff ord
Ġey e
Ġtra de
Ġn ames
Ġth ous
ëıĻ ì°¨
I m
Ġëĭ¤ ìĸĳ
e ed
Ġrele vant
er ia
Ġdescrib ed
Ġìłķ ëıĦ
7 6
Ġê¸° ìĪł
b on
ĠìŀĲ ìĭł
Ġl iter
Ġass ert
Ġserv ed
or ney
ul a
ì§Ģ ê³ł
S E
pr int
Ġì ĵ
Ġd ro
Ġhot el
ens ity
Ġschool s
Ġchall enge
Ġcand id
4 2
ë¡ ¯
z on
i ated
Ġsu st
ĠìĿ Į
qu est
Ġcont roll
Ġv ot
Ġcan cer
Ġeconom ic
Ġde ad
Ġfin ally
ë Ī
Ġsm art
ê±° ëĤĺ
## ##
Ġfor ce
du c
Ġíģ °
Ġse lection
Ġb orn
ê² ¨
Ġobt ain
t ra
Ġoffer ing
Ġ8 0
Ġfeel ing
ĠW indows
od ay
ab ase
ĠTh anks
Ġv irt
Ġfollow ed
iqu es
ĠO ut
v est
Ġpo ly
Ġbel ie
ë¥ ł
Ġsupp ly
Ġg ift
Ġgener ally
Ġc ash
Ġdo g
por ary
ìĹ° íķ©
Ġupd ate
ef ore
Ġê³Ħ íļį
il ing
Ġê°ľ ë°ľ
augh t
ìķ ł
Ġpop ulation
Ġlar gest
ë ¸Ķ
ĠFace book
I V
ar a
Ġout put
es tern
ĠêµŃ ë¯¼
Ġpict ures
k er
Ġinc ome
Ġadv ice
ĠF riday
Ġl ik
Ġr ule
Ġem ot
ì´ Ŀ
Ġmov ed
Ġdel ivery
Ġjo in
ĠDist rict
es ter
Ġëħ ¼
Ġmem ory
Ġfl u
ĠP ort
Ġstrateg y
Ġtemper ature
O W
Ġintern et
Ġpost ed
´ë Ĥ
ĠìĺĪ ìłķ
A d
Ġ ing
om s
Ġth row
h ouse
Ġest im
Ġturn ed
con st
Ġí Ĩł
Ġb oy
ĠCol lege
Ġgu arant
Ġstep s
Ġl oved
Ġb le
use um
Ġstra ight
I nt
ëł¥ ìĿĦ
Ġf at
r is
Ġprotect ion
ash ion
Ġsur v
ĠU p
Ġf arm
Ġìł ĳ
ell ing
Ġ ir
Ġdistrib ution
Ġrem ove
Ġappl ied
en ed
Ġal one
Ġìĭľ ê°Ħ
Ġwh ose
l or
com ing
ien cy
Ġí ħ
ìĿ´ëĿ¼ ëĬĶ
8 6
Ġì§ Ī
Ġexperien ced
ë¨ ¸
Ġut il
ri ve
ĠDes ign
ĠB ook
ĠìĿ¼ ë³¸
Ġcrit ical
Ġsh op
g amma
ĠW ash
Ġt im
ol f
¨ ìĸ´
v ision
Ġf ight
Ġp ow
ìĺ ¬
ro s
Ġcap ital
ĠìĿĺ ìĽĲ
ì¹ ¨
' )
8 9
Ġlot s
ìŀĳê¶Į ìŀĲ
ĠServ ices
ĠSt reet
so ft
ĠëĬ ĺ
math rm
ĠEurope an
Ġbut ton
al t
ìĹ ´
Ġ7 0
Ġeffic ient
Ġë³ µ
se mb
ĠInd ian
Ġíķ Ń
Ġtru ly
at ically
Ġf ather
ĠIn ter
Ġide al
ĠëĪ Ħ
5 9
T H
Ġad vert
******** ********
ĠëĲ ł
ìĦ± ìĿ´
Ġex cept
Ġlink s
ëĵ Ŀ
ĠAn y
Ġh ref
Ġear lier
clus ion
Ġì ¤Ģ
N S
Ġc ru
5 00
ĠìĿ´ë Ĥ
ĠE ast
4 3
ĠíĺĦ ìŀ¬
ep s
per ty
I nd
ident ial
Ġê²ĥ ìĿĦ
Ġst ories
ĠW ell
Ġst ream
ĠO R
Ġdec re
ìŀ¥ ìĿ´
Ġcol lege
Ġsp irit
Ġelect ric
du le
b ut
S e
hen s
Ġì¹´ ì§Ģëħ¸
ë² Ķ
ĠG over
Ġstreng th
Ġlet ter
Ġmanufact ure
ìĤ¬ ìĹħ
h ol
ĠK e
ĠR et
ë°Ķ ì¹´ëĿ¼
Ġ9 0
Ġë¬ ´ë
Ġvol unt
Ġexp and
ust r
atur day
Ġperform ed
Ġind ic
augh ter
Ġt ask
ì¡Į ëĭ¤
Ġdet ect
ound s
ĠíĻķ ìĿ¸
Ġsmall er
en ior
Ġb row
íĸĪ ìĬµëĭĪëĭ¤
Ġd ynam
ĠM any
Ġest ate
in y
ate ver
Ġsp ot
Ġne arly
Ġpl us
ag ram
Ġì ±ħ
Ġê°Ģ ê²©
Ġselect ed
Ġc old
Ġthan k
erv ation
Ġprodu ced
Ġatt ract
in clude
i ability
Ġinst ance
ri e
Ġcol lab
ìĿ ĳ
Ġrel ax
it ness
Ġh undred
ĠR em
ë¥ ´ë©´
Ġ( -
Ġp en
Ġhe aring
Ġh op
Ġdire ction
Ġh arm
Ġìĭ Ŀ
Ġm ill
x y
an cing
â Ĺ
Ġ$ (
ĠG r
ĠSu per
Ġf ederal
Ġinde pendent
in st
Ġann ual
Ġgra nd
Ġmay be
T R
Ġë ´
Ġlook ed
ĠëĦ ¤
ĠG reen
ĠR uss
Ġextreme ly
Ġtra in
Ġìłľ íĴĪ
4 1
Ġc ry
Ġcirc um
ild e
N ow
Ġm iddle
ĠëĪ Ī
pect ive
ĠB ank
olog ies
C L
ĠB usiness
Ġreport s
Ġ200 7
ĠI D
Ġcomfort able
Ġind ex
Ġout d
íĬ ¹
ĠP R
Ġdec or
Ġsl ight
ê¸° ê°Ģ
ĠCan ada
ed s
ĠE ach
Ġhand le
Ġinc or
$ -
ìĥģ ìĿĦ
Ġc ab
s m
E d
Ġcomp ar
ĠëĤ ł
a per
Ġch urch
íħ ľ
ëı ¼
E X
act ive
ĠìĤ¬ íļĮ
Ġë¡ ľ
Ġhim self
ĠìĤ¬ ìĭ¤
Ġìļ´ ìĺģ
N ot
Ġ200 0
Ġshow ed
s es
ĠF ound
Ġres ist
Ġsepar ate
r c
Ġfil ed
ĠAl though
our ney
Ġeval u
ìĦľ ëĬĶ
Ġcon cent
Ġfin ish
os ure
% )
Ġn amed
ëŀ µ
Ġsay ing
ĠJes us
ĠSund ay
Ġobt ained
ĠW he
ang ing
Ġorig in
e ff
c m
ow s
ĠìĦ¤ ëªħ
en ance
Ġb aby
i os
ut or
y p
f ree
7 2
ëĲĺ ê³ł
Ġwe ather
Val ue
d en
Ġal bum
Ġrem ov
g u
Ġê²° ê³¼
ë¡ľ ìļ´
Ġdi agn
Ġsc ient
i ar
Ġocc as
Ġteam s
Ġv ill
ê¸° ìŀĲ
ĠP al
Ġw ind
ĠF ig
l ock
r ite
Ġê·¸ ëŁ¬
ìĿ´ ëĬĶ
ĠìĹĨ ëĬĶ
Ġsol id
Ġpres ence
Ġwee kend
le an
Ġon to
Ġcoun ter
ĠAssoci ation
Ġh omes
í į¼
Ġthan ks
Ġother wise
Ġì ½
Ġcoun sel
P L
ĠS ub
D es
ìĽ Ģ
Ġst atic
Ġown er
Ġopin ion
ven ue
Ġpred ict
íķĺ ë©´ìĦľ
ĠD el
Ġt ree
Ġclass es
ĠPro gram
ëĦ ·
ĠCoun cil
Ġgu id
ic ious
ĠìłĦ ë¬¸
ail s
Ġh om
ac ing
Ġcent ral
Ġmov ie
a el
Ġë¨ ¸
ìĹ Ĩ
w idth
ran ch
nd om
5 6
Ġform s
ĠPh il
ib er
â ĺ
Ġíĺ ķ
ic o
Ġinj ury
ph one
am m
Ġth reat
re es
ë¦¬ ê°Ģ
Ġsc ience
ĠO ther
ĠM ac
M A
Ġf lex
Ġhelp ing
land s
Ġpower ful
ì§ ¸
ê³ ³
Ġsc ale
) );
Ġar ray
Ġcommun ication
ĠP ublic
ĠS aturday
} {\
Ġí ľ
Ġw edding
Ġcon ven
Ġpl aced
Ġsh ape
Ġn ation
" ;
Ġexce ption
Ġì» ¤
Ġmax imum
i i
Ġfl o
ro te
Ġb ul
Ġform at
Ġre ference
Ġd oll
A dd
r ig
íı °
Ġw oman
Ġëª¨ ëĵł
Ġê ¶Į
Ġcreat ive
Ġra ce
ĠM or
pp ing
ë ĳ
ĠÂ £
Ġw ild
Ġmon itor
Ġë§İ ìĿ´
un c
Ġsm ooth
ĠJ ud
Ġconst ruct
ĠI I
le g
Ġco ffee
Ġdriv ing
Ġpie ces
Ġpack age
Ġm aster
i xt
ĠFl or
ĠAustral ia
íķľ êµŃ
ĠCl ass
ĠPh ys
Ġadvant age
Ġthe ory
ĠìĹĨ ëĭ¤
ĠíĪ¬ ìŀĲ
Ġëĭ¤ìĸĳ íķľ
ĠG old
Ġsp read
ĠL icense
Ġìłķ ë³´
Ġst ick
Ġb atter
om ing
Ġcomp os
ĠDav id
Ġhelp ed
7 3
Ġw ife
Ġarch itect
Ġs ession
e ch
Ġr out
ĠO ver
Ġannoun ced
Ġoper ation
ĠIntern et
Ġst y
ĠìĹ° êµ¬
n u
+ \
Ġst ation
Ġí ŀĺ
ì ª½
ce l
../ ../
Ġca used
om a
ì³ Ĳ
Ð ¸
ĠAd d
Ġc overed
ĠM icro
ìĤ¬ ëĬĶ
Ġsec ure
ĠíĶ Į
Ġìł Ī
Ġdist ance
ĠB ecause
Ġbehav ior
ë² ł
us ion
ì²ĺ ëŁ¼
l ig
m pt
Ġdru g
5 8
ĠìĬ ¹
Ġsh ared
ĠPro f
Ġ3 2
ĠIn s
oc ation
w orks
Ġst ated
Ġtest ing
ĠTex as
Ġdeterm ined
Ġëł Ī
´ëį °
Ġcam era
Ġmaint ain
N ew
S c
U N
Ġreason able
b ra
Ġc it
Ġíĥ ľ
def ine
Ġfail ed
S P
Ġëĭ ´
ëŀľ ëĵľ
ab led
ĠWe b
r ror
Ġd ress
Ġfl av
Ġse m
Ġun its
] (
ëĬ Ĳ
Ġcomm and
Ġcle arly
ìľ¼ ë©´
cl es
i us
Ġeffort s
ĠOn ce
Ġbec omes
uc le
Ġman age
ĠRe ad
ul ate
Ġc ards
Ġview s
r ho
opy right
ĠWh ite
L e
Ġexerc ise
ĠComm ission
Ġbig gest
ĠG ood
ĠA nt
Ġset s
Ġoper ations
Ġf ill
ut y
p an
iver se
ìłķ ìĿĦ
Ġë² Ħ
Ġtra ffic
Ġbed room
ìĤ¬ ê°Ģ
b ig
Ġre pe
ve re
d elta
Ġfin ished
D o
âĢ ĺ
M od
+ +
Ġcap acity
re y
Ġfig ure
ĠS ur
Ġíļ ¨
Ġr ou
Ġwant s
âĢĿ ,
stand ing
ĠH ot
Ġsh oot
Ġstand ards
ĠM ond
Ġe ight
Ġchalleng es
ĠB el
hip s
Ġf ant
Ġë°ľ ìĥĿ
Ġsh aring
om b
íĻĶ ë¥¼
ĠH all
b an
Ġtechn ical
i pl
us band
O bject
Ġswe et
Ġtrans form
i ra
Ġfurn iture
s l
Ġpo or
Ġp air
Ġheav y
ĠP ost
S et
ìķ Ļ
ìłĢ ìŀĳê¶ĮìŀĲ
err or
ct ors
Ġse ven
[ @
Ġd rop
Ġbal ance
Ġc ast
k m
Ġa head
part ial
Ġph ase
ic ed
6 3
Ġbra in
Ġì§ĢëĤľ íķ´
Ġìķ ł
F rom
ëĵ¤ ìĹĲê²Į
D A
in ct
c are
ĠDe velop
Ġmil es
Ġìµľ ê·¼
Q u
ì¸ µ
Ġper haps
I F
ĠOff ice
ĠíĺĦ ëĮĢ
ë¦¬ ìķĦ
ë ķĮ
Ġmod e
ess age
Ġopen ing
Ġ5 00
Ġc ore
p ath
Ġconnect ed
ì° ©
Ġê° ĸ
Ġdri ver
Ġim pos
Ġpe ace
¿ ł
Ġëĭ¤ ìĭľ
Ġsw itch
ĠWash ington
Ġshow ing
ĠBrit ish
ĠW ork
Ġprocess es
ëħ Ģ
Ġexp ression
ĠB est
Ġj ourney
ĠM em
st ruct
Ġant i
Ġsignificant ly
Ġcircum st
p ack
Ġs pl
ome ga
Ġopt im
Ġob vious
ĠL ab
Ġfa ith
Ġsc en
re m
Ġ! =
Ġa ctions
Ġpro s
Ġcompon ents
P C
Ġprevious ly
ĠPl an
is ation
Ġproper ly
ĠRes earch
ĠF rench
ress ive
d f
Ġtechn iques
Ġs ources
Ġmot or
Ġro b
Ġpass ed
Ġcomb ination
Ġrep air
Ġro w
Ġpart ner
arr ant
Ġg arden
Ġf em
Ġdevelop ing
or row
ĠìķĦëĭĪ ëĿ¼
Ġb ow
ëŀ ¨
a e
Ġì ¡
ë ·
Ġì¹ ľ
Ġorganiz ations
clus ive
Ġjob s
ĠêµĲ ìľ¡
Ġìĺ¬ íķ´
ĠS k
Ġê³ł ê°Ŀ
the ta
f ra
Ġstru gg
Ġexperien ces
Ġê³ ³
Ġd ang
Ġare n
Ġb rief
ëŁ ½
Ġsit u
Ġs ports
ĠE duc
t es
Ġfail ure
ĠëĤ´ ìļ©
Ġte nd
Ġvis ual
Ġìµľ ê³ł
Ġcom ments
Ľ Ī
h and
Ġcal cul
it ors
ĠìķĬ ëĬĶ
Ġinc red
ĠJ ack
t au
ag o
F ile
ft y
ê± ¸
at us
Ġ200 6
Ġmove ment
ìŀĲ ìĿĺ
Ġappear s
Ġd u
Wh ile
ĠC ong
ĠD ec
Ġfollow s
ĠPa ul
oth ing
Ġv oice
Ġf old
Ġf ear
m ail
Ġexpl ore
ĠëĬ Ĳ
íķĻ êµĲ
Ġp sych
Ġmet al
Ġadv anced
ĠG o
Ġrecord s
Ġmajor ity
Ġapp e
]{} ,
Ġun f
ĠêµŃ ê°Ģ
7 1
Ġfe es
ì ±Ħ
ock et
Ġadd ing
ë§ ī
Ġret ail
^ \
Ġs and
p ret
rib ute
Ġfield s
Ġb ag
Ġac adem
? "
Ġcontin ued
Ġb reat
Ġfram e
The se
Ġcent ury
ĠAN D
Ġintern al
Ġrem ains
Ġwe ar
ë© Ķ
ra d
ad o
ê²ł ëĭ¤
Ġprep ared
áĦ ı
Â ®
Ġcl osed
5 4
Ġobs erved
ĠëĮĢ ìĥģ
P A
z a
Ġsupport ed
Ġsh ot
Ġsam ple
ĠM at
Ġlist ed
ĠA M
ĠPl ay
Ġd ivid
le te
Ġíĸ ¥
Ġmin imum
Ġmention ed
Ġc atch
Ġpre par
ines e
oy al
ab ilities
8 4
Ġb illion
u y
Ġvar i
t imes
Ġt ips
Ġan g
Ġìļ ©
Ġreview s
ĠíĮ ¨
Ġcol umn
~ ~
Ġcol le
Ġcover age
v oid
Ġt rou
r d
el ine
est ival
Ġlearn ed
Ġsubst ant
Ġrest rict
ìĭľ ìŀ¥
Ġì§Ģ ê¸Ī
Ġtalk ing
Ġë² ł
s im
Ġfix ed
Ġra ndom
ê¸° ëĬĶ
ĠëĶ° ë¥´ë©´
ĠD et
m en
ĠíĽĦ ë³´
â Ĩ
ĠCh urch
ì£ ł
5 3
Ġder iv
Ġë¨ ¹
Ġë ¸Ķ
S C
Ġp ush
Ġcould n
Ġcharact ers
Ġach ie
l ook
Ġte aching
Ġg ain
Ñ Ĥ
ìĭľ ëĬĶ
Ġcol ors
Ġsee ing
Ġbath room
ĠìŀĪ ìĿĦ
ë¡ľ ëĤĺ
Ġìĭ ¶
Ġed ge
Ġê·¸ ë¦¬ê³ł
Ġsc ore
Ġrel ig
Ġlo an
Ġsche dule
ĠCl ub
ck s
Ġarg ument
ĠSt ring
Ġw ine
Ġì ¸
ol ic
Ġcra ft
Ġpan el
omm od
ĵ ¤
k nown
il ed
f ast
ëį ¸
Ġaltern ative
ĠTh us
ĠFlor ida
ĠC D
ot a
Ġfund s
Ġh usband
Ġreplace ment
ĠS l
Ġfac ilities
ĠíĻ į
Ġno vel
ra el
ĠMond ay
p id
g al
Ġcl oud
5 2
ì¹ ľ
g or
ĠR iver
Ġun less
os en
Ġíı Ń
ê°Ģ ëĬĶ
Ġke pt
Ġh ar
ing er
Ġneg ative
ëł ĩ
ĠëĨ į
ap ers
5 7
ĠìĤ¬ ì§Ħ
Ġold er
ger y
____ ____
ìĦ¼ íĦ°
ĠMan agement
Ġded icated
ĠSupp ose
ĠS am
ĠAn n
ĠD ata
Ġapprox imately
Ġh ospital
Ġd iet
is hes
ìĿ´ ì§Ģ
es ome
erv ice
Ġj ury
Ġfab ric
6 2
M an
Ġê·¸ ëŁ°
ì¸ ¡
Ġë° ±
ic ine
pos es
u ps
íĻ ķ
Ġdoc uments
ĠìĿ´ëŁ °
Ġadv ance
Ġfe e
Ġl ov
Ġhy d
a it
Ġspec ies
Ġing red
ĠëĲľ ëĭ¤
ĠD em
` `
ify ing
Ġfl at
Ġqu arter
Ġw ire
Ġìĺ¤ íĽĦ
( $
Ġë°ľ íĳľ
6 1
go ing
Ġr ank
C E
¿ Ĳ
f low
Ġêµ °
ĠL ist
ot o
ê· ł
ul ed
Ġm ission
p ace
Ġsu fficient
Ġste el
Ġmed ium
Ġkeep ing
Ġoper ating
ortun ately
se y
ĠTh ank
ĠM et
Ġl ic
i ers
ĠíĹ Ī
ar th
Ġf ashion
Ġì ī
Ġ& &
Ġwork ers
g n
í Ĩ
íĥ Ħ
He re
Ġr ich
Ġf ish
as ure
Ġm ist
Ġcall s
Ġdec ide
Ġsh opping
ĠR oad
ĠìĿ´ëĤ ł
}$ ,
ĠY ear
ri er
Ġê¸° ë¡Ŀ
Ġìµľ ëĮĢ
´ë³ ´
l ink
Ġmil itary
st on
h ttps
p on
9 8
Ġ// /
Ġreturn ed
Ġha ven
Ġmaint enance
f rom
Ġdirect or
ĠInst itute
© ëĭĪëĭ¤
Ġprofession als
Ġp ray
í ĥģ
ĠB ay
Ġpro of
Ġb right
Ġj oint
Ġpl ants
Ġwas te
r um
Ġra re
Ġwin ter
Ġdisc over
Ġnum erous
vent ion
Ġ200 5
Ġclin ical
D F
ĠWh y
s k
Ġt ag
ĠF e
Ġl uck
ent ure
Ġsp ring
Ġdat abase
Ġcompet ition
Ġfriend ly
ĠB en
Ġg one
The y
Ġw at
ic ial
ĠM al
Ġpass ion
Ġeven ing
ĠD an
Ġì¦Ŀ ê°Ģ
Ġw rote
Ġco ord
Ġpropos ed
Ġcommun ities
Ġm ort
ell ig
T S
% ,
ĠE v
am ily
ew ork
Ġ **
Ġì¶Ķ ê°Ģ
Ġopen ed
Ġchang ing
Ġra ised
Ġprocess ing
Ġpol ic
Ġhe ight
f it
ens ions
Ġaud ience
pos ition
L C
D elta
ëĥ Ĳ
re hens
Ġholid ay
ĠThere fore
m et
Ġtr uth
ic it
Ġrun s
ĠìķĦ ëĭ
ë¦ ´
ĠF ran
ĠA tt
S he
it led
ĠMark et
Ġro t
Ġ er
Ġ$ $
Ġwel come
ĠìĿ´ ìľł
Ġro ot
Ġë³´ ê³ł
w ell
Ġroom s
re te
ĠFound ation
Ġse ctor
Ġì°¸ ìĹ¬
íĦ° ëĦ·
p y
¶ Ģ
Ġvol ume
Ġìĸ ¼
!! !
oc r
Ġdec isions
ph as
Ġacc ommod
E F
Ġb ill
ind er
s hip
Ġmanag er
ĠPe ople
ĠO pen
ĠìĹ¬ ëŁ¬
Ġì² «
ë£ ¹
le q
ìŀ¬ ë°°íı¬
Ġto ward
8 3
Ġhapp ens
ak ers
ĠëĤĺ íĥĢ
Ġhelp ful
Ġíĺ¸ íħĶ
Ġdisc ount
Ġ ice
}$ .
í ľ
Ġdis p
Ġpur poses
ĠJ ames
ĠR ich
Ġexper ts
ms g
Ġhappen ed
Ġl ock
5 1
Ġb urn
O ver
Ġpract ices
Ġ ign
ì£¼ ìĿĺ
Ġag ency
â Ķ
/ >
Ġfact s
ëĦ Ĳ
Ð ½
\ \
ĠëĦ Ī
Ġspecific ally
Ġleg is
Ġro of
Ġcon ference
Ġprote in
Ġê¸° ì¤Ģ
Ġman ner
Ġw itness
Ġdis app
Ġun s
ĠS et
Ġë³ ¼
ë· °
ĠM ag
ĠC ir
ĠChe ck
Ġredu ced
p x
ìļ ´ëį°
Ġun c
new s
ìĹĲìĦľ ëıĦ
ial ly
ĠS ol
Ġpl enty
T ext
Ġcar s
Ġbe g
ĠìķĮ ëł¤
Ġv an
Ġdeb t
Ġsoc iety
ur ies
k a
Ġrespect ively
R A
ĠC ode
ild ren
f unction
ìĹ ¼
Ġì ĥ
Ġd ied
ê·¸ ëŀ¨
ĠM ary
Ġ20 20
r ical
Ġequ al
Ġpr ime
Ġlab el
un ning
Ġsust ain
Ġgu ests
Ġíı¬ íķ¨
ĠA L
Ġëĭ¤ ìĿĮ
rou d
ĠM ake
8 7
Ġh ab
al le
Ġinte g
Ġparam eters
m es
l o
im b
ëĲĺ ìĸ´
Ġfore ign
ì¼ Ģ
am ing
tr ans
j s
as ks
Ġla unch
Ġê¸ ī
ĠA ma
Ġwa iting
Ġcas ino
ĠD own
in fty
ĠU se
ĠAcc ording
ĠP M
Ġsc hed
Ġwh atever
P E
) }
n el
Ġthous ands
ìļ ±
Ġre ality
Ġsec ret
UL L
Ġsupp l
Ġw arrant
Ġsqu are
Ġbro ther
Ġ3 00
Ġad apt
m ap
ĠU nder
le vel
ĠCh inese
ĠH ol
Ġproced ure
ĠV is
om in
gor ith
Ġcircumst ances
ĠI ll
ĠM art
Supp ose
Ġmen u
ìĹ°íķ© ëī´ìĬ¤
ĠJ er
Ġìĵ °
Ġpl ug
r ate
ê° Ļ
ers ion
ĠS um
ĠS ing
P lease
l s
Ġst reet
ĠIs rael
ro y
Ġme ant
wh ich
Ġfoot ball
Ġqu ot
Ġc ivil
ĠH am
Ġsim pl
in n
Ġë¹ ł
Ġcompon ent
am in
K ey
d is
Ġemploy ee
C D
o ch
ĠD ef
Ġì¢ĭ ìĿĢ
ĠF ore
ĠTh om
Ġlead s
as y
Ġíķĺ ì§Ģë§Į
Ġf ol
Ġlead er
um in
Ġbuy ing
Ġeconom y
Ġrec ip
Ġass ign
Ġs outh
Ġl ibrary
Ġassist ance
Ġincor por
Ġrestaur ant
Ġfor get
Ġf an
Ġallow ing
Ġvis ion
Ġpick ed
Ġcomb ined
íģ ¼
S A
Ġë°© ë²ķ
Ġdiscuss ion
Ġê°ľ ìĿ¸
Ġn or
Ġe th
Ġfocus ed
Ġ( $
ìĿ´ ìĬ¤
â Ļ
ĠSc ience
Ġident ified
C al
C A
ĠPro ject
Ķ ¨
B A
idd en
Ġì¸ ¡
Ġíħ Į
Cl ass
Ġj ur
ot ic
ĠW ed
all s
amp ions
Ġinf o
ĠF orm
à ¤
Ġfam ous
Ġbec oming
Ġanim als
ĠAfric a
}} \
Ġ ĊĊ
Ġgu ess
ĠO h
Ġacc ident
Ġcr im
ĠDirect or
as er
ìľĦìĽĲ íļĮ
Ġìķ ¼
Ġdivid ed
ê° Ī
Ġbe ach
Ġclean ing
ent ed
Ġm ut
out hern
Ġear th
AT E
ĠN OT
Ġthem e
Ġdetail ed
ĠC r
Ġì¤ĳ ìļĶ
Ġlet ters
Ġres idents
I A
it z
Ġd aughter
ëł ¸
ë§Ī íĬ¸
ĠR el
Ġche ap
Ġn av
os h
Ġslight ly
Ġì¶Ķ ì§Ħ
ĠëĺĲ ëĬĶ
Ġth ick
p ress
ì ¢
Ġm ail
Ġf ans
ìĤ¬ ìĿĺ
ĠI P
´ë ĮĢ
Ġaut o
ĠChrist ian
ĠAr ch
ĠRe v
ĠL ord
Ġexc ited
S im
ĠV ol
O f
n s
ĠP ower
de v
Ġs now
he nt
Ġl it
ĠìķĪ ìłĦ
í ĮĢ
Ġdesign s
ruct ure
ĠCon st
P ar
h ow
Ġsc ript
Ġpolic ies
Ġinflu ence
ĠEng ine
if ts
Ġinstall ed
ĠL ake
íĹ Ī
Ġn orth
íĮ ¨
pect ed
ĠL ife
clud ed
Ġ\ \
Ġintrodu ced
ìħ Ķ
Ġdo ctor
Ġe gg
ĠP et
Ġtest s
Ġmanag ed
ĠS ection
ĠC are
Ġm ental
Ġrecommend ed
Ġë² Į
Ġprof ile
ĠUS A
Ġc ategory
pl oad
il er
( ).
Ġex change
ìŀĲ ìĿ¸
Ġâĸ ²
ìłķ ë¶Ģ
Ġland sc
Ġar range
Ġobject s
Ġrem oved
Ġcont em
Ġpres ident
Ġse a
Ġëĵ± ìĿĺ
ĠR ober
ê²Į ìŀĦ
Ġê ¼
ì§ ķ
ĠìĤ¬ ìĿ´
Ġtyp ically
Ġess ay
Ġcre am
com m
Ġcomm itted
ĠìĤ¼ ìĦ±
Ġexp ensive
Ñ Ģ
T ime
ĠApp le
Ġthe rapy
Ġ200 4
Ġrad io
d o
ĠM ount
ëħ Ĳ
ad s
ĠT est
ç ļ
ĠD uring
y stem
ant a
Ġgener ation
ot hes
Ġl icense
Ġre ached
Ġvolunt e
Ġvisit ors
urs day
Th anks
Ġcol our
Ġart ist
Ġbeaut y
Ġinte nded
Ġlay er
¿ ½
Ġenh ance
ê²ł ìĬµëĭĪëĭ¤
Ġcor ner
n ight
Ġs ch
Ġt aste
Ġclass ic
ir med
Ġ3 6
Ġle aving
Ġimport ance
ri an
Ġdepart ment
ĠComm it
ĩ ´
Ġnot ed
ĠEduc ation
Ġcit iz
te red
in et
Ġinter face
Ġup gra
ang ed
i as
Ġchem ical
p et
Ġatt orney
Ġsy mpt
Ġ[ *
opp ed
ĠS al
íĦ ¸
me ga
ĠS un
Ġencoura ge
Ġautom atically
Ġstart s
Ġr id
it able
Ġve get
Ġê°Ģ ìļ´ëį°
Ġsound s
w in
Ġmin ute
it ar
ĠS a
Ġpro p
are st
Ġfac ility
Ġw ww
A cc
Ġrelationship s
8 2
rom e
Ġocc up
f riend
ĠM ot
ĠH el
ĠRep ublic
ill a
ES S
ic ians
ĠH ist
ĠM o
//// ////
c ount
Ġl ux
um an
Ġa p
Ġdepend ing
Ġlab or
Ġle aves
Ġm o
Ġres ource
Ġwould n
ï ¿½
u able
Ġcon sequ
E E
ess ions
íĺ ģ
C an
ĠEng land
ìĭł ë¬¸
Ġinter pret
Ġg all
Ġd ump
Ġw indows
ĠW ord
çļ Ħ
in i
Ġch air
Ġpet ition
Ġcontin ues
I B
ĠL ou
O V
r angle
ĠGover nment
St ate
Ġl ose
ë ĺĲ
ĠìŀĪ ëıĦë¡Ŀ
Ġjud ge
d y
st e
Ġdom ain
Ġsur vey
ir ation
Ġinstall ation
Ġlaw s
Ġknow s
ìĿĢ íĸī
Ġíıī ê°Ģ
ĠF urther
ĠW ater
og en
Ġenvironment al
íĺ ľ
ĠD iv
ĠM ill
est ic
Ġinst ant
ëĭĪ ê¹Į
Ġíķ© ëĭĪëĭ¤
O r
Ġí Ĥ
t able
Ġb ought
D on
íĸĪëĭ¤ ê³ł
Ġsell ing
ĠìĿ´ë ¯¸
Ġcour ses
ĠìĥĪ ë¡ľìļ´
ant ic
Ġtre es
êµĲ ìľ¡
Ġvide os
ĠB re
ra g
ĠS om
Ġwork sh
Ġv s
į ¨
Ġp roud
ues day
ëĵ¤ ê³¼
o in
Ġcorpor ate
ê¸ ´
Ġì² ł
T est
U s
ĠIs land
Ġpl astic
¾ ¸
Ġregist ered
Ġmiss ing
ber g
Ġsc ene
ĠìĥĿ ìĤ°
ĠNew s
u nder
Ġel im
\] )
Ġsign ed
Ġrec ipe
Ġsequ ence
ĠìĿ´ ìķ¼
ĠMich ael
Ġupd ated
ind ex
Ġê²½ ê¸°
Ġf illed
Ġëģ Ŀ
Ġmark ets
Ġb ird
Ġpost s
Ġ ;
Ġabsolute ly
C he
Ġë¶ģ íķľ
Ġneigh bor
Ġd ram
8 1
Ġtop ic
Ġsuit able
ĠíĻķ ëĮĢ
Ġcomp rehens
Ġtre ated
us er
ick en
Ġìłģ ìļ©
Ġra ise
ĠW ood
Ġvict im
g age
Ġoutd oor
áħ ²
EC T
l ay
Ġsign al
Ġloc ations
Ġar m
9 6
E rror
Ġëª¨ ìĬµ
Ġsett ings
Ġexpl ain
ëªħ ìĿ´
Ġto w
ĠS il
Ġdes k
Ġch annel
Ġprotect ed
Ġopp os
ĠU N
Ġhold ing
Ġdef ense
Ġtest im
Ġsp in
b our
Ġmeas ures
ick s
Ġtrans ition
ĠC ustom
Ġwalk ing
Ġexper im
Ġ/ **
F L
Ġaspect s
Ġê³µ ê°ľ
Ġshe l
U M
Ġg un
ific ations
ree k
Ġleaders hip
Ġteac hers
ĠM iss
Ġres olution
Ġìŀ ¡
Ġd inner
ĠíĬ¹ íŀĪ
Ġteac her
Ġart ists
ĠL ove
íĨµ ìĭł
de red
Ġ __
Ġn ucle
ĠB ig
Ġra in
Ġë§ ī
Ġhy p
Ġrespons ibility
Ġnot es
t ilde
ĠR ob
Ġwor ry
âĢ ¢
il it
Ġstrateg ies
Ġl iqu
Ġê¸ ¸
Ġë¶Ģ ë¶Ħ
ES T
ar g
Ġenjoy ed
ĠJ ew
co hol
ìĤ ¼
Ġp al
Ġjo ined
h ab
ĠT ime
Ġag reed
Ġb ond
ort hern
Ġê¸° ëĮĢ
p at
ĠL ear
b uild
Ġ( \[
Ġaccom pl
us her
Ġst one
ì ĩ
Ġderiv ative
Ġag ent
ĠIt s
b ase
ar io
ĠT op
ì§Ģ ìĹŃ
m ary
ì¶ ©
Ġtrans l
Ġë§Ī ëł¨
Ġexc iting
ìľ¼ ëĤĺ
Ġwill ing
c ious
Ġmost ly
Ġê° Ī
ĠM ex
Y our
Ġì§ģ ìłĳ
se ction
Ġconcern s
" }
w hat
p arent
Ġbr ings
ìŀĲ ë¥¼
ìĤ ´
Ġent ered
ĠDevelop ment
£ Į
x i
Ġconf lic
ĠC ap
Ġsh ip
ìĭ Ń
Ġë³ ĳ
et te
Ġexam ples
Ġ200 3
ìĹ° êµ¬
Ġ- >
Ex ception
ì¹ĺ ë¥¼
ìłķ ë³´
Ġdes cription
nes day
ë¬ ´ë
Ġde pos
ĠìłĦ ë§Ŀ
Ġra pid
Ġì²ĺ ìĿĮ
Ġspe nding
Ġb on
ust er
ĠC H
Ġprovid er
ram e
Ġdes pite
ĠTh ursday
Ġgreat est
Ġthough ts
Ġv ote
st yle
el le
ĠTr ump
Ġ );
Ġì¶ľ ìĭľ
Ġse at
D ef
Ġâĸ ³
Ġpro ve
Ġsy mbol
ive red
Ġsy n
Ġì² ľ
Ġsu gar
Ġmin or
Ġfant astic
Ġth read
Ġt on
Ġsecond s
d oc
Ġf r
Ġc op
ĠE lect
h ost
ĠB er
Ġrem aining
ĠO b
Ġë ľ
í ĽĪ
ëıĦ ë¥¼
Ġw idth
Ġs enior
[ '
Ġadminist r
S ome
Ġdiscuss ed
F orm
"> <
ĠAng el
Ġr ise
Ġmot iv
ar ray
Ġen able
Ġhon est
ìĤ° ìĹħ
ĠìŀĪ ìĹĪ
ĠV ir
Ġìĸ´ëĸ ¤
Ġë°Ķ ë¡ľ
Ġreg ister
ĠTw o
9 7
Ġinit i
Ġcent re
w ater
Ġdou bt
ĠíĻľ ëıĻ
Ġstore s
ĠìĹ Ķ
ĠA D
Ġsur gery
Ġk id
Ġveh icles
Ġingred ients
Ġac id
clud ing
AN T
C R
Ġ Ã
Ġc up
Ġd ining
ĠCent ral
Ġauthor ity
Ñ ģ
íı Ń
l ong
et ime
ĠìłĦ ìŀ¬
^ ^
ĠC amp
Ġt un
ĠT oday
Ġj ump
Ġë¶Ħ ìĦĿ
Ġë³ Ħ
l ife
f ol
ĠëĺĲ íķľ
Ġfund ing
ĠCommit tee
Ġserv ing
v an
ra b
ĠThe ir
Ġr ide
Ġwe ak
i ary
Ġpract ical
ar p
Ġhold s
] )
Ġe ating
ĠT O
Ġfil ter
ien ces
Ġìłķ ì±ħ
it em
el ines
ĠìĿ´ ë¥¼
Ġu pper
Ġinterest s
Ġf uel
In st
S D
semb ly
if ier
Ġimpro ved
ĠT uesday
Ġconsist ent
Ġ3 3
ĠMicro soft
ĠF ire
Ĳ ëĭ¤
in er
ĠC irc
Ġê²° ìłķ
| \
Ġì¶ ķ
( (
Ġan c
ĠìĤ° ìĹħ
Ġc row
ìĿ´ ìĸ´
ĠSm ith
m ar
Ġend ed
Ġgover n
Ġevent ually
Ġch ain
Ġphot ograph
Ġ/ >
Ġíİ ĺ
ĠìŀĪëĭ¤ ëĬĶ
Ġdis s
is d
ĠV e
Ġput ting
Ġwebs ites
ĠB uild
Ġ[ **
is co
ĠB oth
Ġj ournal
ë Ĥ¬
at in
ĠM il
Ġreturn s
Ġparticip ants
Ġê¸Ī ìľµ
ìĿ´ íĦ°
Ġag g
Ġdis cl
ìĬ ¬
out s
ì ·¨
ĠSo ft
» ê²Į
az ine
ĠëĤ ®
Ġc art
Ġiss ued
Ġv en
Ġìłķ ì¹ĺ
Ġëī´ ìĬ¤
m ax
ĠSt ar
P ath
ol ved
ëĭ µ
Ġc ities
Ġart icles
Tr ue
k ing
om y
ë´ ī
rel ated
Ġwh om
ĠC ON
How ever
os es
ĠGra nd
ĠìĪĺ ì¤Ģ
Ġd ie
ro ph
Ġd ial
ĠH y
Ġj u
iz er
pr ise
d s
Ġprep are
c an
Ġprom ote
un ched
Ġfeed back
Ġ ~
ì ĥĪ
Ġv ir
Ġz ero
ĠProf ess
T V
Ġsub sequ
Ã ¡
0000 0000
c her
ìĿ¸ ëį°
Ġaccount s
Ġcon vert
ì º
ĠL ook
ĠìĽ Ķ
ic ian
Ġaw esome
ìĿ¸ ìĿ´
ĠUn ion
Ġadminist ration
Ġposs ibly
Ġvirt ual
Ġobs erv
Ġbus y
ĠCh ic
i ples
od ies
c os
T P
Ġchar ges
a id
ĠìŀĲ ëıĻì°¨
ĠF ind
re ct
g ers
T ra
ĠQ ue
âĸ ¶
ĠCong ress
g roup
Ġë ĳ
Ġch osen
c ap
ëıĦ ë¡ľ
Ġor g
Ġr ing
and er
9 4
R ead
ĠA v
Ġlist en
ed y
It em
Ġlove ly
app ing
b re
Ġex ternal
Ġcomp ens
Ġca uses
9 3
th at
dition ally
) =
Ġal gorith
Ġd ensity
Ġemploy ment
Ġbel ong
Ġv it
Ġst ars
Ġresult ing
et ry
qu ad
ĠB ur
íķ ĳ
} (\
Ġ4 8
Ġê´Ģê³Ħ ìŀĲëĬĶ
ëĤĺ ëĿ¼
Ġ 00
Ġm al
Ġrec overy
Ġpur su
ĠSt r
ä º
ĠWed nesday
Ġrem ote
Ġconf idence
Ġv ary
ĠBl ue
ĠM er
Ġam end
Ġinstru ctions
ĠìŀĪëĭ¤ ê³ł
ĠSoc iety
Ġsh ift
ĠìĹ´ ë¦°
Ġne arest
ĠëıĻ ìķĪ
h ors
Ġdel ivered
âĢ ²
F irst
Ġf aster
es h
i at
ë§ ģ
ĠAma zon
Ġë°© ë¬¸
å ı
od ing
ĠCl ick
ĠíĶ¼ íķ´
Ġdefin ition
Ġalle ged
Ġin du
ri p
Ġport ion
y a
Ð¾ Ð
Ġill ustr
am ic
Ġoffic er
ĠR ock
Ġacadem ic
ìłľ ë¡ľ
ĠT em
Ġ: =
Ġdis miss
´ë °
ĠC all
Ġep is
ê°Ģ ì§Ģ
( ),
ĠR E
Ġbatter y
ì° ¬
)$ .
st ream
S p
Ġcont rast
M e
ro ad
Ġbo ost
ocol ate
U p
ìĭĿ ìĿĦ
Ġfav our
ĠL ike
Ġso le
Ġdef ine
Ġëĵ± ìĿ´
ce an
Ġë© ´
ĠìĤ¬ ê±´
ê¸° ë¡ľ
Ġint ent
Ġë¶Ģ ìĤ°
Ġord ers
n on
Ġask ing
b ed
íĥ Ī
Ġex ists
Ġs port
ìĸ´ ìļĶ
ic ity
Ġcr is
áĦ Ĵ
Ġaffect ed
Ġcar ried
Ġgu ys
Ġgood s
orm al
An y
ĠSt and
ĠN ote
c all
ĠGerm an
ĠêµŃ ìłľ
ĠìĦł íĥĿ
Ġseek ing
Ġadult s
Ġìĥģ íĥľ
ĠH ill
Ġconsider ing
Ġ200 2
Ġindust rial
ĠS en
O ut
Â °
Ġp ure
C P
Ġpark ing
Ġsong s
Ġdisc overed
Ġr ub
w o
ĠìķĬ ê³ł
Ġwatch ing
Ġfind ings
sc ript
Ġt iss
Ġappro ved
Ġex cess
ĠíĻľ ìļ©
Ġchar ged
am ple
Ġf ruit
ĠìłĦ ì²´
201 8
Ġtra ding
Ġì £
âĢĻ ,
¶ ģ
ĠCol or
Ġeffect ively
Ġar rest
Ġeffic iency
ĠA lex
ĠSoc ial
Ġfamil iar
Ġìĸ´ë ł¤
ĠP ress
ìĺ¨ ëĿ¼ìĿ¸
ĠìĿ Ģ
Ġë§Ī ìĿĮ
ĠL ight
Ġgener ated
Ġour selves
ê¸° ê´Ģ
Ġinter ior
r ide
Ġrel ief
u a
ĠT or
ĠCommun ity
Ġequ ival
A Y
Ġê·ľ ëª¨
Ġaud io
Ġh ttps
Ġtechn ologies
íļĮ ë¥¼
iven ess
Ġê°ķ íĻĶ
Ġexpert ise
c a
ĠO ffic
ĠP ay
}} $
Ġsh ut
ĠWhe ther
Ġch art
ìĿ´ ë©°
Ġdist inct
ex p
wh ile
ĠA R
ĠìĿ¼ ë¶Ģ
Ġafford able
ĠT ur
Ġêµ¬ ë§¤
ĠS pecial
Ġsw im
Ġê³Ħ ìĨį
ĠC opyright
Ġext ensive
Ġdel icious
or ough
f a
Ġí Ħ
ĠC as
Ġcrim inal
Ġrel iable
ak s
Ġgirl s
or ter
ê¸° ìĪł
ri age
ĠOn line
ĠM aster
ĠìĨĮ ë¹Ħ
Ġcult ural
Ġ3 4
ĠL G
Ġis land
Ġte ach
ĠAc adem
ars h
ĠìłĦ êµŃ
/ *
Ġcho ices
Ġn one
In fo
Ġê·¸ ëŀĺ
Ġëª¨ ëį¸
Ġìĺ¤ ëĬĺ
Ġtot ally
Wh y
Ġextend ed
ĠíĤ ¤
íķ Ħ
Ġtr ig
ì£¼ ëĬĶ
9 1
C t
Ġsympt oms
Ġapp arent
Ġappear ance
Ġt ail
Ġcl imate
Ġë¬¸ íĻĶ
Ġdistrib uted
ing ly
Ġimplement ation
ĠìĺĪ ìĥģ
Ġy ield
Ġproced ures
Ġsumm ary
ĠSec urity
ĠMus ic
m osp
het ic
Ġn ode
ĠIn formation
in ations
Ġì¡° ìĤ¬
Ġê·¸ ëłĩ
Ġ iron
Ġbuild ings
Ġl unch
Ġdo ors
ĠM ass
Ġconduct ed
en ced
Ġsp aces
ĠFr ance
ĠT able
ë¦¬ ìĬ¤
ìŀĪ ëĬĶ
ĠL and
Ġíķ´ ëĭ¹
ëĿ¼ ìĿ´
Q L
Ġconf irm
Ġcall ing
ĠF il
k in
lic ation
Ġcomprehens ive
Ġlaw y
Ġë°Ľ ìķĦ
Ġëĭ µ
p age
ĠAnd roid
Ġrel atively
rast ructure
ê°ľ ìĽĶ
Ġf if
in ating
Ġíķ µ
ĠêµĲ ìĪĺ
() );
re qu
Ġr an
Ġdel ay
Ġr is
T A
P re
ect ive
Ġyou th
ra in
ĠF OR
Ġemerg ency
ĠM ont
Ġ200 1
ang es
ig en
C S
ĠB rown
Ġdiffe rences
Ġdi am
Re g
Ġseem ed
Ġrou te
Ġappe ared
íĸĪ ëįĺ
com es
9 2
Ġí ĭ
ì¹ Ļ
ĠëĨĴ ìĿĢ
ĠëĤĺ ìĺ¤
is her
ìĨ Ĳ
" />
ĠBe ach
ĠíĻĺ ê²½
Ġmod ule
Ġapplic able
Ġown ed
Ġelect ronic
Ġass ets
Ġfre ed
Ġden ied
Ġìĺ¤ ëĬĶ
e en
} =
Ġhigh light
ps i
Ġwin ning
201 9
Ġìĸ´ëĸ »ê²Į
ê´Ģ ë¦¬
ĠCar ol
ĠVal ley
Ġinvol ve
ult ure
in te
ens ed
z en
om ic
Ġeduc ational
Ġassess ment
con fig
Ġtestim ony
Ġsh ap
ĠíĶĦë¡ľ ê·¸ëŀ¨
ĠH D
Ġdeg rees
ëı Į
Ġstand ing
ë¡ľ ë²Į
og rap
Ġhous ing
ĠS U
Ġt asks
ìĸ´ëĤ ĺ
Ġm ur
al og
Ġce re
ck now
Ph one
Ġsupport ing
3 00
Ġan imal
Ġqu iet
Ġparam eter
Ġany where
ë¦ Ń
ing u
ri a
O mega
ĠìŀĪ ê³ł
ĠS up
Ġpattern s
ĠìĪĺ ëıĦ
Ġme re
B l
ĠR ad
AL L
h an
Ġm ent
Ġtem plate
Ġê²½ ìŁģ
re ens
Ġrel ative
Ġaccept ed
Ġs ides
Ġsy nt
Ġco ast
ans ion
ĠT own
ëĪ Ħ
Ġass ume
Ġvar iable
Ġconsum er
ĠT om
ëĿ¼ ëıĦ
ĠO N
Ġsign s
Ġem phas
Ġper man
al ax
h i
Ġsupport s
Ġsp ons
Con fig
A V
Ġì¤ĳ ìĭ¬
cd ot
Ġcorrespond ing
ĠGerm any
= '
Ġrecord ed
Ġë² Ķ
Ġê°ķ ì¡°
Ġì½Ķ ë¡ľëĤĺ
Ġêµ¬ ìĦ±
Ġlight s
al a
ob e
ĠC am
Ġaccur ate
Ġpurch ased
Ġs itting
ĠDe fend
OU R
Ġinnov ative
Ġcre ation
Ġì¢ Ģ
ë¦½ ëĭĪëĭ¤
ret ion
ut ing
Ġbe at
Ġfour th
we ight
ĠRe al
Ġsh ipping
ĠW estern
ord s
Ġinst it
ĠìķĦëĭ Į
ĠP an
Ġd uty
Ġsent ence
p ass
is ms
Ġun ivers
Ġ1 50
Ġtra d
Ġp ump
Ġsur f
ìĿ´ ë²Ī
ĠìĿ´ë ĵ¤
ĠChic ago
Ġmat ters
ĠB ack
ìĤ¬ ì§Ģ
ad y
Ġpl ate
Ġincre ases
ë¶Ģ ë¶Ħ
Ġse vere
l ib
Ġ4 2
ixt ure
Ġte a
ĠìĿ¼ ë°ĺ
Ġprovid ers
f il
ĠìķĬ ìĿĢ
ĠN or
Ġt ables
R ec
st atic
æ ľ
ĠD i
Ġsuccess fully
Ġfl ight
íļ ¨
Ġent ertain
-- -
Ġp un
ìĿ¸ ëĭ¤
ĠA S
Ġg ather
er ation
Ġval uable
Ġb order
Ġt ast
Ġ< <
ĠW il
Ġinsp ired
Ġst ret
ĠL ong
ol ars
* ]{}
ific ate
ë¬¸ íĻĶ
Ġì°¾ ìķĦ
Ġcompet itive
Ġ å
Ġtechn ique
ap os
' :
Ġco vers
ìłĦ ìŀĲ
C omm
ag on
n oon
al ian
Ġrece iving
k i
Ġëĭ¹ ìĭľ
Ġem pt
Ġt ight
Ġint ellig
Ġjur isd
Ġì§Ģ ìĨį
ä »
Ġoccas ion
Ġth r
íķĺ ì§Ģë§Į
T ER
ĠìļĶ êµ¬
ra int
Ġme al
ad ian
pec ific
Ġ| |
Ġìĺģ íĸ¥
Ġgener ate
Ġê¸° ëĬ¥
Ġre ject
Ġb an
if orm
ĠM ad
ì£¼ ëĭ¹
Ġbro wn
Ġfor th
d im
Ġident ity
' );
Ġform ed
it a
T C
ìķĪ ë§Ī
Ġl ived
Ġexpl ained
ĠF ood
Ġext ract
Ġbrand s
Ġhundred s
itution al
Ġa id
ĠGe orge
ĠTw itter
pt ions
íı¬ ì¸ł
ìľ ¤
Ġal cohol
Ġì¤Ģ ë¹Ħ
ch o
ìĽĲ ìĿ´
Ġìĥģ ìĬ¹
Ġ Î
Ġê´Ģ ë¦¬
ib ilities
ĠSec ond
ìĤ¬ íļĮ
ed ia
Ġpay ments
Ġreg ul
st art
eps ilon
Ġconsum ers
Ġgra de
Ġ icon
Ġc ateg
Ġt um
Ġcy cle
ĠìĹ¬ ìĦ±
ĠE arth
Ġs au
t itle
ig ration
ìľĦ ë¥¼
Ġmess ages
ĠWh ich
ĠA p
Th ank
Ġsurround ing
ìĽĲ ìĿĦ
Ġupd ates
Ġse x
. [
Ġhy per
Ġìĺ¤ ìłĦ
ĠM useum
ĠëĮĢ ë¹Ħ
Ġpresent ation
Ġat mosp
Ġê´Ģ ìĭ¬
Ġstate ments
ig r
ĠK ore
Ġrecogn ized
ĠT ake
ĠM el
Ġs izes
Ġdes ire
ĠPart y
Ġph il
ĠH ave
Ġmonth ly
ĠC ard
ĠTechn ology
Ġbu ff
ĠY es
Ġapp s
Ġìĭľ ìĬ¤
Ġread ers
Ġdep th
ĠPro duct
Ġgrant ed
ch i
Y es
Ġdescrib e
in fo
ĠìĦ± ìŀ¥
Ġn urs
Ġ3 8
ĠD en
ĠB ill
Ġbehav i
Ġfor ces
st ract
Ġì¶Ķ ì²ľ
V ER
che ck
Ġ7 5
se ll
ĠOn ly
Ġadvert ising
ist an
Ġrat io
) ).
Ġdo gs
ĠB et
Ġ1 000
riv ate
Ġsam ples
Ġprem ium
Ġrese arc
ĠLe ague
Ġengine ering
ĠW all
Ġë £
AT ION
ĠëĶ° ë¥¸
ok en
Ġíķ´ ìĻ¸
Ġê¸° ì¡´
ĠS pe
R L
Ġsal t
S ize
S ee
Ġbig ger
P s
Ġbreak fast
Ġ3 7
ĠUs ing
Ġimprove ment
Ġpl ays
ë¨ ¼
r ition
Ġì£¼ ìŀ¥
ì¼ ľ
Ġtyp ical
ĠCent re
ĠC EO
Ġfe els
Ġbring ing
c ase
Ġtru ck
ĠJ ournal
ëł Į
Ġpay ing
Ġdru gs
ĠSc ott
a a
e per
l ines
Ġreve aled
ĠFran c
Ġguarant ee
Ġext ension
right arrow
ĠCor por
ĠPro v
Ġm ole
el ess
Ġbo at
D S
ĠL og
Ġun iversity
Ġreal ize
Ġì£¼ ìļĶ
Ġê· ¹
ĠRe view
Ġpos itions
ner gy
ĠEn ter
Ġfore st
Ġthe rm
ìĿĺ ë¥¼
Ġm ine
ĠE qu
Ġpers pective
Ġì¡ ´
S te
G amma
Ġapp ellant
A re
Ġvisit ing
ì¹´ ìĺ¤
Ġë Ł
Ġcommit ment
201 7
z ing
ê¹Į ìļĶ
Ġarriv ed
ĠVir gin
Ġparticip ate
in it
ot he
an o
ê¸Ī ì§Ģ
. >
Ġcomm ission
Ġde als
um s
d raw
Ġconvers ation
ìĹĪ ìĬµëĭĪëĭ¤
ĠìĬ ¬
col or
ĠìĤ¬ ê³ł
ĠD ig
Ġì¦ Ĳ
Ġansw ers
ĠO per
Ġneighbor hood
Ġla unched
ĠInt e
Ġperfect ly
Ġbut ter
Ġsu p
ê³ ¡
Ġcollab or
us hed
Ġoffic ers
or ph
y cl
Ġwrit er
Ġk ill
E vent
t ion
Ġtw ice
Ġwall s
Ġconven ient
ĠJ e
ĠA ward
Ġt ab
Ġkind s
oper ator
Ġp ul
Ġìº Ĳ
Ġerr ors
ak ed
íĦ ´
l en
ind s
A tt
ĠC O
ĠTe am
Ġbro ken
er ies
ìĿ´ëĿ¼ ë©°
Ġê±° ëŀĺ
^ *
% .
ĠAt l
Ġstruct ures
Ġd ance
\] .
E W
ĠìĭľìĬ¤ íħľ
Ġad op
Ġne ut
Ġofficial s
Ġw ave
Ġadv is
AR T
Ġì½ ĺ
Ġrestaur ants
íħ Ĳ
res ents
j ud
ĠSp ring
Ġent itled
Ġìĺ¨ ëĿ¼ìĿ¸
Ġrem ark
ëıĦ ê°Ģ
ì§Ģ íĦ¸
' ]
Ġconcern ed
Ġannoun ce
Ġ( "
Ġfrequ ency
Ġíļ¨ ê³¼
Ġapprec iate
est yle
ric s
Ġmanufact uring
Ġst im
M C
Ġoper ator
Ġ vert
Ġor dered
Ġne ck
Ġfood s
Ġregular ly
Ġmar ried
Ġdri vers
Ġm el
Ġele ction
so le
Ġsuggest ed
Ġag ents
Ġfem ale
ĠìŀĪ ìľ¼ë©°
Ġy es
J ust
S ub
as p
ol a
ëł¥ ìĿ´
Ġshow er
S I
ìĿ¼ ë³´
Ġabs or
)$ ,
ĠAfric an
ĠíķĻ ìĥĿ
Ġredu ction
ĠC P
ore m
Ġf ellow
ìĭľ ë©´
Con text
Ġvill age
. '
Ġsche me
S ince
at uring
Ġneg ot
Ġj oy
cl aim
Ġprec ise
Ġfunction al
Ġstat ute
ĠR ef
Ġinvest igation
Ġext ent
Ġins ert
he m
ĠInd ust
ĠF ederal
ĠìŀĪ ìĹĪëĭ¤
Ġfor g
ow nt
ĠN ULL
Ġgu est
201 6
ĠL im
} .
D E
Ġsh ares
ide o
ear s
M P
ĠìĺĪìłķ ìĿ´ëĭ¤
ĠG en
bur g
ìķĪ ìĿĦ
miss ions
Ġcomp r
ĠTr ust
ual ity
ĠV iew
og a
ple te
ial s
i est
Ġwe ap
t em
Ġc os
Ġtre nd
Ġdepend s
Ġp ed
c ar
Ġdis h
íĺ ¼
Ġì§Ģ ìłģ
ë ¯
pre ne
Ġsol ar
ĠD ou
Ġaut hent
ĠLou is
ãĢ Ĥ
ĠFr ank
ë° Ģ
Ġst d
ĠL td
ĠMed ical
Ġp hen
p ublic
Ġk ick
Ġafter noon
S L
ĠO ld
Ġper m
Ġnet works
âĢĻ .
um er
Ġcr ime
ê·¸ ë£¹
at o
ig an
Ġman ual
Ġshe et
Ġs q
Ġcut ting
Ġm outh
Ġb attle
Ġregist ration
Ġus ual
B uild
Ġem p
Ġë¸Į ëŀľëĵľ
Ġmat rix
Ġrep ut
on ic
ĠHe ad
Ġre venue
ĠW here
ìĭľ íĤ¤
ain e
ëªħ ìĿĦ
Ġdec ades
ĠE U
Ġlight ing
Ġtest ed
ĠB as
ir ty
Ġpass word
Ġìĥģ íĴĪ
Ġco ach
b a
ĠN Y
Ġmil k
Ġê°ľ ìĦł
b al
Ġìŀ ł
Ġa cknow
Ġë³´ ìĹ¬
Ġreg ions
Ġcook ing
ĠSh ow
Ġspec ified
Ġo dd
Ġcitiz ens
Ġ4 00
) ?
Ġsub mit
Ġflow ers
áĦı áĦı
Ġtop ics
re prene
On ce
Ġëª °
tr ue
ìĤ¬ ì§Ħ
Ġmass ive
l aw
ĠìĿĺ ë¯¸
D R
ab et
Ġl iability
ul ous
ret urn
s he
Ġcandid ates
Ġfrequ ently
Ġcompar ison
Ġwhe el
Ġhouse hold
Ġliqu id
Ġat h
Ġis ol
' ;
ĠëĮĢ íķĻ
Ġê·¸ ëĬĶ
ĠìĹ¬ íĸī
F alse
Ġel ig
ĠìĹĨ ìĿ´
Ġf le
F ig
ĠF und
Ġend s
Ġa st
Ã ¼
Ġknow ing
Ġbrow ser
Ġscient ific
Ġen force
Ġoccur red
ĠHot el
ps ilon
Ġra il
Ġorgan ic
Ġê°ľ ìµľ
Ġ ]
ce ler
ìĿ¼ ë¶ĢíĦ°
Ġë³ ´ë©´
act ory
Ġb ike
Ġë¶Ħ ìķ¼
ĠOr gan
Ġíĸī ìĤ¬
Ġst re
l ength
Ġgu y
Ġpre gn
ĠInst ead
ĠNet work
re al
Ġì ħ
ott en
ĠJapan ese
w est
end ar
ĠëĲĺ ëĬĶ
ĠE nd
Ġs essions
ĠS P
ĠDe v
Ġê³µ ëıĻ
ĠI r
ĠìĹ Ħ
ìĽĲ ìĿĢ
or ry
} ;
Ġf ly
Ġinst ruct
Ġno ise
ĠThom as
y ou
ìĻ Ķëĭ¤
ĠSt art
Ġinter action
Ġo k
ĠT im
ĠSup reme
ë¥´ ëĬĶ
Ġê³ ¨
ìĿ´ ìĹĪëĭ¤
Ġmix ed
Ġìľ ¤
Tr ans
Ġinf rastructure
Ġë¬¼ ë¡ł
G B
Ġrep resents
Ġn ative
ĠF amily
Ġ" "
ĠM ach
Ġre new
Ġexper iment
ve ll
ul ing
Ġme at
ĠT re
Ġbeg ins
íĿ ¥
ord ers
Ġturn s
ĠWh o
ĠEx per
Ġhous es
ĠRober t
ĠPro t
ìŀ ¡
ĠC R
Ġposs ibility
ann els
Ġgl ad
Ġm ac
Ġbel ief
201 5
ë¶Ģ ëĬĶ
ìĿ¼ ê¹Įì§Ģ
Ġdam ages
Ġì Ķ¨
Ġintegr ated
ĠWill iam
y e
Ġprom pt
k et
ìĸ´ ìĦľ
Ġ6 4
n ce
ĠìłĦ ëŀµ
Ġun able
Ġconfig uration
Ġmach ines
if ies
p o
Ġentire ly
roll er
ĠL ead
ĠP ri
ê¸Ī ìĿĦ
c ons
Ġreg ulations
Ġam b
Ġcont aining
ĠV ict
Ġn ine
Ġhistor ical
Ġr ough
Ġrequire ment
ĠS and
Ġrent al
Ġstud ied
Ġsitu ations
á Ĩ
igh ter
Ġcare fully
oc ated
ìĭľ ìĹĲ
Ġë Ń
th on
F C
Ġs oul
Ġcomp are
Ġab use
Ġed itor
Ġexp osure
r ary
Ġm and
on a
Ġìľł ì§Ģ
Ġfil ms
ob ject
ĠAustral ian
Ġform al
Ġcollect ed
) {
Ġconsider ation
Ġl ib
s ible
Ġëĸ ł
at he
opt ion
ot al
ur l
Ġaut hors
g ener
P er
S ec
ĠëĦĪ ë¬´
ester day
uff er
az z
ì ī
ĠL ast
íĸĪ ê³ł
Ġa x
M L
Ġte eth
.... ....
vers ion
u i
Ġmeas ured
Ind ex
ĠPl aintiff
´ë ł
Ġcompl aint
Ġachie ved
Ġst opped
Ġ6 5
â Ī
Ġfreed om
I ST
erv es
ĠëĤ ľ
Ġcompl iance
v are
ren cy
Ġcont ained
Ġtick ets
Ġemot ional
Ġs an
Ġincred ible
Ġdoll ars
ĠP eter
Ġempt y
I O
Ġê²½ ì°°
Ġde ploy
ost er
ê°ľ ë°ľ
ĠSoft ware
or a
ĠìĬ¤ ë§ĪíĬ¸
ìĿ¸ ìĿĺ
Ġfac ilit
ë¦¬ ìĹĲ
Ġhard ware
Ġcon ver
ic ing
yn c
in ity
Ġar bit
Ġ1 20
Ġche ese
Ġ5 5
bl ock
d b
áĨ ŀ
Ģ ë¡ľ
Ġpub lish
Ġê¸° ê°Ħ
Ġact s
Ġch ocolate
Ġtra ined
ëªħ ìĿĺ
ĠGl obal
Ġmain ly
Ġin hib
Ġdynam ic
Ġëı Ī
Ġch icken
w rit
Che ck
er ning
O G
Ġplan ned
ber t
Ġb read
Į ĵ
ĠìĹŃ ìĭľ
Ġsubstant ial
bs p
Ġex clusive
Ġind icate
Ġcar bon
Ġrec on
F l
Ġri ver
k ins
Ġíı Ĳ
ĠI de
Ġtele vision
Ġd ating
Ġi Phone
ĠSec ret
Ġag encies
Ġê³¼ ìłķ
ĠAr ts
c or
ĠíĻ ©
Ġchalleng ing
Ġìķ ħ
Ġqual ified
Ġe ase
/ (-
ult y
Ġfor t
AN D
Ġë§¤ ì¶ľ
Ġrefer red
at re
Ġrel ation
L ast
ĠAd minist
c ular
Ġê·¸ëŁ¬ ëĤĺ
Ġinde ed
Ġt ub
Ġcontem porary
Ġk illed
er ry
ëĭ¤ ë©´
[ ]
! "
ì į¨
Ġcreat es
ult s
Ġfram ework
s ource
Ġm ir
Ġrout ine
Ġinj uries
H and
Ġíĥ Ħ
Ġcou pl
íķĺ ëł¤
en a
Ġatt ached
ì§ ľ
Ġë ŀ
å ħ
ir ms
ëĨ į
ì§Ģ ëĤľ
Ġìŀ¥ ê´Ģ
act er
id get
Ġinstru ment
ìĽĲ ìĿĺ
Ġclos er
ĠP ass
ĠìĨ ¡
ĠDown load
Ġappoint ment
ĠIn vest
Ġeng age
in put
Ġëĸ ¨ìĸ´
' .
ĠL u
Ġìłģ ê·¹
Ġ ..
Ġê³Ħ ìķ½
app y
Ġsk ill
ĠE X
Ġstud io
u ing
ĠëįĶ ìļ±
am ental
Ġf ell
Ġsub mitted
E G
Ġd ur
ool s
Ġg rown
Ġìī ½
Ġestim ated
ĠìĿ´ë ł
ìĪ Ļ
íĴ į
Ġexp enses
Ġw al
ograph ic
Ġt ough
Ġë¯¸ ëŀĺ
or ld
en cing
or able
Ġsol ve
N ode
ĠìĦ± ê³µ
ĠMed ia
Ġpers ons
Ġc ro
Ġ3 9
ìĬ¤ íģ¬
g ent
ĠCon ference
ìĹħ ì²´
ëĭ¤ ê°Ģ
Ġë³ ´ëĤ
P e
ĠE xt
S U
Ġinv ent
Ġspe aking
S H
ĠAs ia
ìĦ¸ ê³Ħ
ip al
ĠMan ager
Ġpain ting
Ġp in
Acc ording
ĠL os
Ġin ner
Ġsupp osed
Ġacc ord
Ġan x
k g
A ct
u zz
Ġco oper
ĠìĿ ĳ
Ġinstit utions
Ġdig it
Ġcap able
Ġdest ination
ì§Ģ ê°Ģ
ĠV er
m d
ĠP erson
ĠA ud
Ã ¶
Ġexist ence
ĠM ax
Ġreg ional
Ġequ ation
Ġsc ope
ĠCon nect
Ġê³µ ê¸ī
ì½ ľ
Ġaware ness
pro du
In ter
Ġì ¼
Ġcon clusion
ìĿ´ ìĹĲ
\ ,
Ġinvest ors
ĠêµŃ íļĮ
ĠB ud
Ġequival ent
Ġserv es
ĠH and
ast s
Ġele v
ĠíĬ¹ ë³Ħ
l angle
ĠC L
Ġaccess ible
Ġworld wide
ĠJ ose
ëĥ ¥
ĠMin ister
ĠS K
Ġand roid
ĠL o
Ġcour ts
Ġ199 9
Ġde fe
Ġun like
ìłľ ë¥¼
ĠA ff
Ġexec utive
n ab
ëıĻ ìķĪ
Ġdes ired
Ġk ing
Ġtrans action
ĠN av
ĠMore over
ëģ ¼
Ġoper ate
Ġapart ment
Ġê¸Ģ ë¡ľë²Į
ìĸ ¼
ĠC at
Ġkeep s
ad ing
ĠTh rough
Ġresist ance
ĠAd v
Ġev olution
ĠëıĮ ìķĦ
êµ¬ ìļĶ
E qu
Col or
Ġre ar
Ġu pload
c s
() )
ĠPl us
Ġsh oes
E very
ìŀ¥ ìĿĺ
ĠC A
im age
Ġs ac
Ġst ored
Ġdra ft
il st
IT Y
. _
Ġin ject
Ġeval uation
os oph
c ore
ar ge
Ġinform ed
Ġsau ce
Ġì¹ ¨
Ġíĥ Ī
Ġt aught
y an
ìŀ¥ ìĹĲìĦľ
Ġê· Ģ
Ġ( (
Ġcontrol s
le ts
r un
ĠSp an
ĠíĻ Ī
Ġf ro
A b
Ġsp r
Ġmin im
ë°Ķ ìĿ¼
Ġconstant ly
Ġê°Ĳ ìĤ¬
C O
m ond
ĠC le
Ġd iverse
Ġve ctor
ĠR est
ĠìĬ¤ íĥĢ
Ġê±´ ê°ķ
Ġc aught
Ġsty les
Ġpr ison
Ġë¬´ë £Į
Ġbirth day
Ġline ar
ph p
Ġprof it
Ġmonitor ing
Ġclose ly
Ġtrou ble
Ġre b
and a
Cl ick
op en
ou nder
V D
ĠM a
Ġpriv acy
p es
n ode
Ġnot iced
íķľëĭ¤ ê³ł
Ġdirect ed
ĠìĦ¤ ì¹ĺ
Ġm ale
Ġpro sec
f ortunately
ëĤĺ ìļĶ
)/ (-
Ġth orough
Ġfound ation
Ġvers ions
Ġmeet ings
Ġcandid ate
is ters
Ġsc an
ìĿ¸ ì§Ģ
ay er
Ġcount y
ĠíĮĲ ëĭ¨
ĠR oyal
Ġimag ine
ith ub
x x
Ġfeature d
ĠG ive
201 4
C ON
íĺ Ģ
ut s
b les
ìĦ¸ ë¥¼
Ġelect ron
ì ¿ł
íĻĺ ê²½
ĠìĿ¸ íĦ°ëĦ·
operator name
M ap
Ġremov al
ê·¸ ëŁ¬
Ġexp ressed
Ġy ellow
Ġ-- >
e le
Ġatt rib
are n
ìĿ¸ ìĿĢ
Ġs ister
Ġë¹Ħ ë¡¯
Ġsuggest s
N ext
´ë ¬
Ġbow l
dd en
Ġpen al
Cal culate
Ġìĸ »
sp ace
íĺ ¹
ĠW H
ĠEx ec
Ġmom ents
ond ition
Ġì°¸ ìĦĿ
Ġris ks
ìłĲ ìĿĦ
Ġrelig ious
Ġp il
C ount
C ode
L og
Ġsil ver
An other
Ġimm un
ëŁ¬ ìĬ¤
4 00
IT H
ãĢ ĳ
ëĮĢ ë¥¼
v as
Ġdang erous
ħ Ħ
ìĬ¤ íĥĢ
ì£ Ħ
or al
ĠCan adian
vare psilon
ĠCont rol
ĠP enn
ãĢ Ĳ
ĠìĿ´ ë¦Ħ
Ġz one
ĠPar is
O K
Ġì» ¨
ro x
ì° ¸
F ield
ed ing
ens ional
var phi
R em
å ®
Ġnorm ally
Ġ9 5
ì» ´
ĠCh ief
ĠB i
Ġful f
ĠH aw
st one
Ġh ire
Ġlux ury
Ġconc rete
ell o
Ġìĭ¤ ìĭľ
ĠC ert
u ine
h ire
um es
osp it
Ġrepl aced
Ġcru cial
Ġrequest ed
ra ce
Ġcl ar
Ġinst ruction
ĠDo es
íĻ į
or ial
Ġnear by
in ally
Ġcirc uit
Ġíķ´ ê²°
Ġrequest s
Ġsus p
ĠC up
ĠAcadem y
Ġle ather
ĠAn other
ult ural
Ġexpect ations
Ġcontrib ute
ĠH uman
ĠRuss ian
Ġg ro
co pe
ĠIt alian
Ġlandsc ape
Ġbl ess
Ġprov ision
Ġ( !
Ġconc erning
Ġtra il
A IL
w ing
Ġspe ech
Ġflex ible
Ġorigin ally
E P
Ġconf irmed
Ġj ew
Ġret ire
Ġcons ists
Ġë°© ìĨ¡
mer ce
Ġmed icine
Ġent h
ĳ ¸
Ġë°ľ ìłĦ
Ġìĺģ íĻĶ
Ġde ck
Ġj ack
ĸ ìĹĲ
Ġc ake
Ġì§Ī ë¬¸
ëŀ Ļ
ĠB efore
Ġpartners hip
Ġres idential
ĠMex ico
Ġto m
Ġph arm
ĠTh ose
et her
b old
ĠSer ies
Ġn arrow
Ġwe alth
´ë §
Ġcre w
Ġwor se
ĠDem ocr
Ġfor ced
/ (
atur ally
H T
Ġìĺģ ìĹħ
ì§Ģ ìĽĲ
ne ys
ĠìŀĲìĭł ìĿĺ
Ġê°Ģ ì¡±
ìĥģ ìĿ´
ap i
Ġst rict
E nt
Ġout standing
íĮĮ íĬ¸
Ġ199 0
Ġíģ¬ ê²Į
Ġhor se
": "
Ġdisc retion
Ġstand s
f ront
ê ´
Ġqu ery
Ġsu dden
ĠKe ep
Ġcontroll ed
ĠëķĮë¬¸ ìĿ´ëĭ¤
t hen
Ġjurisd iction
Ġ vel
ĠP ac
Ġlim its
Ġf ib
ĠìĦł ìłķ
Ġlo op
i pt
8 00
b orn
Ġn il
l ast
ĠR oom
ĠE nergy
Ġperform ing
Ġsearch ing
Ġsuppl ies
A ut
Ġê²½ ìĺģ
Ġaward ed
Ġprinc iples
P oint
M any
Ġmin i
ĠíĿ ¬
R S
Ġfair ly
ĠM ult
Ġrepresent ation
ĠJud ge
Ġarchitect ure
ĠK ey
n bsp
Ã Ń
Ġinnov ation
ĠíĦ °
Ã ¤
Ġdel ight
Ġcapt ure
u ction
b i
Ġind icated
A ss
Ġst able
Ġsched uled
Ġp apers
r ich
ìĿ¸ ìĿĦ
Ġë° Ģ
ìĹ Ħ
Ġmount ain
® ¤
E A
Ġatmosp here
201 3
N ote
Ġf o
Ġhealth care
ëĬĶ ëĭ¤
ĠìĤ¬ ëŀĳ
Ġc oc
Ġh idden
ĠW omen
C all
ìĹ ĩ
Ġl ift
> >
i ams
Ġv ital
Ġd ust
ìĥ µ
Ġlink ed
Ġad equ
ul f
ĠP ack
Ar ray
ë³´ íĹĺ
Ġê¸° ë³¸
k es
ush ing
#### ####
201 2
Ġentertain ment
ĠO k
Ġimmed iate
ì¹ĺ ëĬĶ
Ġ4 4
Ġ æ
Ġexp ansion
H S
ost on
D P
ĠL ED
Ġsh ock
ìĪĺ ê°Ģ
Ġmus cle
ĠG all
act or
ìķ Ķ
av en
Ġ199 8
Ġch at
Ġcho osing
Ġform ation
Ġtell s
Ġp ip
Ġimpos sible
Ġprogram me
Ġw est
Ġhappen ing
ĠF estival
Ġìļ ¸
Ġdest roy
Ġmagn etic
Ġvari ables
Ġmiss ed
ìĬ ¨
qu ir
ìĬ¤ íĦ°
con nect
z er
ĠM P
ĠëĨ ĵ
Ġed ition
Ġinc ident
he mat
Ġprim arily
2 000
Ġamount s
a fter
S er
ìħ ¨
Ġpol l
ĠMay be
ëĭ¬ ëŁ¬
r ance
Ġdom estic
W ell
Ġorgan ized
Ġest imate
Ġinf ect
ail able
Ġemploy er
Ġbelie ved
Ġtiss ue
ell a
ur a
Ġtick et
Ġ\ ,
Ġcal c
Ã ³
Ġres ort
aut hor
Ġanaly t
Ġguid ance
Ġout come
ìĿ¸ íĬ¸
G ener
Ġv ent
Ġinsp iration
ëıĻ ìĿĦ
Ġcert ified
Ġn om
Ġimp ressive
Ġìĭľ ë¯¼
it age
oo lean
Ġele g
^{ (
ra ction
as tern
Ġset up
Ġfac ing
Ġlif estyle
it an
Ġso il
Ġcontrib ution
Ġëª ĩ
Ġresearc hers
} _{\
Ġcorrect ly
oun ter
ìļ° ë¦¬
ĠE conom
Ġ 01
Ġdefend ants
ra cy
ĠRes p
Ġon going
Ġhost ing
ĠW al
ĠD NA
ĠS M
Ġ rom
ĠF ed
P r
Ġperson ally
ĠìķĦ ì§ģ
Ġse ctions
Ġve nd
Ġre ward
ob by
ëį ķ
in ent
ĠìĿ´ëł ĩ
Ġsc r
Ġevery day
à ¸
Ġm m
aw ay
Ġë§Į íģ¼
ad ow
ollow ing
Ġspl it
ëĮĢ íķľ
Ġê ½
Ġsu c
ìĭľ ìĦ¤
Ġremain der
Ġvis ible
", "
Ġmin imal
Ġad m
Ġaff il
ĠP ub
? âĢĿ
Ġman if
ĠRuss ia
Ġt ur
Ġocc urs
ìĪĺ ë¥¼
Ġc able
T O
Ġd ates
ĠVirgin ia
ĠS H
Ġfra ud
Ġtax es
Ġch annels
Ġcontinu ous
Ġb es
R I
ì ģ
ĠJohn son
Ġes c
ĠN ov
Ġm useum
ĠM A
Ġal ign
Ġst ack
Ġw ra
Ġimpro ving
Ġg ene
Ġsubject s
ĠPh ot
Ġrepresent ed
Ġcollab oration
ĠFin ally
Ġgu ard
pt r
å Ĳ
] [
ĠS uch
Ġì±ħ ìŀĦ
P art
ĠW ay
F T
ìŀĲ ë¡ľ
Ġrecogn ize
ĠìłĦ ê¸°
Ġì¤ĳ ìķĻ
Ġmar gin
il ty
ĠA ccess
ĠëĶĶ ìŀĲìĿ¸
ëĲĺ ì§Ģ
f s
Al so
ĠM S
ĠìĹħ ì²´
ge nd
Ġg olf
Ġv ast
ìĹĨ ìĿ´
The n
Ġë ¿Ĳ
ĠL ibrary
Ġgar age
Ġag es
Ġtest ified
Ġsurpr ise
ĠìĿĺ ê²¬
â ĩ
Ġinvol ves
S ervice
Ġëĵ± ìĹĲ
íķĺ ìĦ¸ìļĶ
Ġturn ing
Ġth in
Ġì£ ½
Ġdi agram
Ġdeal ing
Ġì¡° ê¸Ī
Ġelect rical
ĠìŀĲ ìľł
Ġmanufacture r
Ġve ter
alle l
ree ment
Ġinter act
ĠAut hor
Ġdisc ipl
Ġpass ing
ĠìĿ´ ìĹĲ
hold ers
T Y
Ġconc ert
Ġcl imb
Ġunder t
Ġt ou
Ġë¨ ¼
ëĮĢ íĳľ
Ġb anks
Ġìłķ ìĥģ
ĠìķĬ ìķĺ
T able
B L
Re quest
Ġb ool
ĠD u
Ġreport ing
ëĶĶ ìĸ´
v y
Ġrec over
B M
ë² ½
w rite
Ġh all
ĠVict or
Ġinvol ving
Ġg rew
Ġst unning
Ġê°ģ ê°ģ
Ġìľ ¡
ìĦľ ë¹ĦìĬ¤
ĠF our
Ġê² ¬
} ^{\
um ps
Ġp m
et ch
Ġt or
ĠJ o
Ġconflic t
Ġar ts
Ġdemonstr ate
Ġliter ature
Ġur ban
as ant
Ġent reprene
ë¡ Ń
Ġmov ies
z ed
ìĻ Ħ
Ġg ear
Ġre action
Ġs ight
) -
Ġplan et
Ġ ille
vent ional
Ġadv enture
ok es
Ġsk y
ĠCh ildren
ĠAmeric ans
Ġread er
u ous
ĠìĦ¤ëªħ íĸĪëĭ¤
Ġearn ed
ok ing
Ġwide ly
ĠìŀĪëĬĶ ëį°
Ġk m
og ue
Ġë§Įëĵ¤ ìĸ´
Ġd ental
Ġlo ans
ĠB al
Ġë³´ ëĬĶ
Ġfe aturing
ìļ ķ
v a
ĠH ospital
Ġl atter
ed ge
ĠNe xt
ect or
Ġapply ing
Ġappro aches
m ade
Ġmo ist
Ġbeh alf
ĠH en
Ġh ole
Ġch apter
Ġfavour ite
Ġin n
Ġra w
ë£Į ë¥¼
st ood
Ġbl ocks
Ġw et
Ġassoci ation
M ost
ĠìĹŃ íķł
Ġper t
ĠMart in
ĠSpan ish
Ġmus ical
' '
Ġwin ner
ĠC a
================ ================
Ġperman ent
Ġm ixture
Ġwe aring
St art
ê±° ëŀĺ
Ġanc ient
ĠìĪĺ ì¶ľ
Ġs ought
ĠRe port
Ġcompens ation
Ġsl ot
ìĻ Ķ
Ķ Ķ
Ġposs ess
B efore
ĠíĴ Ģ
ĠE r
p ost
ĠT ype
ĠSte p
íĭ Ģ
as ters
ve c
ĠAngel es
Ġcomp at
u gh
Ġsav ings
Ġcontain er
Ġequ ipped
ang er
ë³ ¼
G roup
ly mp
Ġbe ar
ë°Ķ ìĿ´
Ġcl othes
ĠO l
Ġclass room
ìĸ¸ ë¡ł
ĠI re
U D
ĠM iddle
Ġê²½ íĹĺ
ĠíļĮ ìĤ¬
Ġprepar ation
ĠAN Y
ĠìķĬ ìĿĦ
Ġcommit tee
Ġup coming
Ġult imately
Ġform ula
st ar
Ġrecord ing
Ġspect rum
Ġair port
Ġtransport ation
n um
Ġnecess arily
ëĵľ ëĬĶ
Ġeng aged
Ġì§Ģ ë°©
Ġs ad
Ġíķĺ ë£¨
es sel
ĠCh ampions
B I
ict ed
en ger
C M
Ex p
Ġr ig
in em
Ġíĺ ¼
Ġs aving
ry pt
Ġbon us
Ġcharacter istics
ĠDiv ision
w ar
Ġh unt
Ġëī´ ìĭľìĬ¤
ĠB uy
êµ ´
Ġë°Ľ ê³ł
ĠS ign
c ur
Al though
ĠF ull
Ġeng agement
Ġadv oc
Ġpercent age
Ġplan e
Ġtell ing
fol io
Ġboy s
ĠCarol ina
Ġjust ice
ĠP oint
el come
ĠM ur
ëĳ ĳ
Ġch ief
ĠF air
Ġtre nds
n am
ĠC ath
p erson
}} _
ì ¤Ħ
Ġmembers hip
ĠAP I
Ġsens itive
Ġreal ized
Ġsch olars
il ton
Ġsav ed
}} (
ĠJ im
Ġ199 7
ĠëĮĢ ë¶Ģë¶Ħ
ĠCirc uit
ĠC ross
ob s
Q U
Ġhe ro
Ġ4 3
Ġadd s
Ġgen uine
ĠA T
ĠOr der
e re
ĠOh io
201 0
ĠC y
se lect
ar ian
Ġcamp us
Ġbe er
Ġ} );
Ġmanag ing
Ġb one
as hed
ìŀ¥ ìĹĲ
orge ous
M ore
ĠGe org
ĠF ile
Mod el
os c
Ġcateg ories
Ġdump ster
Ġalgorith m
Ġcr usher
Ġs in
Ġres id
ì¶ ĺ
ĠC ost
b in
pl ates
ĠM en
N et
Ġsuc ceed
ic he
Ġst orm
ĠCom put
Ġê°Ģ ìŀħ
K E
ìĿ´ ê°Ģ
ĠM id
Ġinde pend
ut ch
g ithub
ĠA ri
et ric
O h
Ġdisplay ed
ĠAss ist
Ġ4 9
Ġexpl an
Ġvac ation
Ġless ons
Ġus age
ĠC reat
Ġappro val
Ġstrateg ic
ĠCom mon
Ġenth us
Ġfound ed
Ġê³µ ìĭĿ
ĠC ast
sy mbol
â ķ
ĠìĻ ľ
Ġg ifts
Ġlegis l
Ġfl ash
Wh ich
Ġcy cl
al ysis
ĠìŀĲ ì²´
ëĵ ¯
Ġt iny
Ġas ide
ul s
Ġar ms
Ġmar riage
ĠíĹ ¤
ro g
qu are
Ġdesign er
RE E
Ġconcent r
ĠR ule
Ġstrong ly
it is
Ġsupp lement
A meric
cont ent
Ġìŀĳ ìĹħ
B ig
Ġcommun ications
Ġout comes
Ġf ont
Ġsuper ior
en ame
os a
Ġcrit eria
Ġ} ;
s ite
Ġvis ited
Ġviol ence
´ëĵ ¤
Ġinc hes
Ġinteg ration
ĠS af
Ġal t
Ġdeterm ination
yn a
ĠëĶĶ ì§ĢíĦ¸
å Ī
Ġë§Į ëĤĺ
Ġguid elines
ĠíĻķ ë³´
ĠB oston
Ġspirit ual
ber ry
Ġfit ness
Ġcont est
Ġìļ° ëł¤
ic an
Ġredu cing
Ġfig ures
Ġpres ents
er ate
Ġtreat ments
ĠL ee
¤ íĬ¸
ĠìĿ´ ìłĦ
Ġp p
Ġprov en
Ġb ranch
ìĻ ķ
ĠSupp ort
D is
ĠL in
í ĩ´
ĠíĮ Ķ
y ard
Ġfl ood
Ġobject ive
Ġepis ode
ĠG ame
ĠN ame
ĠA rab
Ġf ishing
ĠD isc
ĠìĥĿ íĻľ
Ġd ownt
íļĮ ìĤ¬
Ġê°Ļ ìĿ´
ĠíĴ į
ĠD C
Ġe ast
Ġattend ed
ro gen
Ġca using
Ġtal ent
Ġfind s
íķ´ ì£¼
Ġmort gage
app ed
Ġmechan ism
ĠìĤ¬ ìĿ´íĬ¸
re p
Ġnucle ar
ĠìĦł ê±°
Ġk it
íĤ ¨
"> </
Ġac celer
char ge
ë ľ
ê°Ģ ìļĶ
st al
Ġìłľ ìŀĳ
p ed
Ġplatform s
Ġìĸ´ ëĬĲ
ê³ ¨
ĠìľĦ ì¹ĺ
Ġwhen ever
Ġë³´ íĹĺ
ĠT our
over line
Ġhand ling
ĠCol umb
ĠCh air
B O
Ġ4 7
ĠCont act
ì§Ģ ëıĦ
Ġqu e
Ġcommon ly
Ġìĸ¼ ë§Ī
ist ent
g ments
Ġcelebr ate
ìĬ¤ ë¥¼
. \[
ĠëĬĲ ëĤ
Ġ4 6
P M
Ġv ul
201 1
Ġrepe ated
Ġm g
Ġconst it
ëĲ ©ëĭĪëĭ¤
) ^
ĠR oman
Ġmark ed
Ġ4 1
ì ĵ
ain er
d ict
Ġp od
Ġfund amental
c reate
ĠL ine
Ġant icip
ĠJ ones
Ġpotential ly
Ġdocument ation
Ġëª ¸
ĠT R
Ġm it
ĠF ort
Ġro les
ĠCo ast
Ġne ither
g as
Ġ199 6
Ġb odies
Ġí Ľ
Ġreput ation
ĠìĿ¸ ìłķ
Ġt all
ĠF ar
ĠJust ice
ëĵ¤ ëıĦ
ĠS ar
ĠíĴ Ī
ĠFurther more
íı Ĳ
** ]{},
Ġstret ch
ge q
Ġsub t
irc raft
Ġconnect ions
ĠT imes
ĠJ ul
ĠE nt
Ġauthor ities
Ġch ose
Ġill ness
Ġb ridge
Ġtr ick
pro fit
Ġprot ocol
Ġbas ket
ð Ł
Ġcra ck
ĠS outhern
Ġshe ll
ĠìĹħ ë¬´
Ġflo at
** (-
Ġìķ ķ
ĠCal culate
Ġlimit ations
l ights
Ġ5 2
ĠL ink
Ġper mission
ëĤ¬ ëĭ¤
ĠIns urance
ìŀĲ ëıĻì°¨
Ġy esterday
Ġë§ ¡
Ġass igned
Ġprint ed
ĠG ar
íĶ ½
is er
ĠìĻ¸ êµŃ
Ġë³´ ìĿ¸ëĭ¤
Ġpe ak
M essage
sc ale
íĻ Ģ
Com p
íĤ ¹
Ġcon tend
Ġrem ind
R ef
Ġh ook
Ġmin ing
an i
ĠL ib
Ġì ĩ
ĠT erm
Ġen ables
p c
int age
ĠIt aly
Ġt ap
ì¡° ìĤ¬
Ġaccur acy
ìĦł ìĿĦ
Ġh ur
Ġf asc
ĠW alk
Ġben ch
Ġslow ly
ĠDig ital
U ser
ex pected
Ġor ient
ê¸Ī ìľµ
Ġgradu ate
Ġsustain able
ìĶ ©
ell ed
ĠSc ot
L S
ĠAcc ount
d et
Ġdisapp oint
Ġintrodu ction
ĠìĿ´ ìłľ
H P
Ġdraw ing
Ð »
F ind
r as
) '
c irc
L ook
ĠV an
ĠìĿ´ íķ´
Ġt ank
Ġlist ening
ĠI M
ĠF R
Ġad j
Ġì ı
ĠP age
Ġevalu ate
Ġregard less
ìĬ Ī
fe rent
Ġpo ker
ĠYou ng
Ġgr ass
ul ating
Ġlov es
Ġìĭł ì²Ń
Ġse nding
ìłķ ì±ħ
ĠWill iams
Ġple ased
ë¯¼ êµŃ
Ġattack s
b m
ĠíķĻ êµĲ
Ġdirect ory
it ory
li ers
Ġworksh op
Ġê²Ģ ì°°
Ġìĥģ ëĭ¹
ro ke
Ġê³ł ëł¤
Ġres erved
Ġprior ity
f oot
â ľ
ĠëĮĢìĥģ ìľ¼ë¡ľ
Ġre in
te en
Ġê³Ħíļį ìĿ´ëĭ¤
Ġelig ible
sum mary
% %
Ġob lig
Ġë°Ķ ê
ĠëĤ´ë ħĦ
Ġê°Ĳ ìĨĮ
Ġdis pos
Ġquant um
ĠìĿ´ëłĩ ê²Į
Se lect
Ġprodu cing
ian o
se ct
ĠìŀĪ ì§Ģë§Į
ì¶ľìŀ¥ ìķĪë§Ī
Ġun iform
Ġíĺ Ĳ
i ac
ĠU t
00 1
ĠëıĦ ìĭľ
Ġë°© ìĭĿ
ĠW ild
Ġnew ly
ore t
Ġhab it
Ġhor iz
un icip
OR T
Ġclaim ed
Ġflav or
Ġsome what
Ġ2 50
il arly
Ġprom ise
Ġcomp act
ä ½
Ġviol ation
-------------------------------- --------------------------------
ĠN S
å ¤
Ġath let
T e
Ġconf ident
D B
Ġrespons es
app a
Ġgu ilty
Ġarg uments
Ġë³´ ëıĦ
ì§Ħ ëĭ¤
Ġi P
Ġp ill
Ġphot ograp
ĠìĦł ë³´
Ġgu itar
Ġse gment
c ers
ĠHist ory
Ġmod ified
Ġ( )
ĠIre land
Ġsecond ary
íĺĳ íļĮ
Ġc odes
Ġnew sp
Ġcris is
ER S
ĠìĿ´ìķ¼ ê¸°
Ġl osing
ail ed
íĹ Į
Ġì ¿ł
Ġìŀĳ íĴĪ
ëĶ ©
ĠI II
m ic
Ġsh ops
E lement
Ġant ib
ëĦĪ ì§Ģ
Ġbott le
Ġpl ot
F R
ĠC ook
B ox
b rid
íķľëĭ¤ ëĬĶ
Ġhistor ic
Ġintrodu ce
ë¶Ħ ê¸°
ĠìĿ´ ëıĻ
Ġmat ches
Ġpl ain
Ġmanufacture rs
Ġìķŀ ìľ¼ë¡ľ
i h
fra k
Ġte ch
ĠO S
Ġbre ast
Ġen em
ĠB ow
ĠìĿ¸ ì²ľ
ĠChar l
el ly
Ġprov isions
Ġg ap
AM E
mod el
ĠH ope
ĠZ eal
ĠJ eff
íĶĦ íĬ¸
Ġan gle
Ġoff ense
Ġëĳ ĺ
p g
Ġìĭľ íĸī
ìĦ¸ ëĮĢ
Ġrem ained
O B
Ġj ava
ot ed
Ġë ĥ
id ers
ê²ł ëĭ¤ëĬĶ
ìłĦ íŀĪ
Ġì¦ ī
Ġrecogn ition
Ġë¹Ħ êµĲ
Ġoppos ite
Ġinv ited
Ġavail ability
Ġmov es
Ġre cept
Ġadop ted
F A
Ġmark s
" ).
d r
omet ry
Ġ Â·
Ġar rive
Ġë§¤ ìļ°
ĠëıĦ ìŀħ
n ormal
Ġlist s
ëŀ «
Ġ9 9
L ine
Ġm aps
ìĬ¤ ëĬĶ
ĠS D
U se
Ġíķ´ ìķ¼
ĠM s
Ġt ip
Ġrecommend ations
ĠíķĦìļĶ íķľ
( &
Ġì£¼ ë¯¼
Ġsm ile
a o
Ġor al
Ġprogram ming
ĠO lymp
ĠPl ace
Ġphot ography
ĠSystem s
Ġoff ices
Ġme als
f unc
Ġì¤ĳ ê³ł
P G
Ġk ne
Ġyoung er
Ġimplement ed
Ġal ter
Ġê²ĥ ëıĦ
M ay
ìŀĲ ëĵ¤ìĿ´
Ġc ute
ìĽĢ ìĿĦ
Ġsubsequ ent
Ġlay out
AB LE
ĠUS B
ik i
AS S
Ġo ven
ĠìĹĶ ì§Ħ
ĠìĨĮ ê°ľ
Ġb ags
ha ust
Ġal ert
ĠE N
Ġnut rition
Ġëĵ± ë¡Ŀ
on ly
Ġher self
Ġsatisf ied
Ġt ack
6 00
Ġíĺ ¹
ĠPol ice
Ġbreat h
Ġdemonstr ated
u ct
Ġult imate
Ġ19 80
Ġto x
ĠH on
Ġam pl
angu ages
íľ ´
Ġsome where
S u
Ġun known
ag ues
a wn
ĠìĿ´ë £
Ġdise ases
ĠN on
Ġweek ly
Ġunder lying
ol ar
ìĹĪ ëįĺ
Ġíıī ê·ł
le ments
Ġpick ing
Ġla pt
Ġqu ote
Ġdiv ide
Ġcl othing
ìķ Į
ĠëĤĺ ìĺ¨
Ġëª© íĳľ
Ġst ain
Ġfol ks
ìĦľ ë¥¼
Ġindic ates
Ġte en
ter ior
Ġins ight
O ff
Ġprob ability
Ġs ick
ian a
el ing
nd a
ĠV ill
ĠSom etimes
ĠB M
ĠZeal and
co ver
Ġcap abilities
Ġìĭľ ìĦ¤
ìĨ Ķ
Ġmill ions
Ġìĸ´ ë¦°
Ġh ospit
IN T
Ġt ourn
TM L
Ġserious ly
ĠB oy
\] ,
P ress
ëį° ìĿ´
Ġre ly
Ġdevelop ers
Ġun w
Ġbox es
Ġe c
ĠB ible
Ġtw enty
ì ¤
ou red
Ġact ing
íħĲ ì¸ł
ìłķ ëıĦ
O ST
ê¶Į ìĿĦ
ì¹ ´ëĵľ
ans as
Ġdriv en
Ġsurpr ised
ie ce
Ġattract ive
Ġse ed
os ph
ĠëĮĢ ìĿĳ
D r
Ġmag azine
Ġshoot ing
Ġhe l
Ġh ang
Ġabs ence
; ;
X X
**************** ****************
Ġenter prise
ĠPre m
Ġ ãĢ
Ġlow est
Ġêµ¬ ì¡°
Ġconsum ption
ê±° ë¦¬
Ġconcent ration
íķľ íİ¸
et ing
ê°Ģ ëĬ¥
´ë Ł
Ġë³Ģ íĻĶ
Ġì§ĳ ì¤ĳ
Ġcrit ic
ì¹ Ń
D uring
Ġre form
C o
ĠSt at
ì°¨ ë¥¼
Ġcopy right
Ġview ed
Ġdra wn
z il
ĠS ite
Ġhe aling
Ġl ip
Ġdecre ase
Pro perty
st ers
ĠN O
ens or
ĠRich ard
Ġbas ically
ë¶Ģ ë¥¼
Ġag ric
ill iant
æ ĸ
Ġinitial ly
Ġwhere as
abet es
Ġg ate
ìłĦ ìĿĦ
G L
F i
* (
Ġaccompl ish
ĠMich igan
ĠL ittle
ĠB ed
Ġphil osoph
Ġcab in
Ġë¬´ ìĹĩ
Ġdiv ision
m em
ĠEngine ering
Ġpre v
on ent
st ra
Ġfl ag
D C
Ġlik ed
Ġn aturally
ê°Ĳ ìĿĦ
ê³¼ ìĿĺ
Ġincreasing ly
ĠëĮĢ êµ¬
Ġappl ies
Ġper mit
Ġìłľ ì£¼
Ġatt ach
ìĿ´ ëĵľ
Ġder ived
Ġf irms
Ġ199 5
Ġhon or
r ick
Ġunder stood
ĠCorpor ation
Ġì¶ľ ìŀ¥
ell er
Ġprefer red
Ġd ent
ĠìĿ´ë ¤Ħ
ĠL ocal
Ġdec ade
Ġaccord ance
in ates
Ġì¢ĭ ìķĦ
Ľ °
Ġfin ance
Ġb ars
Ġcere mon
ri ers
Ġsuff ering
ĠCh ris
m t
Ġexam ination
ain ts
Ġê¸° ë°ĺ
Ġindust ries
Ġcontinu ing
Ġhum ans
ìķ ŀ
ĠëĲ Ĳëĭ¤
ìłľ ê°Ģ
ĠS O
in cluding
ĠE ll
Ġs rc
Ġover w
Ġmere ly
ĠPac ific
Ġtra vell
Ġcon clude
Ġexpl icit
Ġë°Ľ ìĿĢ
íĥ ķ
ĠIs l
ëĭ Ŀ
Ġwalk ed
Im age
Ġtrack s
Ġemploy ed
Ġëħ¸ ëıĻ
P P
Ġwrit ers
ĠìľĦ ìĽĲ
x ml
ony m
d ep
Ġpro port
T E
¤ ëĭ¤
ĠA I
ĠK en
Ġgall ery
ro t
od ge
Ġmer ch
le ctions
Ġconcept s
ott ed
Ġre vers
Ġa wards
ens ure
ĠíļĮ ìĽĲ
ĠH ard
Ġph r
l ers
ĠDefend ant
Ġcommun icate
E ach
ê°Ļ ìĿĢ
Ġcare ful
Ġy ard
Ġr ice
, ,
Ġf ault
F il
se m
Ġrec all
Ġt error
ĠF arm
ĠM ike
Ġêµ¬ ì¶ķ
ab el
Ġlog o
Ġch ronic
ĠìĤ ¶
Ġground s
U E
o z
Ġbl ank
ê´Ģ ê³Ħ
Ġt utor
qu ality
ard ens
Ġmanag ers
Ġcontrib utions
ĠC ur
Ġcover ing
og ether
Ġsy mm
ìĪĺ ëĬĶ
ĠP y
Ġê·¸ ê²ĥ
ov en
ĠU RL
re ated
ĠEn vironment
Ġê¸ ´
Ġëľ »
Ġwarrant y
ëĭ ¥
Ġexp osed
Ġpros pect
ĠJer sey
ĠExec utive
% ),
Ġ$ {
ëī´ ìĭľìĬ¤
am ps
Ġcalcul ated
Ġdis pl
Ġex port
ot ton
ĠLe g
Ġrecip es
Ġdiagn osis
Ġvul ner
Ġb inding
AC K
ĠP DF
Ġb low
n ames
Ġv essel
Ġcert ificate
ab s
Ġpow der
Ġwire less
Ġë°Ķ ìĿ´
Ġê°Ģ ì§Ģ
Res p
ì¦ ĺ
Ġar r
Ġdet ection
Ġm ic
Ġpack ages
l ocal
ëıĻ ìĤ°
Ġ( \
ĠL ive
ik es
´ë¬ ¼
Ġíĺ ģ
w orth
ĠìķĮ ìķĦ
Ġcompl icated
Ġê³µ ê°Ħ
Ġdist ingu
Ð º
Ġd ual
ĠN orthern
Ġê³µ ê²©
Ġg ent
ĠOb ama
Ġìĭł ê³ł
ag raph
am ber
Ġke ys
Ġpro hib
Ġf estival
Man ager
ran e
Ġstre ets
Ġst ability
Ġìĺ¬ ëĿ¼
L ambda
Ġp ad
Ġhe ating
Ġcheck ing
ĠAb out
Ġg orgeous
Ġcons ent
form ance
Ġst ake
Ġdepos it
U I
Ġw arn
ond s
ou p
ĠE q
ĠD ub
Ġmag ic
Ġ1 01
ĠO p
Ġg alax
c ut
ìĽĲ ìĹĲ
Ġdro pped
Ġs ink
Ġpur s
te x
ĠSm all
Par am
IN E
ìĬ¤ ë¡ľ
Ġun us
ĠP ut
Ġbur den
ĠW i
ĠAd ditionally
ê· Ģ
ark s
Ġneg lig
ce ived
Ġl ies
Ġinte ger
ĠAr my
b ound
Ġen roll
ë¯ Ģë¡ľ
ëĳĳ ìĿ´
Ġ6 00
ĠSp irit
ĠC N
S m
B ook
Ġre nder
Ġarg ues
ĠH or
Ġphen omen
Ġë¶Ģ ëĭ´
Ġprint ing
ĠChar les
Ġê´Ģ ê´ĳ
Ġalong side
ĠS anta
ìķ ķ
Ġ+ =
Ġê ¶ģ
Ġm ile
ĠJack son
enn is
ĠMc C
f irst
ER E
Ġsuggest ions
íķĺê¸° ë¡ľ
ab il
b el
ĠOffic er
Ġmeasure ments
ëĤĺ ëĬĶ
1 01
a ver
200 8
Ġcl ock
Ġleg s
Ġê ´
ĠT urn
ĠI ran
Ġmaint aining
Ġse ats
Ġp or
G E
Ġrepresent ative
ĠEx pl
K e
ł µ
Ġinf ection
Ġtrans mission
s pe
V is
Ġport folio
Ġíĺĳ ëł¥
Ġaccess ories
math frak
Ġmax im
Ġr ating
ĠFig ure
ĠC ab
Ġcheck ed
Ġins pe
Ġst ages
Ġmaint ained
Ġëħ¸ ëł¥
el lect
ĠT ri
ck et
Ġro se
S M
ĠH im
Ġwor st
ĠìĻ Ģ
ĠìĿ´ ëĬĶ
qu ot
íķĺ ìĭľ
Ġhop ing
S ystem
ino is
Ġtw e
Ġin ch
íķĺëĬĶ ëį°
B ar
j a
Ġíķĺ ëĿ½
Ġ5 6
Ġa ircraft
Ġneigh b
A m
ĠStud ents
ĠK n
Ġens uring
Ġtem porary
ë§ Īëĭ¤
pro t
pend ing
athe red
Ġsc ored
us al
Ġad s
Ġ{ #
ĠìĿ¸ ìĤ¬
Ġcons cious
ld er
ĠëŁ ¬
et ary
Ġspecial ist
! )
form at
Ġìķ Ķ
íŀ Į
ìłķ ìĿ´
Ġlay ers
im er
Ġìľł ëŁ½
Ġmem ories
val id
ĠInst agram
ĠG ames
Ġg rid
ĠJ un
n ic
ëıĦ ìĿĺ
Ġb are
Ġoper ators
g ress
P D
Ġfac ulty
ĠU ser
ì¼ ĵ
Ġcon cluded
d ir
Ġinter actions
Ġtom orrow
ĠN ever
ĠìĹ° ê²°
ĠL ow
yp es
] :
ig ate
v ity
def ault
Ġsp oke
ĠWor ks
í Ĥ¬
Ġobvious ly
ìĭ ±
Ġcl osing
Ġë§ Ľ
the less
ĠR ight
ul um
oc ity
Ġresult ed
w s
ĠTh ree
ìĺģ ìĥģ
Ġparticip ation
ĠR am
ion e
ì¦ Į
OU T
L A
ik ing
ut ory
Ġl ie
Ġwas h
oc ument
Ġ5 1
ĠW ITH
$ (
Ph i
200 9
ĠF ield
Ġpull ed
g t
Ġlarge ly
Ġp y
ĠL y
Ġwh ilst
D ate
it ud
c urrent
ĠS C
du ate
ĠApp ellant
Ġl ens
Ġadministr ative
Ġfl our
c at
ix ed
R C
ëĮĢ ìĿĺ
Ġad mitted
Ġë¹Ħ ìļ©
Ġtrans actions
erm an
ĠìĦ ¼
[ \
Ġlawy er
ĠT ry
Ġr ug
OU N
ĠAg reement
Ġcomple tion
Ġfact ory
Ġfunction ality
Ġpropos al
W here
Ġìµľ ì´Ī
E ven
ĠSecret ary
Ġhe nce
Ġs oph
Ġtra dition
pro cess
Ġcarry ing
x id
ant ed
Ġluck y
Ġres idence
ĠìĿ ½
íĪ¬ ìŀĲ
Ġcrow d
res ult
Ġun ion
Ġê±´ ìĦ¤
clud es
Ġexperim ental
resh old
ĠT ax
G l
Ġegg s
oc y
Ġfeel ings
ãģ ®
Ġdisc overy
ĠSt ore
g ical
Ġtemper atures
ëĭ¨ ì²´
Ġìĭł ê·ľ
ol ly
s is
ag en
ari ant
IC E
Ġí ŀ
c raft
P T
Ġëĵ± ìľ¼ë¡ľ
ĠK now
Ġë¬¸ìłľ ê°Ģ
ĠS n
H ead
Ġ5 4
ail ing
ĠS earch
Ġexception al
Re ferences
ack s
red it
ĠPro cess
Ġassum ing
ê°Ģ ë¥¼
Ġlik es
Ġfor um
!! !!
ê¸° ê°Ħ
Ġpublic ation
Ġê ¿
)/ (
ìķĪ ìłĦ
ĠP ract
Ġt it
Ġd il
¢ °
Ģ ëĵľ
Ġíķĺ ì§Ģ
ĠM ain
ĠKing dom
Ġ8 5
ĠC ivil
Ġk il
ĠH aving
Ġêµ¬ ìŀħ
Ġst ead
ĠSe a
Ġp ra
ĠB u
Ġupgra de
ĠëĬ ¥
ëĭ ·
Ġjo ining
į ëĭĪëĭ¤
Ġlegis lation
Ġj un
Ġm ob
ì¹ ł
Ġco al
friend ly
r ine
ĠìĽ Į
ëħĦ ê°Ħ
ìĶ¨ ëĬĶ
ìĽ ĢìĿ´
ĠK ar
ot ype
s rc
T ube
ê°Ģ ê°Ģ
ell s
Ġoverw hel
Ġprinc ipal
ĠD ie
Ġstrugg le
ĠFranc isco
Ġre verse
Ġter rit
Ġimprove ments
Ġcont ents
Ġprinc iple
Ġcal endar
Ġìĸ¸ ë¡ł
S ource
ĠíķŃ ê³µ
li ament
news is
Ġint ention
in ch
p ay
Ġanx iety
ê° ĳ
Ġgreat ly
Ġu int
op ic
a ud
ë³´ ê³ł
Ġcomb ine
Ġê´Ģ íķľ
Ġwood en
Ġsurpr ising
Ġany way
ĠE vent
ect s
ëŁ Ń
im ation
r at
Ġ ram
Ġex haust
ĠWe ek
Ġautom atic
ĠD id
Ġenjoy ing
Ġfold er
Ġpurch asing
h ome
Ġmod ify
Ġfight ing
ear ing
bs ite
ì½ ĺ
B ack
Ġdo ctors
ĠFin ancial
M ake
ĠJ ac
ap ore
ëħ ķ
Ġv ibr
Ġtrack ing
Ġìłķ ë§Ĳ
St ream
Ġref und
ane ous
Ġorgan is
ëł¸ ëĭ¤
Ġsmall est
ĠB on
¬ íķľ
Ġsh arp
Ġdrink ing
Ġacqu ired
Ġì° ©
Ġpriv ile
Ġappoint ed
ge bra
un s
Ġass et
Ġacqu is
Ø §
Ġplaintiff s
íķĺ ìĺĢ
H ave
Ġto oth
ld ots
al o
Ġp ink
)* (
Ġ( âĢľ
Ġdim ension
Ġë³´ íĺ¸
ut il
ĠB ox
ent h
ĠìŀĲ ëıĻ
k o
Ġê°ĢëĬ¥ íķľ
end if
Ġstrong er
Ġf its
ë°Ķ ëĳĳìĿ´
Ġíĥ ĢìĿ´
Ġprov ed
ĠCor p
Ġincred ibly
w as
be red
Ġê² ©
D ec
Ġst uck
Ġwith draw
Ġde lete
ĠF L
Ġproceed ings
A F
Ġexhib ition
iss ions
il ly
ĠO bject
Ġextend s
Ġsign ature
Ġhead s
i ors
ĠSer ver
Ġle ct
it ative
ëį ¤
Ġcent ers
! [
ĠAg ain
ìĩ ¼
Ġvict ory
ĠAre a
1 50
Ġconstruct ed
ë¬¼ ìĿĦ
íķ ´ë
it ivity
íķĺ ê±°ëĤĺ
Ġfore ver
Ġle ague
Ġì¹ĺ ë£Į
ĠF ord
ay lor
Ġble nd
ë¡ľ ëĬĶ
Ġven ue
ì¢ Į
T wo
Ġfin ite
ĠP ot
ĠA C
yl van
f in
Ġenforce ment
> (
Ġswim ming
W ork
ĠìĿ´ë² ¤íĬ¸
Ġp ix
ĠC amb
ì¶ °
Ġexce ed
Ġeleg ant
N e
Ġbird s
íĬ¹ íŀĪ
Ġê·¸ëŀĺ ìĦľ
al i
Ġë Ľ°
Ġ199 4
Ġdis k
f alse
D I
G u
° ëĭ¤
em ploy
Ġconsequ ences
ĠM obile
ëł ´
less ly
Ġc m
ë§Ī ìĤ¬ì§Ģ
Ġpric ing
Ġíķµ ìĭ¬
Ġretire ment
ĠGeorg ia
Ġsatisf action
ĠìĦ Ŀ
ĠìłĦ íĸĪëĭ¤
ĠE s
ond er
H z
Ġê²° êµŃ
ĠH a
Ġflu id
Ġt rib
Ġcra zy
Ġbelie ves
Ġintellig ence
Ġb id
ĠMr s
ĠW atch
n or
ĠìķĮ ê³ł
pro perty
Ġmeasure ment
Ġconvers ion
h as
O ther
Ġbehavi our
s we
Ġdisc rim
m essage
ĠB all
v in
f all
Ġmur der
ìķĦ ìĿ´
ĠColor ado
Ġple asure
ë¡ľ ë¶ĢíĦ°
Ġp ace
ĠL LC
Ġres c
ĠW in
Ġsc ores
Ġ8 00
ph ones
rupt cy
Ġrec ycl
Ġcop ies
G ood
ĠDan iel
ìĿ¼ ë¦¬
( {\
w a
ens us
Ġcompos ition
Ġëģ Į
C reate
ìĤ¬ ìĻĢ
Ġl ad
Ġí ĮĢ
Ġclos est
ĠRet urn
ĠëĦĺ ìĸ´
ĠJ on
ĠC ra
Ġtele phone
Ġent ering
Ġì§Ģ ê¸ī
Ġcontract s
íı ¼
Ġ7 2
ìĿĮ ìĿĦ
hold er
j o
. *
Ġessential ly
iet ies
Ġbo ot
asc ular
ĠAs h
m box
Ġbuy ers
d i
Ġesc ape
Ġcook ies
Ĭ ìĿĢ
} ,\
est ed
ľ ëŁ¬
Ġë ¯
Ġconst raint
Ġl aser
in os
Ġf ru
Ġille gal
ivers ary
ir ts
Ġab und
pr ime
st s
he ther
Ġëª¨ ë°ĶìĿ¼
z es
P N
d t
ë³¸ ë¶Ģ
word s
H i
Ġshould n
at i
olog ist
ra pe
Ġpan els
ĠIll inois
Ġëį° ìĿ´íĦ°
ĠCl in
ĠìķĬ ìķĺëĭ¤
Ġì£¼ ë³Ģ
ar ters
ĠV ery
Ġìļ´ ìłĦ
Ġcon ventional
Ġut ility
ĠE st
Ġn arr
Ġsem i
Ġed ges
Ġstat istics
ì¦Ŀ ê¶Į
êµŃ ìĿĺ
qu ery
Ġrapid ly
or gan
l ang
ri ver
ë ¢°
Ġh urt
ut ors
ER T
ìĥģ ìĿĺ
ter y
ass ert
Ġìłľ ê°Ģ
Ġ1 10
Ġsc al
Ġsus pect
ĠT er
ĠìķĦ ëĭĪëĭ¤
Ġdo se
AG E
ĠS her
Ġbenef icial
Ġgraph ics
Ġsuff ered
{ {
Ġsett lement
ĠF ather
ĠìŀĲ ìĹ°
ĠE p
ĠSp ace
Ġinterpret ation
ì§Ģ ë§ī
ĠJ r
ad ed
Ġent rance
e vent
s g
OR D
ĠIm age
Ġvolunte ers
k appa
Ġres olve
pro of
T oday
n av
ìĽĲ ìĹĲìĦľ
he rent
and on
e ah
Ġd uration
ĠS ports
gy pt
ìŀ¥ ê³¼
Ġinj ured
Ġtrans formation
Ġreg ulation
ĠGu ide
viron ments
Ġb inary
ĠMod el
ĠY et
Ġstudy ing
rie ved
ple x
re ll
ĠìŀĲ ë¦¬
Ġl augh
Ġë´ ī
Ġowners hip
Ġpartic les
sub set
ì½Ķ ë¦¬ìķĦ
ìĽ ĥ
Ġhot els
Ġcon j
ly n
pl ify
Ġperiod s
Ġlic ensed
c r
E nd
R et
ov ing
Ġent ity
bold symbol
Ġmet ab
Ġre nov
Ġcur ve
âĸ ²
ag ger
Ġë¨¼ ìłĢ
Ĩ ĵ
er as
Ġo l
Ġf illing
omet ric
Ġlist ing
ĠSh ould
ê°Ģ ê²©
ì§Ģ ìĹĲ
L ink
Ġveget ables
Ġl anguages
ìĿ´ ë¥¼
Ġëĵ ¯
Â ¶
Ġì²ĺ ë¦¬
G e
b ug
Ġj e
Ġnum er
m aking
ĠS on
! --
ru ption
ëĤ ¸
B D
ĠP ak
ëª °
Ġê°Ģ ì§Ģê³ł
ĠJew ish
ìłĦ ìĹĲ
Ġr ural
Ġë³´ëĤ ´
ĠR ights
ëĮĢ ê°Ģ
o at
P ost
Ġw arning
Ġo cean
Ġl au
ìĤ¬ ê³ł
ì´ Į
Ġtravel ing
ì» ¨
. </
Ġdis hes
Ġíľ ´
or ters
ut ies
Ġlif etime
. \
Ġê²Ģ íĨł
ĠìĨ Ķ
íĶĦ ë¡ľ
ĠTra vel
ĠPr ice
Ġfac es
Ġinvestig ate
ĠAnd rew
Ġreturn ing
Ġh am
Ġtr im
Ġsex ual
Ġ5 3
Ġh at
ater al
Ġê°ķì¡° íĸĪëĭ¤
d ec
Ġì¤ĳ ìĨĮ
ent ry
ĠLab or
ë ¿Ĳ
ì² Ļ
ê²½ ì°°
ort ed
pro duct
j ava
ì°¨ ëŁī
ĠTh ough
Ġexpl ains
Ġres ume
per ties
d ist
ific ial
h igh
ensure math
ìĺ ¥
ĠD I
Ġë°ľ ê²¬
íķ ´ë³´
ylvan ia
ok ed
ìŀĲ ëĵ¤ìĿĺ
st ery
um a
b ration
Ġdream s
ĠC urrent
co in
mon th
íĦ° ë¦¬
M r
Ġevery where
F e
s upp
ĠP en
Ġë³Ģ ê²½
ĠD ate
w an
Ġle ts
ĠL iving
Ġinv al
Ġb orrow
Ġdem ands
Ġp it
Ġbre aking
Ġob l
ep ing
ĠSh op
Ġê³ł ë¯¼
ëª »
E V
** ]{}
ĠP rom
ĠJose ph
ĠS EO
Ġaddress es
Ġequ ally
Ġdire ctions
ĠSm art
ĠC ase
ĠíĨµ íķ©
EN D
Ġë°ĺ ìĺģ
Ġperson nel
ì¼ ĢìĿ´
ìĤ¬ ìĹĲ
at ile
ĠMarket ing
Ġtext ure
ĠìķĦ íĮĮíĬ¸
Ġê´ĳ ê³ł
ë°ĺ ê¸°
Ġexam ine
ĠN ight
Ġdeb ate
Ġch ances
Ġreview ed
ëĮĢ íķĻ
ĠìĻ ķ
ìĦ± ê³¼
Ġsurv ival
Ġtrig ger
Ġvert ical
Ġìĸ ĺ
Ġcirc le
s ing
w all
Ġt ill
Ġpolit ics
ĠF un
ĠLear n
ĠP o
ĠJ oe
ent er
rib le
) ]
ĠE R
Ġst ations
ëł ī
Ġbr illiant
ĠBra zil
0000 00
ĠP L
ĠG arden
Ġconsult ation
Ġvers us
Ġe cho
az e
Ġdeterm ining
ul pt
il a
is a
Ġpow ers
C ons
j i
Ġflex ibility
ìĸ´ëĤ ľ
AC T
Ġstat ist
if ferent
ĠR ose
Ġì§ģ ìĽĲ
ac ious
ĠBuild ing
Ġìłľ ìĭľ
200 7
Ġ era
Ġtal ks
ë¶ Ļ
ĠìĪ Ļ
Ġph ones
Ġoff set
ĠB it
Ġopt imal
I X
Ġsp ots
Ġelect ro
Ġre aching
ĠC S
ĠR ay
Ġíĭ °
ĠS olve
be ing
Ġë¶ Ļ
u is
c ard
S olve
Ġì§Ģ ëĤĺ
Ġm old
G reat
ĠìłĦ ëĭ¬
Qu ery
m ain
Ġìº ł
ann ed
Ġperson ality
Ġf inger
ĠAut o
ë¥´ ê²Į
Ġexperim ents
E xt
Ġencoura ged
ĠG a
st ep
ĠB ase
ol ving
Ġoper ated
Ġhost ed
Ġsh ots
Ġì¤ĳìļĶ íķľ
Ġpre ced
I ES
ĠìĤ¬ëŀĮ ìĿ´
ĠëĲĺ ìĸ´
ĠN one
Ġelectric ity
Ġë§Ĳ ìĶ
T ex
ĠYou Tube
ĠìľĦ íĹĺ
ì ¿
ig er
Ġmatch ing
ins on
Ġacc um
ë² ¨
ĠW AR
ers hip
Ġëħ¼ ìĿĺ
Ġenh anced
s f
ĠAir port
âĪ ¼
Ġed it
ĠStud ies
Ġrel ating
, -
b ury
Ġ19 70
ĠG al
ĠL em
Ġex it
B U
Ġdescrib es
ĠëĦ £
Ġìĥ ī
Ġì°¸ ê°Ģ
ĠIn it
ĠìķĦ ìĭľìķĦ
å ľ
ĠìķĬ ìķĦ
Ġphotograph s
ĠAtt orney
ont o
H el
ĠN C
Ġëĵľ ëŁ¬
ĠU lt
Ġë¦¬ ë·°
W ill
ĠG M
ĠC lean
-------- ----
íİĺ ìĿ´ì§Ģ
ĠTra ining
th m
Ġg ained
Ñ ĥ
Ġsur ve
ĠUn fortunately
d ot
Ġë ¥
Ġt one
ĠB ob
Ġë³´ ëĭ¤
è ¿
Ġm ouse
ĠìĦľë¹ĦìĬ¤ ë¥¼
se arch
Ġaddress ed
ëıĦ ìĭľ
ĠìĿ¸ íķ´
ìĿ´ ë²Ħ
" ),
Ġg au
ìĿ´ ìĿµ
IN D
ĠProfess or
iz za
Ġstr ange
ĠM ap
we b
ĠSte ve
Ġfocus es
Con nect
ad ata
ĠTe xt
ĠDis ney
ĠM ath
Ġd iversity
Ġìĸ´ë łµ
Ġinter active
Ġfun ny
æ ĺ
B R
Ġp itch
ĠH oly
crib ed
Ġsp ark
ĠBe aut
Ġdam aged
Ġpursu ant
Ġconven ience
ĠStand ard
F O
Ġbroad cast
Ġl ake
Ġaim s
Ġunc ertain
ra ge
G A
ĠSum mer
º ¼
ëıĦ ëĬĶ
t age
ĠL A
Ġíİ ¼
Ġposs ession
ĠìĿĺ ë£Į
Ġfil ing
Ġcert ification
ĠìĪĺ ìĿµ
ĠFor ce
un a
aw a
ĠSp ain
Ġ5 9
t ons
Ġpost ing
ĠC OM
G R
Ġg od
Ġstay ing
os ition
U t
Ġsp ray
Ġì°¨ ì§Ģ
Ġemail s
Ġì¡´ ìŀ¬
ĠK im
ĠD VD
Cont ent
Ġholid ays
ure au
Ġp ig
ate ful
Ġdra g
Ġjew el
ĠPr int
Ġiniti ative
Ġto mat
est ion
/ -
d ays
uck y
s pl
Ġì´ ī
. $$
Ġc ust
ëĿ¼ ë©°
Ġcol ours
st ore
Ġme ets
Ġg ram
Ġê²ĥ ìŀħëĭĪëĭ¤
Ġm ood
ĠR en
Ġvis its
ê ¼
Ġloc ally
Ġcl uster
ĠD O
ĠSe lect
ĠëĤĺ ëĿ¼
Ġorgan isation
sc reen
F S
Ġliter ally
Ġdep ression
ìľ¼ ëĭĪ
ER R
ĠCas ino
am il
Ġy ards
Ġbound ary
Ġapparent ly
ĠAs ian
inte rest
Ġen vironments
ìĨĮ ë¥¼
Ġless on
Ġre nd
Ġha z
Ġrespect ive
Ġscient ists
ĠìĿĮ ìķħ
Ġbook ing
ann a
ëĶ °
Americ an
D own
íĨ ¡
s ylvania
Ġas sembly
ĩ Į
Ġdrink s
ĠP A
Ġthous and
B ase
Ġcomput ers
Ġconv in
ĠR un
Ġop ens
Cl ient
Ġobserv ations
//////// ////////
íĶ Ī
Ġfocus ing
Ġroad s
Ġref resh
ĠKore a
ķ ħ
ĠìķĦ ëŀĺ
Ġíķĺ ë©´
m id
ĠEm ploy
Pro v
Ġg iant
ìĹĪ ê³ł
ou ston
Ġal ive
/ \
Ġaff irm
Ġreve al
Ġre act
or neys
ĠCath olic
ĠìķĪ ìłķ
Ġê² ¨
Ġce iling
Ġtri ps
Ġâ ĺ
Ġquant ity
d el
Ġp ocket
ĠSing apore
ĠM other
ĠìłĦ ìĭľ
Ġaccount ing
an es
Ġaccom pan
Ġfif th
Ġpoint ed
B ecause
Ġelect ed
Ġsens or
a fe
i ot
ĠJ ava
Int e
ĠB ul
D oes
M ar
Ġst ir
( {
o ir
Ġco at
Ġê°ĢëĬ¥ ìĦ±ìĿ´
Ġha ck
Ġdepend ent
ìĥģ íĴĪ
... "
Ġal umin
ë¶Ģ ê°Ģ
p ol
dim ensional
ĠY OU
Ġ199 3
Ġdec ent
ĠB ang
ĠS at
t arget
Ġìłķ íĻķ
ane ously
Ġscen ario
Ġcomple ment
Ġto ile
Ġspeak er
he ast
IL L
ind u
Ġmir ror
Ġconv iction
Ġestim ates
ut ter
Ġê±° ìĿĺ
s ervice
Ġë³´ ìľł
Ġsc rew
for ward
ĠS av
Ġ5 8
Ġprepar ing
Ġë¯ ¿
ĠPol icy
Ġë§Į ìĹĲ
Ġse ar
Ġtalk ed
Ġsupp liers
} )$
C OM
ĠO il
zon a
Ġl es
ott om
Ġpart ial
Ġê°ĸ ê³ł
Ġcab inet
ot ion
Ġdiv or
Ġsim ult
ĠSil ver
ro vers
ĠM att
ĠìŀĪ ê²Į
Ġint ellect
ĠM ethod
Ġvac c
Ġarriv al
Ġfore cast
Ġwat ers
2 50
ar ry
Ġê ¾¸
Ġcon vey
amp ion
ìłķ íķľ
ĠIn f
Ġ199 2
Ġfall s
ur ities
o ors
Ġper mitted
Ġpar allel
ask a
o ices
Ġre n
ìĽ ¨
ĠSw ed
200 6
ìĬ¤ ê°Ģ
rac le
ĠMount ain
Ġse eds
ĠW rit
Ġë¶Ģ ì¡±
ĠQue en
Ġr u
Ġalle g
ont al
Ġì§ĢëĤľ ëĭ¬
V ersion
Ġì¡° ì§ģ
Ġsuff er
ĠAdminist ration
Ġt ape
Ġarg ue
d isc
Ġbu nd
Ġcontroll er
ĠE gypt
f ont
M ethod
ĠS ales
Ġsign als
Ġh oles
f rame
Ġclass ical
Ġord inary
Ġob st
Ġdi abetes
Ġb aking
og y
Ġeng aging
Ġv oc
iat ric
Ġcompos ite
od ed
ìĨĮ ëħĦ
row s
ir al
non umber
ĠK ent
ound ed
Ġgent le
Ġb ills
ĠìłĦë¬¸ ê°Ģ
Ġre ferences
Ġf est
ĠM ic
Ġíķľ ë²Ī
. (
ath y
Ġlapt op
Ġall erg
Ġident ification
ë¦¬ ì§Ģ
Ġ5 7
G o
j son
m o
ian ces
Ġë³´ ê¸°
Ġen abled
ĠëĤ´ë ł¤
ê³Ħ ë¥¼
h ar
ìĿ¸ íĦ°ëĦ·
Ġdynam ics
Ġfall ing
ëĶĶ ìĺ¤
Ġde eper
Ġê¸° ëħĲ
ĠK itchen
ìĥĿ íĻľ
Ġadvant ages
Sim plify
íķŃ ê³µ
ë¨¸ ëĭĪ
Pe ople
Ġìŀĳ ìĦ±
at al
Ġstri ke
ot imes
ĠìĿ¸ ê°Ħ
Ġend ing
ĠCl oud
Ġadequ ate
ĠP op
xy gen
s pecific
Ġpl as
r l
Ġëı ¼
Ġë¹Ħ íĮĲ
S ON
Ġany more
Ġdeb ut
ĠMus lim
/ **
Ġcorre l
ìĽ ł
Ġunus ual
Ġeng ines
com mon
he ight
Ġguarant eed
Ġcon sole
ou ble
Ġfac ed
ak a
H A
Ġr ising
Ġch airs
ra ctions
ĠHe art
Ġmat t
ìĦ Ń
Ġyour s
Ġs ed
ad ium
e als
ĠH arr
Ġsubst ance
Ġtarget s
ch ron
Ġrepresent ing
ĠG irl
V C
if ting
Ġle ase
Ġì£¼ íĸī
ĠDes pite
Ġc ock
ost ic
Ġpol ar
Ġdetect ed
Ġp ounds
ĠMach ine
ìĤ¼ ìĦ±
Res ult
ĠE astern
ĠEn joy
Ġ0 2
ant ly
d em
Ġëĵ± ìŀ¥
b ro
ĠE ss
Ġrev olution
s en
ìĬ¤ ìĿĺ
Ġìĭ ¸
ĠC reate
Ġattempt s
Ġexplan ation
ĠìĿ´ ê²ĥ
Ġt act
Ġdra in
Ġre ct
Ġab andon
ĠA wards
Ġcol on
Ġspeak ers
ĠSt one
t ain
ĠStud io
cript ions
ĠìĪĺ ìŀħ
Ġcat alog
Ġaccommod ation
iction ary
Ġinst itution
Ġor ange
n ull
ell ar
y es
Ġint ense
D et
Ġê¸° ê´Ģ
íĸĪ ì§Ģë§Į
u um
Ġim per
Ġla id
Ġcolle agues
Ġdownt own
Ġto ler
Ġb at
G M
1 20
R ep
H D
st d
Ġë³¸ ê²©
ern el
ut en
Ġmechan ical
p ng
Ġdispl ays
= &
Ġthe rap
ap ache
ìĿ´ ìħĺ
Ġm ath
Ġcar pet
Ġattend ing
Ġcr ash
Ġfra ction
Ġrepe at
Ġm ask
ap se
Ġf ing
Ġsup ra
íĺĦ ëĮĢ
ë¥´ ê³ł
1 000
ĠE ff
ĠPenn sylvania
Ġser vers
Ġhead ed
ĠëĮĢíĳľ ëĬĶ
Ġë¹Ħ íķ´
S igma
aw s
Ġg ym
Ġassign ment
Ġdesign ers
Ġequ ations
Ġopin ions
Ġg aming
Ġtime ly
ĠMed icine
Ġun expected
Ġhard er
Ġch ampions
Ġju ice
man n
ê¸° ìĿĺ
Ġdim ensions
ick et
ë§Ī ì¹´ìĺ¤
fra id
Ġopt ical
ë¡ľ ëĵľ
Ġt ro
ov es
Ġge nder
Ġleg it
Ġb ab
ps on
æ Ī
ëĮĢ ìĹĲ
Ġh its
riv ing
ĠBl og
Ġd uties
ĠS us
ist ed
ĠA ction
M B
Ġfail s
In put
Ġf lying
Ġë¨¸ ìĭł
ĠìłĦ ìŀĲ
Ġsc reens
em ed
ĠìĪĺ ìļĶ
ĠB ased
Ġ6 6
Ġpromot ion
ĠF riend
Ġnight s
ĠSt ation
Ġpack ed
We b
Ġwond ering
Ġt ort
ê³¼ íķĻ
Ġìłľ ê¸°
ĠV ideo
Ġcan cell
Ġa fraid
Ch ar
as hes
ĠO K
Ġíĳľ íĺĦ
ë° ĸìĹĲ
íķĺ ê²łëĭ¤
ĠíĺĦ ìĭ¤
Ġhop es
ĠM ah
Ġmist ake
Ġhead ing
Ġdeliver ing
Ġê° ĳ
Ġrob ust
Ġspect ac
ĠìĬ¬ ë¡¯
ĠìĿ´ëŁ ¬íķľ
ĠíĶĦ ë¦¬
ĠìļĶ ì²Ń
OD E
Ġíĺģ ìĭł
Ġl oose
ĠìĤ¬ ë§Ŀ
ious ly
Ġexec ution
ĠE V
ëĲĺ ìĹĪëĭ¤
Ġdoll ar
Ġexpl oring
ĠProfess ional
ìº Ĳ
Ġs outhern
íĬ ¼
ric ulum
ĠêµĲ ì²´
ìł Ŀ
Ġst ood
ĠëĤĺ ëĬĶ
ad el
$ {
Ġad mission
Ġm ild
AS E
Ġvolunte er
con f
Ġs ke
d at
Ġsurf aces
Ġexpand ed
Ġâĸ ¶
E ng
ĠI L
ĠO pt
Ġregul atory
Ġloss es
cl ient
ĠT y
Ġc ul
en ess
________ ________
ĠìĺĪ ìĤ°
Ġent ries
c up
le m
ë¶Ģ ìĤ°
Ġcons erv
ĠSte el
Ġy oga
ĠPak istan
ac on
ĠMod ern
Ġdiscuss ions
ê²ł ëĭ¤ê³ł
ìĿ´ ê¸°
Ġre fe
. -
F inally
_{ {\
ĠAg ency
f old
Ġë°° ìļ°
Ġcur rency
Ġê¹ ¨
l n
Ġchild hood
Ġsatisf y
clus ions
op l
Ġre produ
Ġhas n
ĵ ¨
ĠBrit ain
ater n
Ġg ran
Ġpub l
Ġn ob
ëĭĺ ìĿĺ
Ġmed ication
ê·¸ ëĬĶ
Ġwat ched
ĠSen ate
ĠF REE
Ġinvest ments
Ġas p
ĠSt an
Ġadv ent
Ġprodu ces
. ;
Ġcomp rom
Ġb rid
ĠSaf ety
B T
mod ule
Ġpr ide
ëł¤ ê³ł
Ġìłľ ìĻ¸
Ġì¹ľ êµ¬
ĠH ence
ugh t
ĠQ uality
Ġê°Ģ ê¹Į
Ġover look
Ġgener ic
b led
ĠìłĦ íĻĺ
Ġne uro
Ġro ots
Ġdis order
Ġë£ ¨
ëŀ« íı¼
C ar
ĠëĮĢíĨµëł¹ ìĿĢ
Ġacknow led
Ġceremon y
Ġparticip ating
T D
ĠG reek
ĠPr ime
ĠWith out
ëħĦ ìĹĲ
Ġê²Ģ ìĥī
ĠS ky
ĠIr ish
ĠS enior
Ġë°Ľ ìĿĦ
ĠF ac
Ġa er
Ste p
ĠCount ry
iz z
om orph
ìĵ °
Ġì¡° ìĦ±
Ġcry pt
ad or
ĠA venue
ĠAm end
ì¼Ģ íĮħ
but ton
Ġagg reg
ever al
ĠR od
Ġpray er
Ġcompat ible
Ġf iber
Ġb ands
ĠLear ning
J ohn
Ġcoun cil
Ġbuff er
" ]
ĠT aylor
Ġequ ity
ĠH P
ëĭ· ì»´
er k
ath an
Ġconsist ently
Ġdifficult y
il ation
ì£¼ ìĭľ
Ġìĩ ¼
vis or
Ġìłľ ì¡°
Ġflow er
Ġens ures
act eria
Ġsy nd
ĠIde as
íĺ¸ íħĶ
Ġsk illed
ĠëĮĢ íĺķ
Ġle af
Ġad min
Ġra ising
Ġê·¸ ëĥ¥
ram ework
Ġinvent ory
Ġìĺģíĸ¥ ìĿĦ
ìĿ´ ë¸Į
ìŀĲ ìĻĢ
Ġweap ons
ĠOr ig
Ġins ights
Ġ6 3
ê² ¼
Ġres on
Ġanal ys
ĠìĪ ¨
ĠíĽĦ ê¸°
Ġout er
p ower
Ġbul k
om atic
h our
Ġneut ral
all ow
Ġê³µ ìĹ°
Ġcut s
Ġìĺģ ìĥģ
íķ µ
Ġimpl ied
ĠCh ild
Ġworksh ops
Ġshould er
ch ain
Ġv intage
ĠSt ock
ĠD ar
if er
ìħ ľ
êµŃ ë¯¼
Ġvel ocity
i ations
Ġtourn ament
Ġbo ards
ĠìĤ¬ ë¡Ģ
Ġë¯¼ ì£¼ëĭ¹
Ġb unch
ê°ľ ìĿĺ
ac ent
in ator
ĠC ru
ĠM D
ĠI V
ĠH old
íģ ´
k ind
Ġcheck s
Ġ199 1
Ġsp an
ure r
Ġsubs id
Ġíķł ìĿ¸
But ton
ìĿ´ ì§Ģë§Į
Ġlov ing
d ney
Ġë§Į ëĵł
s d
} -
ĠR h
am ine
Ġr anging
ra q
Ġput s
ĠB ath
íĺĦ ìŀ¬
Ġr iding
Ġê°Ĳ ìĹ¼
msg id
N U
Ġi OS
Įĵ ê¸Ģ
w orld
ĠíĺĲ ìĿĺ
Ġí į¼
Ġìłľ ëĮĢë¡ľ
Ġìļ° ìĦł
Ġ ç
msg str
Ġimpl ies
Ġcont rovers
Ġhe s
Ġse es
ìĹħ ê³Ħ
ru g
ìłĦ ë¬¸
i ology
ĠTh ink
or ous
ä¸ Ģ
c f
ĠD rive
Ġpar agraph
Ġê³µ ê°Ĳ
Ġdecl ine
Ġrelig ion
ĠColumb ia
Ġth reshold
íļĮ ê°Ģ
Ġhe ll
ĠAri zona
Ġche st
in ant
Ġë¶Ģ íĥģ
ĠìĿĺìĽĲ ìĿĢ
ĠApp eals
Ġëį §
R ANT
con text
Ġê¸° ëĭ¤
ĠF oot
ĠìĤ´ ìķĦ
ĠPro perty
áĦĴ áĦĴ
Ġsp at
Ġ Ì
ë¹Ħ ë¥¼
f ind
Ġpack aging
on al
200 5
v it
G C
Ġview ing
Ġinstru ments
ìĹ ĺ
íķĺ ëıĦë¡Ŀ
ìłľ íĴĪ
(\ [
U ST
ê·ľ ëª¨
Ġag ed
. âĢĻ
St ud
rape ut
ĠP S
Ġthem es
im p
ĠHen ry
1 10
p ool
Ġíĥ ĳ
ëı Ī
ìĬ ·
ĠS E
ĠBra nd
ĠHel p
ĠëĤ´ë ¶Ģ
Ġimportant ly
ìĽĲ ìľ¼ë¡ľ
Ġfarm ers
ac c
ĠìĬ¤ íı¬ì¸ł
ë¦¬ ì¦Ī
hes is
íķĺ ìŀĲ
le ep
íĸĪ ìľ¼ë©°
ĠPer haps
che ster
Ġdis ability
ì¤ĳ ìķĻ
ĠíĻķ ì§Ħ
ëĵľ ë¦½ëĭĪëĭ¤
is dom
Ġinst ances
Ġload ed
Ġt ile
Ã ¢
Ġbr ush
Ġìķŀ ìĦľ
Ġimm une
Ġrec ruit
Ġkn ock
ĠCustom er
Ġh ate
Ġprote ins
Ġìĥģ ëĮĢ
Ġl oyal
b ow
Ġopp osed
im g
ê±´ ìĦ¤
Ġaim ed
' (
ĠV ersion
ĠP ur
Ġìĸ´ë ĶĶ
et he
Ġf ranch
ë¯¸ êµŃ
ol t
Ġrep airs
ìĿ¼ ìĿĦ
gra de
ëįĶ ëĿ¼ëıĦ
Ġprofess or
Ġmatt ress
Ġdeep ly
bur gh
cle ar
ĠRad io
Ġìłľ ì¶ľ
Ġì§Ģ ì§Ģ
Ġacqu ire
ĠëĲ ©ëĭĪëĭ¤
Ġh oney
Ġ6 2
let ter
Ġinspe ction
unicip al
ĠìĽ Ģ
ìłķ ìĿĢ
re ation
Ġremov ing
Ġcreat ivity
ìļ´ ëıĻ
Ġë§Ī ì§Ģë§ī
Ġíķ© ìĿĺ
ë³´ ê¸°
Ġb its
pt on
com fort
Ġí ĩ´
Ġwant ing
AT A
Ġl iver
ĠCon c
inst all
vious ly
ams ung
ĠR o
Ġflo ors
Ġpri ze
Ġevalu ated
íħ į
Ġb in
áħ ®
N umber
ê³ ¤
ĠR ou
Ġstay ed
Ġtarget ed
Ġcal m
ĠíķĺëĬĶ ëį°
Ġdevelop er
Ġë¹ ¨
Ġperform ances
ord an
pl ing
ĠV iet
ĠO x
} +
Ġìłľ íķľ
Ġinfl amm
íķĻ ìĥĿ
Ġprocess ed
Ġê³µ ê³µ
lim ited
h r
Ġpromot ing
ĠHam ilton
Ġse asons
Ġsc ulpt
c ies
ĠWe bsite
Ġt ired
}} {
ck er
ëł Ľ
ĠâĢ ¢
ot es
Ġident ical
Ġstat utory
ĠMem bers
ĠBe ing
s in
C urrent
ĠíĻķ ìĤ°
ĠìĹħ ê³Ħ
ë¨ ¹
ëĭĪ ìĬ¤
Ġc ogn
l ined
ĠH R
Ġgen es
ĠCap ital
Ġëħ ¹
ict ions
Ġsole ly
íķĺ ìĺĢëĭ¤
ëłĪ ìĬ¤
ĠC ro
enn y
F IG
[ ^
Ġw estern
y al
ot ive
Ġìµľ ì¢ħ
Ġë°Ķ ëŀĮ
Ġt ons
Ġrequ iring
Ġtri als
Ġcam eras
O pen
Ġpaint ed
Ġemerg ing
Ġsk i
A ction
ĠìĿ¸ ìĪĺ
áħ² áħ²
$ )
ell ite
Ġcele bration
Ġì¹ ´ëĵľ
M ark
ĠFore st
Ġreason ably
ĠG P
ìľĦ ìĹĲ
Ġenthus i
Ġgra b
o op
ibr aries
ab ling
Ġdif fer
Ġemb ed
ish ment
M on
Ġobject ives
g reg
Ġsafe ly
Ġíĸī ìłķ
Ġnurs ing
Ġin quir
Ġemploy ers
ĠChe m
Ġres ident
Ġìµľ ìĨĮ
Ġê°ģ ì¢ħ
Ġh ide
ìĹħ ìĿĦ
Ġsoph ist
Ġb old
Ġtrans lation
ĠN atural
cl ick
Ġìĭ¤ ìłľ
ĠBro ad
Ġtit les
ĠApp lication
Ġì£¼ íĥĿ
Ġelim inate
Ġp atch
Ġn orthern
Ġenc ounter
ĠCh apter
Ġw aves
Ġh ub
Ġatt itude
Ġsuppl ied
ĠëĤĺ ìĦľ
Ġì²Ń ìĻĢ
Ġassum ed
out put
ĠëĪĦ êµ¬
m ethod
ĠCon f
re quest
ĠTe le
ste in
ĠS QL
es ides
Ġso fa
ë¹ ł
Ġstain less
Ġmechan isms
ĠHol ly
Ġbro ke
sc he
eng ers
ol is
Ġtag ged
ĠS em
ìĿ´ ìŀĲ
ĠAL L
M at
Ġdesk top
ĠB E
aly t
Ġposs ibilities
Ġw ise
ĠB ell
c our
ĠC T
ê·¸ëŁ¬ ëĤĺ
ìłĢìŀĳê¶ĮìŀĲ c
Ġmeaning ful
ĠSt ill
Ġn an
crib e
Ġab ilities
ĠëĨĴ ìķĦ
ĠF red
ĠìĨĮ ìŀ¬
Ġmus cles
A g
ì£¼ íĥĿ
Ġfr ustr
r ons
pl ant
Ġthe oret
Ġover come
Ġmount ains
ì¶ľìŀ¥ ìĥµ
an while
Ġì¡° ìĦł
c p
ìĺ¤ ëĬĶ
Ġì¤ĳìĭ¬ ìľ¼ë¡ľ
ìĸ´ë ³
Ġapprec iated
Ġassist ant
Ġad mit
Ġcas ual
Ġphilosoph y
Ġple asant
Ġser ial
ĠThe orem
ab eth
Ġwere n
Ġt ie
Ġê°Ģ ì¹ĺ
Ġíķľ ëĭ¤ëĬĶ
ĠDav is
Ġvictim s
Ġquot es
Ġtransfer red
re nd
ĠUn ivers
Ġsitu ated
ĠL ew
ĠPerson al
ĠìĹ¬ ê¸°
ĠL i
Ġmoment um
Ġun p
Ġexam ined
Ġexp ense
Ġëĭ¬ ë¦¬
pack age
IV E
u z
Ġobs erve
* ,
Ġinteg ral
i ating
ĠìĦ¤ ë¦½
Cont roller
ar ation
Ġorganis ations
Ġhy brid
Ġ[ [
ition er
M ax
ĠìĿ¸ íĦ°
Ġra cing
Ġfew er
ĠW ould
Ġmat hemat
Ġê·¸ ìĿĺ
or ic
ìŀĲ ìĹĲê²Į
ĠMin istry
ord inary
? )
ay out
Ġheav ily
Ġdes ce
Ġstruct ural
Ġpenal ty
Ġë²Ī ì§¸
Ġm i
Ġë²Ī ìĹŃ
r us
L a
Ġvir us
Ġemot ions
in ery
ay a
u ana
Over ride
ĠC reek
Ġfrequ ent
med iate
Ġacquis ition
Ġs hed
Ġìĭ¤ ìłģ
th rough
Ġsudden ly
Ġsu ite
Ġgra ce
ĠëĮĢ ìĭł
int on
Ġshap es
ĠT enn
Ġì¶© ë¶Ħ
Ġle gend
u an
Ġr uling
Ġamong st
ĠTr ue
Ġutil ize
Ġg amb
Ġauthor ized
ĠR ail
M in
ĠA st
ĠëĲĺ ê³ł
au x
200 4
ĠìĿ¸ ëıĦ
ĠìĿĢ íĸī
Ġt ube
ĠWord Press
ĠVe gas
ĠB ridge
U nder
ne xt
ĠPro du
Ġs od
Ġpurs ue
Ġdisp ute
ëħĦ ë¶ĢíĦ°
ìŀĲ ë¦¬
Ġgr ateful
íĸĪ ëĬĶëį°
ĠD og
T ake
ow a
ëĲĺ ë©´
ëŁ¼ íĶĦ
mer cial
Ġse am
othe rapy
ur ious
Ġman ip
reg on
ĠìĤ¬ íķŃ
ë¬´ ë¦¬
st atus
b u
Ġbu g
Ġì½ĺ íħĲì¸ł
Ġsq rt
St atus
ĠE state
Ġpre jud
Ġdur able
Ġ6 8
er ior
ac her
Resp onse
Ġun iverse
un ct
Ġëĭ¬ ëŁ¬
å Ń
ĠL as
Ġinter vention
Ġret ain
nab la
Ġcorre lation
ĠT reat
elle e
s ized
Ġë°© íĸ¥
Ġent ert
Ġch a
W S
ĠK ong
P age
Ġë°© ì¹¨
Ġfl ags
Ġrare ly
Ġê³µ ìľł
L Y
N OT
Ġh ung
ul in
ur se
Ġproduct ivity
Ġconnect ing
ĠTor onto
Ġde leg
íķĺ ëįĺ
M em
Ġë¶Ģ ëıĻìĤ°
on ents
Ġpil ot
d ots
ip her
Ġco e
Ġì£¼ ëª©
ru p
Ġhead er
per t
Ġw ins
Ð° Ð
Ġh anging
ìķ½ ìĿĦ
ĠProduct s
ì´ ī
ìŀ¥ ìľ¼ë¡ľ
room s
ìłĿ íĬ¸
Ġcount s
: \
ë¡Ń ê²Į
ĠR ub
w id
it ate
ĠI raq
Ġë¡ ¯
ĠëĮĢíķľ ë¯¼êµŃ
Ġrece ipt
Ġrest ore
ë§ ¹
`` `
ìĹĲ ìĦł
ĠìŀĲ ê¸°
im a
Ġbl ind
sh ow
ĠìĿĺ íĺ¹
ĠC it
Ġam en
ìī ¬
Ġì§ ķ
ìĿ¸ ê°Ģ
Ġë° ¤
Ġdecre ased
ĠCont in
Ġs en
ì¤ĳ êµŃ
sem ble
s ur
Ġrece ption
ĠU r
Ġê² ª
ĠLim ited
Ġdef ic
7 00
ë¬¸ ìĿĦ
Ġh iring
# :
ìĬ¤ íı¬ì¸ł
ĠìĤ¬ ë¬´
ëĭ ī
AR E
Ġsm oke
Ġc ush
ĠH TML
ä¸ Ń
el a
ĠìĹĨ ìĸ´
Ġ1 30
Ġê·¸ëŁ° ëį°
ì¹ĺ ê³ł
Ġover se
Ġtherm al
w ich
str ong
Ġimp ression
Ġì£¼ ìĭĿ
Ġs orry
Ġscreen ing
Ġsac r
Ġpregn ancy
ett ings
ĠëĤ´ ê°Ģ
Ġiniti atives
ĠMill er
ĠìķĬëĬĶ ëĭ¤
ë¡ľ ìĦľ
200 1
ãĢ ģ
Ġcor n
ĠìĿ¼ ìĿ´
ĠB a
Ġíģ ´
Ġìłķë¶Ģ ê°Ģ
Ġwe igh
Ġc otton
Ġround ed
i ag
Ġdis ag
p aper
Ġdriv es
ĠV ar
Ġìļ° ìĪĺ
ĠCar l
C opyright
ì§Ģ ë°©
Ġíķ´ ìĦľ
ĠI ce
swe red
p df
ĠìĹŃíķł ìĿĦ
Ġì ª½
t ail
ĠëĮĢíķ´ ìĦľ
ĠìĪĺ ìĤ¬
Ġê° Ŀ
ĠLe vel
Ġref ers
pl us
ĠScot land
AC E
Ġscen es
) âĢĻ
Ġev ident
ê³Ħ íļį
R O
ĠSc he
Ġinv ite
ĠN umber
Ġì²´ ê²°
sm all
Ġrestrict ions
ĠìłĦ íĻĶ
ra ys
ĠG ro
clus ively
Ġb ran
Ġl oud
ĠC M
h op
ë§ ŀ
Ġn odes
Ġsh irt
Ġu l
Ġoper ational
act s
Ġclick ing
Ġw ake
Ġrepresent atives
iz ations
ì°¨ ëĬĶ
Ġê¼ Ń
Ġres erve
ĠEx am
b age
Ġmole cular
Ġaccommod ate
B B
ĠVill age
ĠìŀĲ ìĦ¸
ĠO ak
Ġì¢ħ íķ©
Ġë¡¯ ëį°
Ġbuy er
c in
w art
Ġsol o
íľ ĺ
ĠìĹŃ ìĤ¬
Ġed iting
e z
N O
Ġr ational
Ġê¿ Ī
\ !
ĠN ick
Ġwork place
e ven
Ġìī½ ê²Į
Ġdecl ared
Ġì°¸ ê³ł
Ġlog ic
C F
ic ide
Ġrad iation
iam i
Ġinvolve ment
Ġgraph ic
Ġë¹Ħ ìĬ·
Ġcomp ly
Ġgold en
hy d
Ġp ipe
ĠëŁ¬ ìĭľìķĦ
ne cess
Ġad verse
Ġd ad
Ġmem b
az a
ĠíĿ Ĳ
} /
ĠEx press
Ġarg ued
im m
ĠP sych
ĠK at
Ġvisit or
Ġtem plates
ë ®¤
Ġcorpor ation
Ġhigh lights
ĠF all
Ġst em
ĠMot or
Ġh ors
ìķĦ ìļĶ
ëŁī ìĿĦ
æ Ŀ
Ġëŀ ľ
am i
ĠS quare
m atch
íĸĪëĭ¤ ëĬĶ
Ġgen etic
Ġ$ {{\
r r
ĠR and
Us ing
T F
we et
é ĩ
ĠL atin
ĠìłķëıĦ ë¡ľ
call ed
el ve
ĠH ouston
Ġhome own
Ġ6 7
ĠSy dney
Ġindu ced
Ġo xygen
Ġcampaign s
Ġco aching
Ġtr ash
Ġf ounder
Ġê¸° íļį
ĠìĿ´ë ģ
OR E
Ġë§¤ ìĿ¼
Ġdang er
Wh o
L ike
ĠN a
ë§Į íģ¼
Ġnewsp aper
ĠìŀĪ ê¸°
íĨł íĨł
Ġind oor
EX T
ĠGall ery
d on
Ġìľł ëªħ
Ġbreak s
ĠE mp
ĠìĦ± ê³¼
d ers
ĠL uc
at ers
m aster
Ġê°Ĳ ëıħ
ëĬĶ ì§Ģ
Ġëį§ ë¶Ļ
Ġsurv ive
Ġcool ing
íķĺ ëĭ¤ëĬĶ
Ġreg ime
Ġatt orneys
id ity
R ed
Ġarrest ed
ĠêµĲ íĨµ
Ġass ault
Ġê³¼ ê±°
Ġê³¼ íķĻ
ìĿ´ ìļ©
ĠíĨµ íķľ
Ġ198 9
ê°ķ ìĽĲ
ĠNe ed
Ġredu ces
T em
Ġh int
Ġdesign ated
Ġre hab
f ire
ìĭĿ ìĿ´
p res
ĠH ong
ĠL at
ĠVal ue
\ |
u ate
ĠìĿ µ
Ġ0 9
in yl
Ġb ass
ê° Ĵ
Ġbre ach
es is
Ġcolle ctions
ìľ¼ë¡ľ ìį¨
Ġefficient ly
íĬ ľ
Ġtrust ed
an th
Ġagree ments
íĶĮ ëłĪìĿ´
ĠV en
ust ration
un es
Ġd ies
Ġpassion ate
ĠSh ort
Ġë¬¸ ìĿĺ
EM AIL
íĺ Ī
Ġan swered
Ġb acteria
ĠëŃ Ĳ
Ġclub s
Ġê°Ģ ì§Ħ
T N
Ġb ub
Ġnut ri
part y
Ġbed s
ìŀĦ ìĿĦ
ë¹ Ī
Ġexpl o
ert y
Ġback up
ìłĲ ìĿ´
ĠInd eed
ĠëĨ Ģ
Ġp airs
ĠG L
ìĹĪ ëĬĶëį°
ìĦł ê±°
Ġstreng then
Ġann iversary
Ġ18 0
Ġcar rier
ìĽĮ íģ¬
ĠS pr
( [
Ġnetwork ing
Ġab stract
ĠìĽĢ ì§ģ
Ķ ìĬµëĭĪëĭ¤
Ġpat io
Ġdis orders
ĠC ore
Ġact ively
ĠW elcome
Ġprof iles
b ell
ĠR om
Ġinterview s
ë§ ¨
Ġsome how
ĠCol l
ĠPhil ipp
ë³ĳ ìĽĲ
all as
y les
Ġsl ots
ĠC apt
le e
âĢ² âĢ²
Ġadv ised
Ġì¢ Į
Ġwork er
Def ault
ĠR ound
Ġw ider
ĠCol lection
ìķĦ ìĦľ
Ġb io
ĠRem ember
ì§Ģ ì§Ģ
Ġmod es
in als
Ġ[ ]
Ġ* )
Ġint ensity
) =\
Ġde let
Ġver ify
ars er
Ġphys ician
Pro ject
L oad
Ġintellect ual
Ġplug in
ĠWil son
t ag
ĠB ern
Ġíĺķ íĥľ
erv ing
n om
Ġpat ent
ĠK h
Ġ19 60
Ġint ra
ĠìĤ¬ëŀĮ ëĵ¤ìĿ´
Ġêµ¬ ê¸Ģ
ĠProt ection
Ġ9 8
st op
Ġg rey
ĠìĦł ìĪĺ
Ġìŀ¥ ê¸°
Ġmist akes
ĠE mer
ĠíĶĮ ëŀ«íı¼
Ġrep ly
ĠWAR RANT
v ard
ĠStr ateg
are t
ĠA z
Ġt u
ĠU k
Ġsure ly
Ġëĵ £
S ty
Ġ6 1
Ġ9 6
ric es
ì» ¬
ĠëıĻ ìĭľìĹĲ
Ġab road
Ġl y
irt ual
ĠíĻį ë³´
i y
ĠíĹ Į
Ġfacilit ate
Ġê²ĥ ìĿ´ëĿ¼ê³ł
eth yl
Ġbedroom s
Ġshe ets
Ġref used
Ġelse where
Ġsur ge
Ġofficial ly
Ġë Įĵê¸Ģ
Ġev il
app end
Ġwhe els
ìľ¼ë¡ľ ëĬĶ
ä ¹
ìĻĢ ìĿĺ
it ches
! âĢĿ
Ġattempt ed
ĠH appy
ĠìłĦ ëħĦ
Ġìŀħ ëĭĪëĭ¤
pro ject
eff ective
re ts
Ġv enture
ib l
Ġcompet e
Ġpass es
ob j
Ġal arm
app rox
Ġsmart phone
í ĵ¨
Ġoption al
Ġref rig
Ġintegr ity
ĠE th
Ġm ice
ìĭ ¸
ìĬ¤ ëŁ¬
Ġëª¨ìĬµ ìĿĦ
Ġdesign ing
L D
ĠíĿ Ķ
the re
Ġisol ated
ĠìĪĺ ìĥģ
ĠP ow
ĠAnn ual
ì² ´ëĵ¤
r itten
ĠP rivate
ĠGold en
R el
Ġim aging
200 3
ì¹´ì§Ģëħ¸ ìĤ¬ìĿ´íĬ¸
Ġëĭ¤ ìļ´
20 20
ĠPart ners
ìŀĲ ëĵ¤ìĿĢ
Ġauthent ic
bour ne
Ġfloor ing
ìĭľìĬ¤ íħľ
ĠGu ard
Ġê·¸ ëĮĢë¡ľ
tem plate
Ġchar ity
d oor
Ġëĭ´ ëĭ¹
ĠS W
Con st
. /
Ġf t
aw are
ĠT oy
Ġst om
f ers
Ġexerc ises
ĠíĻľ ìĦ±
Ġê°Ļ ëĭ¤
Ġn erv
ĠëĬĲëĤ Į
v ol
ĠS ale
Ġsett led
on ut
P ol
ĠR s
æ Ĺ
Ġpro x
Ġbank ing
Ġcooper ation
Ġcon sec
Ġheart s
Ġìĸ´ë¦° ìĿ´
ìĿ´ íģ¬
ìĿ¼ ë³¸
Ġlet ting
Ġfin est
Ġex terior
Ġë¯¼ ì£¼
ª ħ
ë°© ìĨ¡
i ro
ĠA G
ous es
des cription
Ġroll ing
Ġinvestig ated
ĠR on
Ġapp ell
ĠìĬ¤ë§ĪíĬ¸ íı°
ë¦¬ ìĿĺ
Ġê´ĳ ì£¼
Ġinvest ing
Ġê¸Ī ìķ¡
Ġê°ľ ìłķ
íĭ ±
im ents
m n
ĠF ox
íķĺ ëĭ¤ê³ł
Ġtum or
ĠLin ux
Ġadvert ise
Ġìļ°ë¦¬ ëĤĺëĿ¼
9 00
Ġsty lish
EL L
ë¶Ħ ìĿĺ
ev in
> ,
nes ota
íĪ¬ ëį°ìĿ´
Ġprodu cer
Ġf ed
Ġem ission
ĠTrans port
ìŀ¬ ìĿ¸
ë² ¤
Ġjewel ry
ëŀ įëĭĪëĭ¤
ĠF re
Ġvirt ually
Ġport able
Ġ âĢĻ
ê²½ ê¸°
ĠFil m
Ġbet a
ym ph
Ġunivers ities
ì§Ģ ë¡ľ
Ġmove ments
Ġsupp lier
ĠD am
Ġvol tage
Ġê·¸ëłĩ ê²Į
ĠO nt
ĠF A
Ġlab els
m g
Ġg otten
Ġcur riculum
ĠìĦľ ë¡ľ
Ġur l
Ġstrugg ling
Ġìŀ Ķ
ch ild
itud es
Ġë¶Ħ ìľĦ
Ġs our
iz abeth
å į
Ġpres um
Ġì° į
qu ire
Ġíĺ ľ
ĠCons ider
Ġcal culate
Ġv ice
S earch
ut able
Ġobl igation
ë³µ ì§Ģ
Ġst amp
Ġse ctors
ic ular
* /
ra nd
Ġë°ĺ ëĮĢ
ĠëĮĢíĨµëł¹ ìĿ´
Ġvar iation
ache lor
St r
p a
ĠC ome
ìļĶ ìĿ¼
Ġtal ented
Ġì» ´
Ġmod ules
Ġìłķë³´ ë¥¼
Ġdat as
Ġac ute
ĠArch itect
ĠB and
Ġexperien cing
Ġhyd ro
ĠStud ent
ĠCont ent
íĨµìĭł ìĤ¬
Ġì§Ħ ì¶ľ
ë¦° ëĭ¤
Ġfram es
ĠA V
ass es
t ab
F M
AR D
ĠEx p
Ġb oss
Ġprecise ly
Ġoppos ition
ìĩ Ħ
Ġcapt ured
µ ìħĺ
Ġemphas is
ëĮĢ íļĮ
Ġdevelop ments
Ġarrange ments
Ġfab ulous
or i
Ġfail ing
Ġa est
Ġact or
Ġor th
Ġconst itutional
Ġdist urb
D irect
Ġê¶ģ ê¸Ī
ĠëĳĲ ê³ł
F OR
\] ).
us et
book s
ĠíļĮ ë³µ
Ġen zy
Ġspectac ular
ĠëĤ ©
ì½ ¤
ĠEx change
ì§ Ŀ
Ġhost s
UL T
s uch
ĠO regon
ĠB C
Ġad opt
Ġpe pper
Ġmet ers
fl oat
íĺĦ ì§Ģ
P ack
ë¹ Į
g ree
ĠM ember
ĠR yan
olog ists
Ġspecial ized
Ġcontract or
Ġc her
Ġmin ister
it o
ĠM u
Ġëıħ ìĿ¼
Ġinc ent
** (
oun ge
rop ical
Ġtre m
Ġremark able
a ft
ĠëĮĢ ìĦł
Form at
ìľĦ ëĬĶ
ST R
}} }
Z E
equ iv
Ġëĭ¹ ìĭł
ĠAr m
Ġatt ribute
ol i
Ġe lder
Ġdis abled
ĠI C
\ {
av ed
Ġuns igned
ser ver
Ġign ore
onym ous
ile y
Ġtem por
O per
mark et
ĠI mm
Ġrub ber
ĠC ub
ĠF ollowing
Ñ ı
dis play
Ġìĺģ êµŃ
ëĵ¤ ìĹĲ
Ġv ine
Ġsc ar
ĠíĺĦ ì§Ģ
l oc
ro ot
ĠSU V
Ġë¬¸ìłľ ë¥¼
ij uana
Ġ7 8
Ġ7 7
ist a
ĠH ig
Ġcomplex ity
Ġgau ge
ad er
Ġhar vest
old s
Ġwr t
ãĢ į
Ġsurround ed
ĠD ue
Ġwor ship
ĠCons ult
Ġch ip
Ġmind s
ĠìŀĪìĸ´ ìĦľ
Ã ¨
Ġterm inal
L ear
Ġgovern ments
Ġ198 8
or ate
Ġexec uted
st ic
Ġì¹´ íİĺ
Ġthere by
++ )
íĨ ¤
Ġcl ust
Ġph osph
ĠAssist ant
ìĸ´ë ĵ¤
g iving
y o
ĠComput er
Ġplace ment
v o
um my
Ġo ught
Ġcontrib uted
T T
ìĭľ ê³ł
ĠG R
Ġentreprene urs
ĠPr inc
Ġì¤ĳ ëĭ¨
¬ ìĺģ
Ġed ited
ĠiP ad
Ġbal anced
Ġult ra
Ġpartic le
Ġì¡° ê±´
E l
Ġëª¨ íħĶ
Ġprocess or
íķĻ ê³¼
Ġcomp osed
Ġìŀ¥ ìķł
Ġì¤ĳ ìĿ¸
ĠI F
ë²Ī ì§¸
ar on
Ġrough ly
Ġr ust
Ġrad i
ìĿ´ ëŀĢ
Ġexhib it
Ġ8 8
ĠS aint
Ġtrad em
ìĥģ ìĹĲ
´ë ł¤
d irect
Ġp ic
wid et
Ġë°Ľ ìķĺ
Hand ler
Ġìłķë¶Ģ ìĿĺ
Ġë°ĺ ìĿĳ
Ġcook ed
Ġn ose
widet ilde
Ġíķ ´ë
ìħĶ ìĦľ
Ġanaly ze
ĠO cean
Ġl in
ìŀ¬ë°°íı¬ ê¸Īì§Ģ
ìĹĨ ëĬĶ
Ġh ol
ëĳĲ ê³ł
Ġ8 4
Ġbel t
od er
G S
Ġbank ruptcy
u id
Ġbasket ball
Ġst er
Ġì§Ģ ëıĦ
b est
ĠPl ant
ìĬ¤ ëŁ½
ĠTe ch
Ġfulf ill
o a
Ġeffect iveness
adel ph
Ġt ours
Ġthorough ly
Ġcos m
Ġmix ing
ur ches
Ġl en
ann y
ĠI mp
o en
h ist
Ġcontact s
ĠM ade
as m
Ph ys
Ġlaw su
c hers
ĠIndian a
ëĵ± ë¡Ŀ
igh th
Ġ9 7
ap ed
´ëĤ ĺ
Ġê³¼ìłķ ìĹĲìĦľ
ĠT al
h ot
Ġar my
pon ent
Ġobs ervation
pl ug
êµ¬ ë¥¼
? !
in ction
ĠThe atre
Ġco pper
Ġcap ability
12 8
Ġarrange ment
g raph
Ġse al
M M
Ġcollect ive
Ġdiam eter
Ġcomb at
Ġover night
ĠCh all
ìĺ¤ ëĬĺ
Ġfin ishing
ĠìĺĪ ìķ½
Ġ3 60
} =\
ch or
ëĬĲ ëĥĲ
Ġas semb
ne g
ens ing
Ġt ags
Ġaffect s
o vers
Ġpres erve
Ġ rib
ĠS ource
ëħķ íķĺìĦ¸ìļĶ
Ġcap s
Ġst ops
Ġunivers al
ck ing
Ġinter val
IT E
ĠS ir
sh ot
Ġfin ancing
ern ame
ìłķ ìĹĲ
Ġfl ights
R ight
Ġele ctions
â ŀ
OC K
Ġattrib utes
Ġphys ically
Ġover view
p iece
Ġhand y
Ġëĭµ ë³Ģ
ess ert
Ġìĸ¸ ìłľ
s ign
ĠAd am
Ġprevent ion
Ġart ificial
ĠTra de
Ġíĸ¥ íĽĦ
Ġh orm
ia h
ĠF low
Ġmanif est
Ġë¹ Į
)) )
Ġdivor ce
Ñ ĭ
ĠC redit
A rt
ĠíĿ¬ ë§Ŀ
Ġste am
ĠíĮ ¬
ĠAm ong
IG HT
adelph ia
ĠL ind
Ġtable t
ass ion
ĠC rim
Ġsim ulation
ast ed
Ġcons ervation
å °
ĠëĲ Ĳ
Ġengine ers
Ġw rap
ĠRepublic an
Ġearn ings
el i
ìķĦ ìĭľìķĦ
in ition
b ec
ĠëĤĺíĥĢ ëĤ¬ëĭ¤
in tend
p ot
Ġh al
Ġ" [
ist ing
Ġh ill
Ġpath s
200 2
ĠH as
Ġmass age
Ġp uzz
B N
; \
line ar
Ġmin istry
Ġp up
Ġche aper
ģ ëĭĪëĭ¤
oun ce
Ġstru ck
Up date
Ġbut tons
F ree
¯ ¤
B lock
ëĮĢ íķĻêµĲ
Ġad option
ìŀ Īëĭ¤
Ġcomple ting
iz able
Ġoccas ions
Ġf itted
rapeut ic
Ġconvers ations
Ġ7 4
ĠC and
ĠìĻ¸ êµĲ
ĠìłĦ ìĹĲ
è ¯
ĠS ix
Ġver dict
ĠìĹ° ëĿ½
Ġreject ed
ìħ Ģ
W hether
ĠBro ok
an ing
Ġp our
Ġlit igation
Ġsw ing
Ġì¶ľ ìĭł
ov a
Ġcolumn s
Ġt ang
ĠëĶ ľëŁ¬
Ġìķ ¡
Ġcont rary
m al
j ack
ìĸ´ ë¡ľ
Ġl iable
ì¤ĳ ìĹĲ
Ġassess ed
Cont rol
â Ĥ¬
ħ ëĭĪëĭ¤
Ġì ±
, '
ag ers
Ġsleep ing
Ġc ater
ĠM iami
Ġê²Į ìĭľ
ĠB ru
Ġsn ap
we ek
Ġimp ressed
ation ally
ĠíļĮ ìĿĺ
ĠëĮĢ ìłĦ
12 3
Ġadv ise
Ġsign ing
S QL
Ġgener ations
erm ine
ĠHaw ai
Ġpurch ases
Ġhe m
Ġfru its
ION S
ex ec
f ix
ĠRet rieved
Ġpl acing
Ġher itage
Ġlabor atory
ĠR og
Ġê²½ ê¸°ëıĦ
ĠD J
ĠO wn
ft en
E m
ĠSc iences
ĠìĿ´ìĥģ ìĿĺ
Ġd ough
íķĺê¸° ëıĦ
Ġìļ´ ëıĻ
en u
Ġevery body
Ġemot ion
Ġprof its
Ġì²´ íĹĺ
n umber
Ġchemical s
g ence
[ "
ĠD ream
il itation
ì°¨ ê°Ģ
Ġappe als
Ġsec ured
ap h
ê²½ ìĺģ
ĠP ra
u ce
in ance
ig ious
Ġsm ell
ëŁī ìĿ´
ìĿĺ íļĮ
Ġ7 6
}} ^
a is
Ġacc used
Ġvend ors
Ġspecial ists
Ġaccompan ied
Ġmount ed
Ġâ Ĺ
ĠMin nesota
Ġhospit als
Ġsens itivity
Ġh ip
Ġc ord
Ġtoile t
Į į
Ġë°Ľ ìķĺëĭ¤
ë ĸ
Ġsur gical
Ġc ow
M ode
Ġdeath s
H is
ìł ¤
Ġdifferent ly
´ë Ĳ
ìĽ ħ
âĢĿ )
íı¬ ìĿ¸íĬ¸
Ġìŀĳ ìĿĢ
Ġ" \
A c
un it
è ¡
Ġw isdom
ĠCh ange
´ë© Ķ
ìĬ¤ íĨł
Ġpark s
Ġex ch
Ġsal ary
ĠëĤĺ ëĪ
ĠÂ ©
P ort
gra d
Ġref uge
Ġinstant ly
Ġ6 9
Ġìłķ ìĭł
Ġscr atch
Ġweap on
s ome
Ġ riv
F P
ìŀ¥ ê´Ģ
Add ress
Ġvac uum
umn i
on na
Ġn ations
uset ts
ĠìĽ ¹
Ġp ets
Ġexpand ing
ìĭľ ì¼ľ
Ġdirect ors
B uffer
Ġa ver
Ġgl obe
ach usetts
ĠêµŃë¯¼ ìĿĺ
ĠëįĶ ë¶Ī
Ġpres cription
Ġcompl iment
Ġc rown
Ġdel ivers
ĠH ay
ul ator
ĠDon ald
¸ ëĭ¤
t w
m ers
Ġok ay
å Ĭ
d rop
.. ...
Ġsing ing
ĠN AS
Ġfo am
Ġìŀħ ìŀ¥
gra duate
AA AA
Ġd ict
Ġconsider able
ok er
ĠíĨµ ìĭł
Ġ{ {\
cl ip
Ġwin ners
ON E
ĠRes ort
Ġinf in
D M
b en
ĠëĤ Ļ
ëĲĺ ë©°
ë²Ī íĺ¸
f ish
ĠSol utions
un ter
Ġê·¸ ë£¹
Ġsell er
ëĲĺ ë©´ìĦľ
Ġf er
Ġcomput ing
ĠëıĦ ìĽĢìĿ´
p ad
Ġc ub
Ġto ken
ê°Ģ ê³ł
Ġvari ations
ĠB ad
C ustom
Ġìĸ¸ ê¸ī
Ġr ated
w ear
Ġcl ip
Ġselect ing
oc ial
Ġpublish ing
Ġprec ision
ĠT itle
Ġdiv is
Ġex clusively
U RE
S O
rib ution
h av
íķĺ ëĤĺ
Ġë§ Ŀ
ĠN H
Ġnerv ous
Ġrow s
Ġprec ious
ĠS ound
ĠíĶĦ ëŀĳ
=" ../../
Ġë¶Ī ë²ķ
P ER
Ġëī´ìĭľìĬ¤ íĨµìĭłìĤ¬
og ram
Ġsignific ance
ĠC over
D id
ìľ¨ ìĿ´
I AL
cy cle
Ġëħ Ħ
D ev
ìĤ¬ ë¡ľ
Ġsus pend
nd ry
Ġproceed ing
Ġtra ce
Ġlawy ers
be an
Ġprom inent
Ġb att
Ġ0 8
Ġ198 3
ĠSh are
Ġemb od
ëį° ìĿ¼ë¦¬
Ġp ushed
ĠF ront
Ġë¹ Ī
Ġimpos ed
Ġrelax ing
Ġdram atic
Ġthrow s
Ġconvert ed
Ġë°Ľ ëĬĶ
Ġidentify ing
ill er
ê ¶ģ
N ET
ons in
Ġ ],
Ġle mon
itz er
Ġal gebra
Ġc ats
Ġne ur
Ġmor ph
IL ITY
bo ards
Ġrespond ed
ĠAust in
ìĦ± ìĹĲ
uss ion
ort ion
ard ing
Ġload ing
ìĿ´ ëĤł
Ġhapp iness
ĠíĶ¼ ê³ł
Ġbeautiful ly
oc key
Ġsal ad
A ccess
Des cription
ë¬´ ìĽĲ
Ġspec ify
oper ative
in th
Ġsophist icated
ic ating
Ġwor n
Ġgather ing
atter ing
Ġëĭ¤ ë§Į
z eta
Ġch ips
Ġ: :
pl an
w alk
isc onsin
Ġrem em
Ġcry stal
" "
ĠMan ufact
ric ts
es see
Inst ance
Ġ198 7
ĠC C
Ġburn ing
ĠB Y
Ġqual ify
Ġsubs cription
UR L
Ġì½ ľ
om er
Ġf itting
ĠT ru
umb ing
í ĳ¸
y er
Ġdestroy ed
l u
ou ri
Ġr hy
ĠìĪĺ íĸī
Ġtim ing
Ġoil s
ĠB R
Ġunlike ly
ĠìĬ Ī
ì ©
Ġcust ody
Ġexec ute
& #
ut ical
M I
Ġax is
Ġsepar ated
ë Ģ
Ġìłľ ìķĪ
ë³´ ëĭ¤ëĬĶ
16 0
Ġincorpor ate
Ġsimult aneously
ĠCont ract
ĠBra d
Ġch rom
ìĬ¤ ì½Ķ
Ġton ight
ĠW as
Ġëĥ ī
ĠS N
Ġplas ma
pro p
min ute
Ġê°ķ ëł¥
Ġneg lect
ìĽ ¨ìĸ´
Ġkey board
ĠEvery one
T op
Ġsepar ation
Ġhab its
ĠDie go
ĠArt icle
Ġdram a
ĠPal est
ĠJ ordan
On ly
ĠBM W
Ġb atch
Ġrespons ibilities
ĠD om
Ġcult ures
ìµľ ê·¼
Ġf iction
Ġblog s
un n
Ġcustom ized
Ġg athered
Ġrele ases
ë§Į ìĹĲ
Ġrestrict ed
ĠíĶĦë¡ľ ìłĿíĬ¸
Ġse min
Ġdifficult ies
we alth
Ġbro ker
Ġsh ade
gh an
is cal
C or
Ġse vent
## #
Ġìĭľ íĹĺ
ĠS amsung
ĠC orn
Ġrec ru
Ġwild life
ĠLook ing
ĠìķĮëł¤ ì¡Įëĭ¤
ìĪĺ ìĿĺ
Ġf ert
u et
Ġun re
ĠPh oto
Ġr um
Ġíĸī ë³µ
Ġ3 50
Ġin her
Â ©
cont rol
er ator
m ode
ĠI R
ĠìķĬ ëĭ¤
Ġhope fully
Ġg ardens
IL E
ĠP oly
æ ķ
Ġbe ll
cl osure
b ul
Ġìĺ¤ ë¥¸
ì° ®
Ġr ings
L ove
ĠG iven
ìĶ¨ ê°Ģ
Ġsc roll
Ġphr ase
ĠB arn
Ġextra ordinary
Ġte nder
Ġincorpor ated
i ates
ĠMary land
Ġìķ ±
Ġoper ates
ĠE ric
íĥĢ ìŀĦ
Out put
. ]
Ġp df
m ates
ë§ ¥
ĠíĻĪ íİĺìĿ´ì§Ģ
Ġë§ĲìĶ Ģ
oc racy
ĠConst itution
k t
Ġê°Ģ ìł¸
ĠR os
Ġk illing
ĠìłĦ ìļ©
elf are
W rite
S cript
ë¶Ģ ìĹĲ
Ġ"" "
ĠD ark
ĠK enn
Ġch ap
ĠVictor ia
Ġgu ides
S om
ĠB an
vent ions
Ġpass engers
Ġinv as
av or
ĠAn alysis
ar gs
Fil ter
Ġì§Ģ ìłķ
Build er
k ers
' ).
Ġê³ł ìļ©
Ġl un
Ġun necess
Ġres olved
P at
Ġsepar ately
ac le
ĠK ansas
ì½ ©
ĠìĤ¬ íĥľ
ìļ ´ëĵľ
ìĹĲìĦľ ìĿĺ
ĠK ids
Ġenem y
q l
íĬ Ģ
Ġ0 4
Ġsubsequ ently
est one
Ġb omb
Ġexpl os
P a
ĠM aterial
Ġacknow ledge
ri or
Ġprotect ing
Ġpr inter
ĠPa per
ìłģ ìĿ´
ĠíĬ¹ ì§ķ
Ġm es
Ġwas hing
doc ument
Ġcompet itors
Ġreflect s
ond a
Ġcolor ing
ĠëĮĢíķ´ ìĦľëĬĶ
ĠAn th
Ġac res
ĠëĮĢ ì¶ľ
êµŃ ìłľ
Ġ198 6
Ġìŀ ĩ
Ġë¸Ķ ëŀĻ
M R
Ex ternal
íĻĶ ìĿ´íĬ¸
Ġë¶Ģ ë¬¸
ĠUn it
osp el
Ġimplement ing
Ġsh orter
Ġaccept able
Ġlast ing
Ġheav en
ĠP ict
a us
Ġdis aster
ir k
Ġ7 3
H igh
Ġë² ¤
Id ent
ê³µ ìĤ¬
ĠStud y
ĠInte rest
Ġcons olid
ĠT ree
ĠìĺĪ ë°©
Ġstra in
ĠD R
íķ´ ëıĦ
Ġm oon
Ġalumin um
Ġíŀĺ ëĵ¤
ĠN ature
M ed
ol n
Ġì½Ķ ìĬ¤
ì¶Ķ ì²ľ
op es
Ġin equ
AT H
Ġn it
Ġcoupl ed
Ġparticip ated
Ġanaly zed
ĠëĴ ·
ìłķ ì¹ĺ
og ene
D eb
t ml
V ar
ors hip
ìĦ¸ ê°Ģ
claim ed
Ġì£¼ ì°¨
Ġëĭ¬ ëĿ¼
Ń ìłľ
Ġdec ay
ĠìĨĮ ìĨį
au c
ĠìłĦ íĨµ
Ġ ion
ce ive
Ġactiv ation
S K
Ġfl ux
ĠT en
Ġpop ulations
Ġc ir
Ġìĥģ ëĭ´
Ġsle e
ìĽĶ ë¶ĢíĦ°
S l
}} _{
it ations
ĠStep hen
Ġc ited
Ġ ip
ê¸° ìĤ¬
Ġë² Ĺ
ĠM om
ĠëĮĢ ì±ħ
Ġrel iability
Ġv ib
& \
t x
Ġwor ried
ĠEl izabeth
ĠEvery thing
is ite
b uf
Ġmake up
U C
Ġmanufact ured
Ġar ise
ĠAmend ment
Ġd ash
Ġbi ological
Ġpro c
V er
ĠPhil adelphia
Ġtra iler
Ġrot ation
Ġloc ks
Ġhyp othes
ĠP ers
Ġhad n
Ġpar ad
Ġê¹ Į
Ġgar lic
Ġold est
Ġst ocks
oo f
h s
Ġìŀĺ ëª»
íĶĦ ë¦¬
Ġen orm
Ġgr at
ìķ ¤
ĠMass achusetts
Ġcru ise
Ġsing er
ĠPr im
ock ets
Ġp izza
Ġìļ°ë¦¬ ëĬĶ
Ġí ĥĿ
Ġla wn
Ġchar ging
12 5
Ġterrit ory
i ov
ĠSe attle
Ġsp acious
Ġamen ities
Ġgamb ling
S w
Ġathlet es
íĤ¤ ë¡ľ
ëĿ¼ ìĬ¤
Ġro yal
ĠAuthor ity
ĠFin ance
Ġinsp ire
Ġdo ct
head er
ĠD at
c ss
ĠK ind
ĠIn nov
Ġin k
Ġstatist ical
Ġgradu ated
Ġkne e
O ptions
ff ff
Ġìĸ´ëł¤ ìļ´
ëıĦ ì²´
Ġindic ating
Ġhors es
Ġí ĳ¸
ver ty
ìĸ´ ìķ¼
rodu ction
Ġphys ics
) [
Ġ7 00
ĠOnt ario
íļĮ ëĭ´
ëįĶ ëĿ¼
ãĢ ı
ig e
L abel
ĠN ic
u v
Ġbe ef
ĠíļĮ ìŀ¥
íķĺ ìļ°
In it
w hen
´ë Ħ
ak i
Res ource
Ġsynd rome
Ġprop ag
Ġshort ly
ĠU V
ĠRes ources
ĠìĤ¬íļĮ ìłģ
ĠB rian
ë£¨ ìħĺ
Fig ure
Ġsort s
Ġëį§ë¶Ļ ìĺĢëĭ¤
t xt
Ġfasc inating
Ġt ension
ì§Ģ ìĿĺ
Ġmoist ure
ë¶Ħ ìĿ´
Ġqu ad
Ġíķ´ ëıĦ
ĠC ond
ac cess
Ġm apping
ap ing
ĠM C
Ġto ys
Ġsm oking
Ġë© Ģ
Ġd irt
íŀĪ ëł¤
Ġobt aining
Ġê± ´ë¬¼
ĠE asy
ring e
col umn
ëĮĢ ëĬĶ
ur red
Ġpow ered
Ġconf ront
Ġwal ks
ra ine
Ġgl ob
b ing
l ah
Equ al
Ġêµ¬ ì²´
Ġ8 9
ĠFR OM
Ġvar ied
ĠH ub
Ġincor rect
Ġex em
íĬ¸ ë¥¼
Ġëª¨ ë¥´
: (
j av
opt ions
ĠW inter
ìĸ´ ë¥¼
ì ¯¤
Ġorder ing
Ġë³´ ìĿ´ëĬĶ
rib e
Ġpo verty
ĠV ice
Ġëĭ¨ ê³Ħ
ëĭĪ ìķĦ
Ġt err
A I
Ġ198 5
w er
Ġbran ches
Ġë§Ī ì¼ĢíĮħ
Ġw iring
Ġíķľ íİ¸
ing ham
ì² ¨
Ġth irty
Ġappl iances
Ġw are
íĸĪ ìĿĦ
Ġë¯¼ ê°Ħ
íĻĶ ê°Ģ
Ġê¸° ìĸµ
Ġrad ius
ë¦ ¿
ĠBro ther
u int
T oken
L G
ĠPri or
OV E
Ġas ks
j pg
at on
point s
sy stem
Ġstead y
Ġhand led
ĠìĬ¤ íĬ¸
Ġreve als
ê´Ģ ê´ĳ
Ġart istic
comm un
S R
Ġexc ite
Ġì¤ĳìĨĮ ê¸°ìĹħ
Ġstom ach
ëĮĢ êµ¬
Ġê°ķ ìĽĲ
Ġb oolean
ĠS NS
ĠS ong
ĠReg ist
ĠTur key
Ġclass ification
ĠëĲĺ ìĹĪëĭ¤
Ġoblig ations
ĠBl ock
ĠTh ird
ê°Ļ ìĿ´
Ġret ired
Ġëª» íķľ
Ġfil ters
ĠJ am
air y
ìľĦ ê°Ģ
Ġíĳľ ìĭľ
Ġload s
Ġmod erate
m atic
Ġwitness es
ĠInd ex
Ġjud icial
Ġrece ives
Ġsl ide
p op
Ġ9 3
Ġaccept ance
ĠêµŃ ìłķ
Ġìµľ ìłĢ
ĠW isconsin
ĠC V
Ġrem ed
Ġem issions
ĠCom b
ĠìŀĪ ëįĺ
ĠAnd erson
) ^{
at oes
Ġw ishes
Ġcan cel
Ġbase ball
Ġë´ Ĳ
Ġt ied
Ġaccompl ished
ud d
Ġcharacter ized
ace utical
Ġdiscount s
Ġìĭľê°Ħ ìĿ´
ĠBud d
Ġtheoret ical
Ġconf idential
Ġrom antic
ĠíĮĮ ìķħ
Ġ7 1
Ġg ross
H E
ĠI ron
G O
Ġlog in
ĠAs sembly
ĠU I
ĠìĿĺ íķ´
Ġì¤ĳê³ł ì°¨
b oy
e lect
Re v
as ia
Ġoptim ization
Ġfund ra
Ġl ady
Ġpod cast
Ġrout es
g oogle
Ġvulner able
Ġannounce ment
Ġencoura ging
ĠìĿ´ íķĺ
Ġfranch ise
Ġd essert
Ġbe ans
Ġf el
Ġautom ated
Ġinval id
a ired
Ġarr anged
P O
form ed
ĠN EW
ĠDemocr atic
Ġthink s
in f
ĠD allas
Ġadj acent
Ġx ml
ĠëıĦ ë¡ľ
ĠA mb
ĠìĿ¸ íķľ
íĻĶ ëĲľ
Ġinv ention
S ign
Â §
ìĤ¬ íķŃ
Ġg el
ĠAl tern
Ġimpact s
Ġë°Ķ ëĢ
êµĲ íĨµ
Ġreal istic
ĠCP U
ëĿ¼ ë§Ī
Ġìļ°ë¦¬ ê°Ģ
ĠM agn
Ġphotograp her
ĠìĪĺ ìłķ
p any
ĠíĺĦ ìŀ¥
A E
Ġìļ ķ
ì¡° ìĦł
ĠDou ble
Ġg re
ĠS elf
Ġwe ird
Ġj et
ĠìĦ± ëĬ¥
sec ond
Ġcy ber
S pe
Ġpros pective
con duct
ĠE C
Ġsh ips
) "
Ġíĺľ íĥĿ
ĠConst ruction
Ġbe aches
Ġpl ates
mark s
ĠC ut
ct ic
Ġst roke
ĠInd e
Ġtreat ing
] ]
ê° Ķëĭ¤
m akers
ĠBer lin
Ġcalcul ations
ìĿ¼ ìĹĲ
Ġachie ving
Ġíŀ Ī
ivid ually
Ġcult iv
ĠD aily
Ġë°ľ ìĸ¸
Ġëį ķ
Ġ9 2
Ġmet ric
Ġpaint ings
cl ose
Ġpregn ant
Ġmar ijuana
ĠG NU
Ġcred its
d am
ĠH art
Ġcompl aints
Ġdi pl
Ġpr on
Ġëĭ¨ ìĪľ
Ġìĸ¼ë§Ī ëĤĺ
Ġê±° ì³Ĳ
Ġ8 2
Ġdis put
ĠAnt on
b urn
Ġoccasion ally
ĠJ oin
- $
ch ildren
Ġh ired
Ġë§ ¥
Ġart work
Ġent ities
ĠG olf
ĠP ath
Ġrel ate
ĠLew is
Ġnav igation
Ġì£¼ ëĬĶ
Ġpersonal ized
Ġtown s
Ġvit amin
Ġconstraint s
Ġfing ers
ë¶Ģ ìĿĺ
Ġbrother s
N C
Ġdu pl
c i
ĠB B
Ġmeas uring
Ġport ra
TY PE
Ġpetition er
Ġgener ous
Ġì²Ń ëħĦ
Ġoverwhel ming
back s
å Ľ
ĠìĬ¤ ìĬ¤ë¡ľ
Ġrelax ed
Ðµ Ð
Ġbound aries
ĠëĤ¨ ë¶ģ
Config uration
ĠEnvironment al
v als
w ill
ĠWith in
ĠB O
Ġrank ed
Ġapp le
Ġconsult ing
cos ystem
Ġmin eral
Ser ver
ential s
Ġdr um
ì¡° ê±´
Ġland ing
ê ½
Ġhunt ing
ĠM oon
ĠìķĦ ì¹¨
ìłľ ëĬĶ
oc ate
ĠHolly wood
Ġëŀľ ëĵľ
ĠA h
Ġra ck
ìłķ ìĿĺ
Ġrecommend ation
Ġnew est
Ġvibr ant
ĠElect ric
Ġë°Ķ ëŀįëĭĪëĭ¤
Ġsee ks
Ġexcess ive
ë³´ ëĬĶ
Ġde emed
ĠF a
Ġì¢ħ ë¥ĺ
Ġpredict ed
Ġgra d
ĠAdv anced
Ġcou pon
ĠAtl antic
Ar g
N AME
M D
Ġir re
y r
ìĭľ ìĺ¤
Ġd ys
Ġê´Ģëł¨ íķ´
as i
Ġproport ion
Ġmy th
Ġloc ate
Ġtour ist
II I
ĠW ales
íıī ê°Ģ
ç Ķ¨
Ġ9 4
Ġì° ¬
Ġenjoy able
Ġtrem end
ì½ľ ê±¸
Ġf ake
Ġdro ps
Ġcontend s
Ġmetab ol
Ġgener ating
ĠìĿ´ ìĤ¬
ê²ł ì§Ģë§Į
ĠëĤ´ìļ© ìĿĦ
ĠS ave
Ġamend ed
ĠìĹ¬ ìłĦíŀĪ
Ġrem od
Ġshap ed
Ġë¹ ¼
ĠCamb ridge
up date
Ġdismiss ed
Ġestablish ing
Ġsust ained
Ġt ens
ĠF urn
Ġcalc ulation
t an
Ġcontract ors
L P
ë¬¼ ìĿ´
unt ime
ĠA ge
Ġp add
íķĺ ìĭł
ast y
íĻľ ëıĻ
Ġpush ing
Ġp iano
ĠChampions hip
Ġact ors
Ġì¼ ĢìĿ´
rop ri
ĠìĤ¬ ìłĦ
L ocal
O b
or se
Ġ8 3
ĠN ig
the w
Ġwrit es
Ġs oup
ìĸµìĽĲ ìĿĦ
ĠM ess
Ġc ache
Ġpro pri
ë§ İ
Ġ198 4
Ġal ike
íĮĲ ë§¤
ĠT ai
Ġproduct ive
ëĵ± íķĻêµĲ
ĠMag azine
19 99
Ġprem ises
he lp
Ġdiagn osed
Ġcharacter istic
Ġs lic
ĠìłĢ ëł´
H R
ĠR ome
Ġmulti pl
Ġ8 6
Ġë§Į ì¡±
Ġgover ning
Ġconsec utive
Ġassoci ate
ì§ Ĳ
ìĦ± ìĿĢ
re r
st ack
Ġbe am
ĠR a
oles ale
íĸī ìĿĦ
is p
ìĿ¼ ìĿ´
ĠG ree
Ġreg ards
Ġhold er
ĠWork ing
ĠOx ford
ëªħ ìľ¼ë¡ľ
ĠìĹ° íķ©
p ur
ĠG reg
L ayout
de velop
Att ribute
Ġ7 9
g ood
dep th
lay out
icro soft
ëıĦ ìĹĲ
b ling
oid s
Ġâ Ĥ¬
Ġstr ings
áĦ ĥ
te ch
ìĤ¬ ìĹĲìĦľ
Ġres erv
uck s
ect ed
ĠSt aff
Ġattempt ing
ĠìĿ¸ ì¦Ŀ
h ou
ĠN orm
Ġpopular ity
Sty le
Ġstraight forward
M ult
own ed
val ues
cd ots
ĠI owa
Ġdead line
ĠìĽ ĥ
Ġtutor ial
ĠH ills
Ġhard ly
ĠMem orial
ĠM ajor
Ġinstall ing
ë§Į ìĿĺ
Ġemp ower
is l
W H
ĠìłĦ ìŁģ
ri um
Ġin clusion
Ġ8 7
Ġg ig
ĠD rag
ĠQu ick
M et
Ġê°ĢëĬ¥ íķĺëĭ¤
rou s
Ġpass age
Ġread s
Ġann oy
Ġo mitted
f aces
ĠReg ional
Ġanal og
ish op
Ġfund ed
00 000
ëħ¸ ëıĻ
ĠE dition
Ġcur ious
ĠM arsh
ìĪĺ ë¡Ŀ
Ġsold iers
ĠKore an
ĠMal ays
m ult
ĠPer fect
ĠAtl anta
Ġcelebr ated
Ġwork out
ĠìŀĲ ë£Į
Ġint r
ĠW ars
ĠL arge
EC K
os ity
ĠìĹĨ ìĬµëĭĪëĭ¤
ĠSim ply
T arget
à ¥
ĠIndust ry
Ġthreat s
Ġsubstant ially
ĠK evin
² Ħ
Ġass ured
g ency
Ġleg acy
ĠPr ince
Ġë°Ķ íĥķ
Ġf ence
Ġstri p
Ġl ymph
c ery
se ud
qu arters
ãĢ ĭ
Ġen abling
Ġman ually
Ġsubt le
wh ite
od d
Ġsu its
wh o
g reen
Ġgr ants
inc oln
Ġ ðŁ
Ġo re
on ing
ĠB urn
ĠSar ah
Ġden omin
ik a
Ġsuper b
] );
Ġint u
Ġvot er
Ġspecific ations
ë¦Ń íĦ°
ol en
íļĮ ìĹĲìĦľ
ë¶Ħ ìĿĦ
Ġrepl acing
Ġvot ers
ĠìĿ¸ ìĥģ
Ġsp are
Ret urn
op her
^ +
Ġpe er
ĠE aster
. ).
win ning
iv a
Ġëª© ìĨĮ
Ġë¶Ī êµ¬
um ing
ì¹ĺ ê°Ģ
Ġdes erve
Ġuncertain ty
g ame
Ġdepart ments
Ġconf used
Ġdro ve
Ġsat ellite
ĠA B
igr ants
Ġengine er
Ġutil ized
ĠíĥĢ ê³ł
ĠSt ory
ira ble
Ġref lection
ì£¼ ìĨĮ
êµ° ìļĶ
Ġpe nding
ĠCh oose
pro v
Ġbab ies
Ġì¡ ¸
ĠR ather
Ġalleg ations
Ġë§Ĳ ìĿĦ
ĠH ur
ĠGl ass
ì¢ħ íķ©
Ġìłķë¶Ģ ëĬĶ
or ient
ĠAut om
ĠD utch
Ġ19 50
ĠìłĲ ê²Ģ
ĠCom pl
é Ģ
cul es
Ġimpl ications
le nd
ĠB L
Ġpass enger
Ġassum ption
ĠHar ry
Ġover ride
Ġd iver
ĠíĸĪ ìĬµëĭĪëĭ¤
ĠìĹĲ ëĦĪì§Ģ
ĠS ep
Ġestablish ment
)* (-
Ġdes ert
ann ot
Ġtrans parent
ick ing
Ġë¶Ģ íĴĪ
ĠM ov
indu ced
ap es
Ã §
ve ctor
g ov
Ġs ized
Sec ond
µ ì»¤
ĠìĹ° ìĨį
ĠìĤ´ íİ
ç Ķ
g ly
=" #
Ġì¶ľ ë°ľ
Ġmor al
oc hem
H C
Ġcou ch
ĠìĹĨ ìĹĪëĭ¤
Ġê± ±
ĠN othing
Ġìĭł ìļ©
ë¡ľ ê·¸
Ġê°ķ ëĤ¨
P I
Ġle nd
Ġconcentr ations
ĠVis it
Ġrest oration
Ġë¶Ģ ëª¨
ĠF ab
he ld
ag an
Ġë°Ķ ì¹´ëĿ¼
Ġíķľ ëĭ¤ê³ł
Ġp upp
Ġol ive
Ġclin ic
ĠëĦ ĵ
Ġìľł íĨµ
Ġmusic ians
ve t
Ġnav igate
Ġsl ip
ĠìĦ ¬
Ġnot ification
em ail
L ength
Ġvot ing
ê³Ħ ìķ½
Ġra ces
Ġflu ct
F actory
ĠTenn essee
Ġê·¸ ëıĻìķĪ
ĠìłĢ ëĬĶ
ì³ ¤ëĭ¤
Ġinsp iring
Ġar ising
ãģ «
Ġpresent ations
spl it
Ġgra in
25 6
ë¦¬ íĭ°
EL ECT
ĠA k
Ġë ½
p in
ĠYou th
Ġì¹ ¼
Ġaltern atives
ģ Ħ
b n
ow een
Ġprodu cers
Ġresist ant
ous ing
ĠS port
Ġw ines
== =
Ġtem pt
Ġg reet
Ġsol ving
ĠN E
end ed
Ġsusp ension
Ġsett le
ëĭ¨ ìĿĦ
ĠInst all
ĠBook s
Ġ _{
Ġë°ĺ ë©´
Col lect
Ġr anges
ĠB ush
í Ģ
ĠS ant
Ġage nda
m itting
ë°ľ ìłĦ
Ġdon ation
he et
Ġdis charge
íģ Ĳ
ĠÂ ¶
Ġre actions
~~ ~~
ĠInd ones
in cess
Ġìĺ¤ íŀĪëł¤
ĠìķĦ ì£¼
fil ter
\] ),
ĠN ations
ìĺ¤ íĶĦ
Ġins pect
Ġover l
Col umn
Ġmotiv ation
ìĭ¤ ìĿĦ
Ġneglig ence
ĠëĤĺ ê°Ģ
ab out
bre ak
ul er
Ġalgorith ms
ĠCan cer
m ake
â ģĦ
ĠIS O
au nt
Ps i
and roid
al ign
ìĪĺ ëıĦ
Ġdel iber
Ġspat ial
( _
Ġst opping
ĠS ize
íĬ¸ ìĽĮíģ¬
v ation
Ġcar ing
Ġch urches
ĠC ou
Ġmed ications
° ëłĽ
ĠL ady
Ġ> =
Comm and
ethe less
Ġfollow ers
Ġgra y
Ġst abil
$ _
Ġê·¼ ë¬´
B oth
Ġsc oring
Ġl ibraries
ĠCr usher
Ġindepend ently
ĠD ur
Ġthe atre
ĠS ab
IM E
ĠB ody
Ġw ard
ĠL ess
G ET
Ġbe aring
ick er
ĠL ic
Ġcompar able
´ë© °
it ched
ĠB BC
ĠT an
Ù Ħ
ìĸ´ ëıĦ
Ġodd s
Ġ1 11
ĠRec ords
Ġbr ick
r ank
Ġbatter ies
ĠMan chester
Ġfeed ing
Ġshel f
Ġcontain ers
Ġthe sis
Ġì£¼ ë¬¸
mat rix
ĠìĿ¼ ìĿĦ
Ġaccom pany
Ġembed ded
ĠìłĲ ìĿĦ
Ġê·¸ ë¦¼
Ġwhere in
ì£¼ ìĦ¸ìļĶ
Ġfro zen
Ġìķł íĶĮ
s i
ë¦¼ íĶ½
ĠPar liament
e lement
f i
y mm
ĠNav y
ìĿ´ ìĥģ
ë¹Ħ ìļ©
ìĸ´ë ĵ
Ġìĭľ ì¦Į
IG N
ê ¾¸
Ġsupp ose
ĠìŀĪ ìľ¼
ì¢ ĭ
Ġbi as
n ut
Ġcook ie
pos ed
Ġco inc
Ġint ake
j e
P al
Ġrad ical
F unction
ast ing
F rame
O k
Ġì§Ģ íķĺ
r ust
ĠApp lic
AR Y
Ġneighb ors
ê·¸ ëŀĺ
Ġìłĳ ê·¼
Ġnarr ative
Ġc er
ĠPlan ning
ĠN FL
Ġstri king
Ġend e
ĠL yn
Ġ14 0
b et
Ġìĺ¤ ëŀĺ
ĠTH IS
w ed
íļĮ ëĬĶ
Ġstream ing
ĠíĨµ ê³¼
Ġname ly
Ġsymbol s
am el
Ġess ays
p ub
ĠG T
ĠìĹ¬ ë¦Ħ
ëĬĶëį° ìļĶ
Ġ1 12
ĠìĿ¼ ëĭ¨
ĠêµĲ íĻĺ
sequ ently
ĠR ules
ĠD ave
Ġc ig
Ġsuggest ing
Ġkn ife
ĠìľĦ ë°ĺ
Ġprom ises
ĠH unt
ĠD B
O F
Ġcabin ets
on om
ĠB ureau
ĠP ast
Ġimm igration
ath on
riv en
Ġre ven
ĠAll en
Ġret rie
ĠG row
Ġ9 1
âĶ Ģ
ari os
ĠE arly
ĠìĿĮ ìĭĿ
Ġd ip
Ġg ly
t wo
att ice
ì½Ķ ë¡ľëĤĺ
ëĺĲ íķľ
ĠDec or
Ġbond s
ĠN ut
Ġpre lim
ê¸° ìĻĢ
rop y
ĠGr ant
ëįĶ ëĭĪ
ĠAr k
ĠHarr is
ink ing
Ġcar ries
Ġr ats
: "
ĠR oss
Ġreflect ed
Ġun lock
Ġt ent
Ġconst itute
Ġal pha
ë¬¸ ìĿĺ
Ġë¹Ħë¡¯ íķ´
Ġagg ressive
íķĺ ìĿ´
Ġc yl
ĠíĻķ ìłķ
h ard
Ġdis rupt
Ġread ily
ag a
n ie
Ġexpl oration
ĠJ enn
ĠPer formance
the y
lah oma
H ome
Ġa qu
ë³´ ëĭĪ
ĠMed ic
ĠAv ailable
Ġì¶ľ ìĹ°
Ġpublic ations
Le vel
a ire
ĠIndust rial
Ġbelief s
ĠE ver
Ġg ains
com plete
Ġinflu enced
Ġend less
Ġa uction
as is
ê¸Ī ìĿ´
Ġprint s
ëĭ¹ ìĿ´
ìĭľ íĹĺ
Ġke en
ëĨ ĵ
er als
Ġpresent ing
uss ian
Ġcoupl ing
Ġstri ve
Ġch ampion
ì¶ ¤
d ale
ĠH ost
Ġmotiv ated
se a
Ġtri es
´ëŁ ½
Ġind ividually
cy cl
ĠMel bourne
Ġs ne
ĠR us
Ġdeal er
V AL
ĠJ osh
Ġdes per
Ġbar g
Ġê³ §
pr ises
Ġë³´ ëĭĪ
Ġple a
Ġíľ ´ëĮĢ
ĠK T
ang ers
ĠO bs
Ġë³´ íĨµ
se ason
form ing
Ġì²ŃìĻĢ ëĮĢ
Ġê¼ ½
Ġcogn itive
ĠC ape
Ġcollect ing
ëĭ¹ ìĿĢ
de pendent
Com ponent
{ "
W indow
ê·¼ íĺľ
Ġíİ¸ ìĿĺ
Ġcontinu ously
ħ ¸
Ġìĭł ë¢°
Ġë°© ìķĪ
Ġm ature
Ġvot ed
"} ](
Ġin ev
Ġunnecess ary
ë¹Ħ ê°Ģ
Ġcoc onut
ĠC hen
Ġthe rapeutic
ìķĪ ëħķíķĺìĦ¸ìļĶ
G F
Ġmed ic
els on
ĠS L
ial og
ãĤ ĭ
Ġenjoy s
R ow
S um
Â £
Ġflow s
Ġtow er
Ġë§İ ëĭ¤
m i
ë³Ħ ë¡ľ
Ġìĺ¤ íĶĪ
ul ent
ê¸Ī ìĿĢ
il i
ëħĦ ê¹Įì§Ģ
ĠMiss ouri
Ġì² ¨
ĠH olid
Ġresc ue
Ġmar ine
is ure
ĠFor um
v i
Ġretail ers
Ġpart ially
Ġtra ils
Ġpre val
ìĨĮ ëĵĿ
Ġsome body
Ġanalyt ics
ĠA part
EN SE
ud i
Ġsp okes
ĠìĿĺê²¬ ìĿĦ
p ing
z one
H aving
Ġagric ultural
ĠL anguage
B est
Ġ8 1
n ote
Ġgl uc
re tt
ìŀĲ ìĹĲ
ĠSy m
av y
Ġëħ¼ ëŀĢ
Ġdiam ond
Ġentert aining
) }\
Ġy e
Ñ Į
ĠëĮĢíĨµëł¹ ìĿĺ
Ġconsequ ence
ĠEx cell
Ġe cosystem
Ġpro l
Ġth ro
ĠìĦ¼ íĦ°
sc ill
ĠëĤ´ë Ĩĵ
Ġvot es
Ġprom ised
M ENT
f n
Ġl ying
Ġs its
Ġë¯¸êµŃ ìĿĺ
Ġres et
ë¦¬ ê¸°
on ia
D el
Ġvers atile
Ġlegit imate
Ġpers u
Ġdec iding
ë°Ķì¹´ëĿ¼ ìĤ¬ìĿ´íĬ¸
ĠG as
em an
Ġconsist ing
ke ys
ĠR oll
Ġgu ided
íĻĶ ìĹĲ
Ġ16 0
Ġexcell ence
Ġball s
Ġexcite ment
M E
ĠAs k
S W
ìĿ¸ ê³¼
ĠB ry
Ġ12 5
Ġpsych ological
Ġê´ ľ
) |
ĠìłĦ íĺĢ
Ġh itting
Ġbeg un
Ġdial ogue
Ġdiscipl ine
ĠëĲĺ ë©´
Ġâĺ ŀ
ê°Ģ ìĬ¤
bl og
build ing
Ġí ĽĪ
?? ?
Ġë¶Ħ ìĸĳ
}} {\
ì£¼ ê³ł
Ġgalax ies
Ġthe ories
ìĿ¸ ìľ¼ë¡ľ
j u
ĠChrist ians
å ¼
ĠìĹ ¼
ĠP u
ĠëĶ°ëĿ¼ ìĦľ
ìł ł
ition ers
ixt ures
am ination
Ġbar rel
ĠCl ark
ĠRep resent
V ert
ë¦ ī
b ac
Ġle ak
cl osed
ĠPort ug
25 5
ol k
ĠEconom ic
Ġì¶© ìłĦ
ëĭ¤ ìļ´
Ġcl ause
Ġcur ves
] $
ĠE ag
Ġ è
uet ooth
ĠAd vent
Ġtw in
ĠF ast
ĠìłĦ íķ´
Ġfast est
Ġtrans p
Ġì±Ħ ìļ©
Ġlegisl ative
Ġtack le
ĠIn n
Ġlight weight
ang el
cent ury
Ġsumm ar
Ġ' ,
pp ers
Ġrat ings
Ġf ired
ĠG alax
ĠCommon wealth
ĠReg ister
ĠT el
Ġj aw
Ġachieve ment
Ġcent uries
b its
Ġëĵ¤ìĸ´ ê°Ģ
P ass
Ġglass es
Ġìī ¬
ëĵľ ìĭľ
ìŀĲ ê¸°
Ġutil izing
Ġt urb
Ġa rom
tra ck
ìķĦ ê°Ģ
Â· Â·
Ġlock ed
Ġê´Ģìĭ¬ ìĿĦ
as cript
Ġcon ce
Ġret ro
Ġc av
Ġth y
d ig
Ġlim itation
ìĸ´ ê°Ģ
ĠSe ason
Ġin sect
Ġg oogle
Ġcou p
Ġtru cks
Ġtour ism
ĠE D
Ġìµľê³ł ìĿĺ
ç »
Ġter rible
let te
Ġann ually
ĠSc ient
. ),
Ġmut ual
writ ing
Ġoverse as
N ull
ound ing
ĠíĺĦëĮĢ ì°¨
ëĪĦ ë¦¬
Ġe igen
ìĺ¨ëĿ¼ìĿ¸ ì¹´ì§Ģëħ¸
p rivate
Ġìĭľê°Ħ ìĿĦ
ĠViet nam
ĠMo ore
\ "
Ġsu ited
art s
ĠM oney
Ġbott les
Ġconfirm ation
Ġind irect
ìĭ ¼
ĠExpl ore
Ġf ract
Ġmed ian
¨ ¸
êµ¬ ì¡°
######## ########
ĠìĤ¬ìĹħ ìĿĦ
g i
ĠPol it
æ ī
======== ====
Ġform ats
are r
Ġdiscrim ination
ĠìºĲ ë¦ŃíĦ°
ĠìłĦê¸° ì°¨
Ġpre st
Ġbreat hing
Ġ> >
T ag
s v
íĶĦ ëĿ¼
Ġm unicipal
Ġpric ed
Ġtravell ing
ful ness
D ER
Ġintegr ate
íķ Ģ
Ġvary ing
Ġsh adow
Ġk in
Exp and
g ate
Ġsk ip
ĠíĻ Ģ
ì²ĺ ë¦¬
Ġre nown
Ġclass ified
Ġatt ractions
ĠìĿ¸ ê¸°
ĠíĬ¸ ëŁ¼íĶĦ
ĠT ok
Ġaccur ately
Ġcou ples
íķ¨ ìĿĦ
Ġê²½ìļ° ê°Ģ
Ġpo etry
íĵ¨ íĦ°
Ġyield s
Ġweak ness
N one
Ġd ivers
clip se
ĠUp date
ĠP arent
ĠëĶ ¸
Ġm igration
r ated
Ġë¶Ī ê³¼
Ġw ing
Ġam p
is hers
Ġperm its
Ġout s
Ġcal ories
Ġarbit rary
ëŀ Ĳëĭ¤
Ġìĺ ®
m ont
ĠëĤĺ ìĻĢ
w l
ĠS everal
ĠR aj
Ġout fit
h u
end ing
Ġê²° íĺ¼
Ġmod ification
Ġsim ulations
Ġreview ing
ĠN ob
Ġnice ly
Ġins u
Ġb ron
Ġíĺ Ī
ĠS ure
Ġìķŀ ëĳĲê³ł
Ġbar rier
Ġ0 7
Ġw id
ed u
Ġby tes
Ġc inem
ĠJe an
Ġ' :
ëħĦ ìĿĦ
ĠìĦľìļ¸ ìĭľ
êµ¬ ê°Ģ
ĠT ony
ĠP D
Ġpre ferences
ĠÂ »
ĠP itt
Ġd ated
Ġdecre asing
Th rough
Ġth rown
Ġ{ }
Ġbo ots
ĠCh annel
empt y
Ġbare ly
Ġst ays
ĠG PS
ĠTra il
} |
im s
íļĮ ìŀ¥
ë£ ¸
ĠNet her
ĠìĿ¸ ê·¼
) +
ê°Ħ ìĿĺ
ĠPh D
ĠDe ath
ìĦ °ëĭ¤
Ġm aker
T ree
ĠH IV
ĠOr ange
H er
Ġinject ion
ĠTerm s
ĠìĿ´ëģ Į
Ġdownload ed
cent er
Ġret reat
Ġapart ments
Ġf ur
ĠE rror
C ell
Ġg ently
Ġrob ot
Ġëª» íķĺê³ł
Ġg ast
Ġsh oe
Ġadjust ed
Ġcompl ications
Ġì¤ĳ ìĿ´ëĭ¤
Ġstake holders
= {
ë´ ĩ
Ġoffer ings
ol ves
Ġdon ations
Ġaddress ing
íķĺ ìĭ¤
on omic
es y
Ġaffect ing
Ġt iles
ìŀ¬ ëĭ¨
ĠF ive
P ut
Ġnumer ical
ĠComp an
Ġn a
Ġê·¼ ë¡ľ
ĠB aby
Ġdepend ence
FF FF
ĠëĦ¤ ìĿ´ë²Ħ
Ġenorm ous
ĠP ed
eli hood
ë¦¬ ìĻĢ
ìĿ´ ìĤ¬
ĠF ellow
Ġar c
Ġg ut
Ġl ung
pro f
Ġre pos
Ġsp oken
id ge
Ġì°½ ìĹħ
Ġcomb ines
F I
Re ference
Ġì§Ģ ì¼ľ
ĠK elly
c ases
in v
Ġmag ical
Ġnot ion
Pl ay
Ġoutd oors
Ġcondition ing
G P
Ġmemb rane
oun ced
ĠëĿ¼ ìĿ´
ĠEd ward
Ġmand atory
$ $\
ĠM ust
el d
Ġt ire
Ġflav ors
ol itan
ĠId ent
Ġcan vas
} )\
Ġneigh bour
ìĿ´ ìĻĢ
à ¦
Ġd ancing
ot te
act iv
ĠF uture
ĠíĿ ¥
H ist
ê°Ĳ ìĿ´
Ġcr imes
OS E
ĠL incoln
ĠL es
ĠC ell
dev ice
Ġcomp ounds
P an
ĠM ort
Ġj ail
nt il
ro it
ĠDo ctor
ER V
work ing
Ġexplicit ly
ë®¤ ëĭĪ
Ġë§Į ëĵľëĬĶ
Ġconsist ency
}} ,
Pro cess
Ġsp ouse
Ġcomm ands
ĠìĺĪ ìĪł
ëĭ¤ ë¥¸
ĠB alt
Ġb ay
ë¯¸ ìĹĦ
Ġindepend ence
ìłģ ìĿĦ
B el
Ġtem ple
In s
Ġpublic ly
Ġharm ful
ou ver
Ġê·ľ ìłľ
ĠD iam
´ë©Ķ ëĿ¼
ĠìĹ¬ ìŀĲ
Ġpre ference
ĠG raph
Ġb ull
Ġê¸°ë¡Ŀ íĸĪëĭ¤
Ġsub mission
Ġstim ul
ĠAp ache
Ġn od
L L
f ly
ĠBel g
ĠShe l
ì£¼ íĸī
Ġwhere ver
ĠHall oween
Ġprotect ive
sec urity
ìĺģ íĻĶ
ĠìĹĨ ìĿĦ
rol og
C ase
ê´ Ħ
Ġte nds
Ġinn oc
D ep
Ġ ^
u its
k it
Ġcl oth
Ġlau ndry
Ġins ured
Ġcontroll ing
Ġe ager
Ġê°Ģ ëĬĶ
ĠM it
ìĥģ ìĿĢ
Ġgradu ally
ĠD M
Ã ±
Des pite
Ġcomp assion
Ġt ennis
Ġepis odes
ĠC ry
ynam ic
sq l
Ġp aste
ĠD im
ang o
ĠD E
ĠJ ane
Ġprelim inary
Ġëĭ Ī
Ġf iscal
Ġinfl ation
ĠPract ice
p ush
199 8
Ġë¬ »
m other
ty pes
f oo
Î ±
ê°Ģ ìĿĺ
Ġconsult ant
/ .
ĠP ear
ĠB uff
ì¤Ģ ëĭ¤
Ġhoriz ontal
ê¸° ì¤Ģ
Ġicon ic
Ġpoll ution
ĠM and
ĠAl ab
Ġsp ir
ĠìŀĲ ì£¼
ĠH um
Ġ198 2
ĠT alk
ĠTh ings
o T
Ġrock s
Ġcorre ction
> &
1 30
Ġform ing
ĠBre ak
ì¹ ¼
Ġrecept or
Ġaddition ally
Ġm erg
Ġwra pped
z ero
ĠSim ple
Ġmagn itude
Ġsp a
ëĭ¨ ê³Ħ
Ġrece iver
ĠFl oor
Ġcol ored
ĠV eter
ĠJ ay
t ree
Ġ12 8
ĠL I
Ġ198 1
ë³´ ë¥¼
ê² Ĳ
L ong
ire ction
writ er
Ġmem orable
ĠDel hi
Ġstrict ly
Ġmy stery
ier arch
Ġcont rad
ĠPat rick
ê²© ìĿĦ
. (\[
íĭ ´
Ġrelax ation
Ġgener ator
ĠìĨĮë¹Ħ ìŀĲ
m ay
Ġrem edy
Ġgrow s
ĠVis ual
ĠI ss
Ġsh ipped
Ġë³Ģ íĺ¸
ĠìĤ¬ìĭ¤ ìĿĦ
Ä ģ
in ar
âĺ ŀ
U P
ick ets
Ġprov ince
ĠH E
b ottom
ĠìķĦ ë¦Ħ
Ġse ating
ì§ ĵ
Ġìĭ¶ ìĿĢ
ĠO P
Ġhaz ard
o ard
ëĮĢ ìłĦ
ct x
ĠExper ience
ëĮĢ ì±ħ
Ġacc idents
Ġdiscuss ing
Ġ\ {
¾ Į
or ig
ĠAccording ly
Ġê½ ĥ
ĠH al
Ġco aches
AB ILITY
ph y
Ġtox ic
Ġ0 3
Ġjack et
ĠJ ob
Ġag ing
ĠL ag
Ġconf usion
ch ing
ĠCreat ive
ĠCast le
by te
ĠF ollow
Ġterm ination
Ġm ad
Ġíķĺ ê¸°
ro se
ëģ Ķ
Ġres erves
A v
Ġìĭ¤ ìłľë¡ľ
ĠP B
Ġsens ors
spe ed
n i
V M
Ġvar ieties
ĠêµŃ íļĮìĿĺ
ra ined
ĠC ool
ang ular
Ġsubst itute
ëĭĺ ìĿ´
Ġ( *
ê´Ģ ìĿĦ
Ġn est
Ġfire place
b ool
ĠìĿ¸ ìĭĿ
ĠìĹĨ ê³ł
b uffer
Ġv inyl
ĠOk lahoma
ê³¼ ëĬĶ
Ġref err
au g
Ġdef ines
Ġtail ored
ìĿ´ ë©´
Ġë¶Ħ ëªħ
ĠN ation
Ġre aches
Ġëľ ¨
ĠëĮĢ ë³Ģ
Ġgr inding
Ġë¹Ħ ì¤ĳ
ë¥ ´ë
Ġsc ales
íĬ¸ ë¡ľ
Ġcan nab
ĠL ie
Ġìĸ¼ êµ´
ĠH an
E v
Ġtrou bles
ëĵľ ë¥¼
ĠA qu
ĠW W
Ġinquir y
d ouble
Ġcorpor ations
Ġaccording ly
ĠE ar
ĠGover nor
Ġwork force
ĠL ux
Ġìŀ¬ íĮĲ
W idth
Ġis lands
Ġíıī íĻĶ
Ġchalleng ed
Ġthick ness
ĠTem ple
å º
ef ined
ĠMar c
ê´ ´
Ã³ n
be at
f ill
ĠIs lands
Ġcoord inate
ì§Ģ ìļĶ
Ġregard ed
ĠìķĦ ë²Ħ
add r
Ġëĭ¤ìļ´ ë¡ľëĵľ
Ġacc red
se nd
ĠëĬ ¦
Ġir rit
Ġanim ation
Ġimp ress
ol s
par se
Ġprom ising
Ġpot atoes
Ġex pend
Ġle an
ĠDet ermine
å Į
Ġto y
ble m
l ar
Ġì¡° ìłķ
ĠìľĦíķ´ ìĦľ
Ġorient ation
ë¹ Ļ
Ġste re
Ġdefe at
ĠMin i
Ġexpect ing
ĠìĻĦ ìĦ±
Ġac ids
Ġdiscl osure
Ġ= ==
D ay
Ġn urse
Ġcell ular
ĠGalax y
ug s
ĠB esides
ĠìĿ¸íĦ° ë·°
ĠClass ic
Ch ange
ĠRes ults
ĠB ab
Ġser um
ë¬´ë ¶Ģ
Ġtreat s
ĠF inal
oen ix
Ġì´ ¬ìĺģ
Ġì§Ģìłģ íĸĪëĭ¤
ì§Ģ ë©´ìĦľ
ĠSing le
bo ot
Ġë³´ ìķĪ
ne ver
S y
Ġ-- -
ure rs
Ġn erve
ow ed
Ġm akers
r ant
gg ed
Ġfe as
Ġëª¨ ì§ĳ
00000000 00000000
Ġknowledge able
ëĤ ´ëĮĢ
Ġg ang
}\ ,
Ġcompet ing
ìĭľíĤ¤ ëĬĶ
Ġíļ¨ ìľ¨
Ġval ve
Ġimpro per
ĠM ove
h al
r ors
ê»ĺ ìĦľ
ĠFoot ball
Ġì±Ħ ëĦĲ
âĹ ĩ
ru b
Ġt une
Ġhand les
Ġsatisf ying
; </
ĠAlex ander
Ġprevent ing
Ġden ote
Ġmet all
Ġì į¨
Ġtechn ological
Ġqual ities
ĠD er
ĠR ow
Ġconv icted
Ġadd iction
z o
ëĤ ©
Ġvend or
names pace
d l
Ġin herent
ipp er
ê±´ ìĿĺ
Ġg est
Ġb ite
Ġë°Ķê ¿
ĠSim on
S ION
ĠLem ma
ĠAff airs
Ġback ed
Ġìĸ µ
Ġste ep
', '
Ġproceed s
off set
ĠíĶĮ ëłĪìĿ´
com merce
Down load
resp onse
ë¦¬ ë¡ľ
Ġë¹Ħë¡¯ íķľ
Ġc rop
ĠRest aur
= (
ĠS i
Ġar med
Ġprivile ge
Ġrecip ient
Ġmob ility
Ġpart ition
Ġthe ater
ĠìĤ¬ ëĿ¼
P H
Ġspeed s
al g
Ġden ial
Ġanalys es
ĠUp on
il ib
Ch rist
uis ine
Ġê²ĥ ìĿ´ëĿ¼ëĬĶ
Ġprogress ive
Ġìŀ ĥ
Ġë¨¸ ëĭĪ
sh ould
Ġro d
Ġìŀħ ìŀ¥ìĿĦ
he alth
Ġcon clusions
Ġë°Ķíĥķ ìľ¼ë¡ľ
ĠìľĦíķ´ ìĦľëĬĶ
u ke
ĠK a
m ind
D av
Ġê³µ ìłķ
' ),
Ġtw ist
Ġtable ts
anc ouver
ĠM uch
om as
er ver
at ar
ãģ Ħ
ìĭĿ íĴĪ
Ġqu eries
Ġdest ruction
ĠCh ap
ĠE M
Ġìŀ¬ ë¯¸
Ġ Ø
ë¡ ¤
ĠW ire
Ġbase ment
us hes
Ġspeak s
el se
ĠìĬ µ
Ġíĥ Ĳ
x ide
Ġíķĺ ëĭ¤
ĠS ac
ad i
ĠVal ent
ĠëıĻ ìĿ¼
ì¤ĳ íķľ
ĠUn like
D D
N on
Ġsustain ability
ĠëķĮ ëĬĶ
ëĥ Īëĭ¤
ĠëĮĢ ì²´
atch ing
ĠG il
Ġdifferent ial
B ased
1 12
Ġcon form
ail and
act ic
Ġëĭ¨ ì²´
Ġprot est
ĠMar ine
Ġ19 79
er red
Ġdiagn ostic
R un
Ġìĭł ê²½
Ġblock ed
Ġf ancy
Ġelder ly
i op
Ġrenown ed
ĠCl inton
Ġre wards
Ġìĸĺ ê¸°
List ener
ph oto
ur able
ĠC BS
Ġv ocal
ë¶ģ íķľ
Ġrem and
Ġt ar
Ġr uled
Ġtw elve
Ġìĭľ ë¦¬ì¦Ī
ro le
ov o
Ġk ernel
Ġto ss
ow ered
ĠE ve
ìķĦ ìķ¼
Ġë ĩĮ
Ġê°Ļ ìĬµëĭĪëĭ¤
Ġjun ior
ĠR oy
ĠLe on
Ġd ense
Ġintellig ent
Ġinfect ions
ĠC I
Ġmy ster
Ġbund le
Ġport al
Ġ ic
Ġë ķħ
ĠS now
¿ Į
Ġland s
Ġcomp aring
ĠR an
erv ices
v ised
ĠìĿ´ë£ ¨ìĸ´
ë© ĺ
ĠDe ad
ing le
ĠO tt
z ens
Ġtour ists
Ġl amp
place ment
Ġh iking
Ġinc ons
ìĺ¬ íķ´
ĠC art
Ġfle et
ĠCommun ications
Ġg low
Ġmerch and
ĠIsl am
ĠBeaut iful
Ġconduct ing
Ġ1 19
ìļ° ëĬĶ
Ġdepart ure
íĹ ¤
ĠDI Y
Ġorgan ize
Ġo scill
ĠE lement
Ġsymm etry
Ġscen arios
æ ³
ìĭ¬ ìĿĦ
ĠAlab ama
b es
Ġscholars hip
Ġess ence
5 000
g ins
Ġíķĺ ë©°
Ġg ri
ê³ł ë¥¼
ogen ic
Ġpropos als
Ġleg ally
ĠìĦł ë¬¼
Ġdo zen
Ġëģ Ĭ
D ist
Ġmagn et
Ġbrow se
off s
ê´Ģ ìĿĢ
Ġattend ance
ìĸ´ë³ ´
ĠM B
op ed
Ġpharm ac
ol ine
ĠUn less
Ġpeace ful
w ick
Ġimag ination
Ġhe al
set t
N G
ê³µ íķŃ
Ġl i
b ad
Ġn ail
ëħĦ ëĮĢ
f ather
Ġne at
Ġlawsu it
Ġìķ½ ìĨį
Ġ10 5
ê´Ģ ëł¨
ah a
Ġf oster
Ġentreprene ur
êµŃ ëĤ´
Ġhigh way
ĠUS D
íı¬ íĬ¸
Ġë¶Ģ ìłķ
Ð ²
ĠC os
Ġun employ
ut her
ĠE mb
Ġint rig
Ġer red
ry ing
ĠS S
ìĸ´ë §
W rit
ĠìĤ¬ìļ© íķł
IT ED
Ġìļ¸ ìĤ°
or ical
Ġe ars
Ġê¸°ìĪł ìĿĦ
Ġaud iences
ìĹ°êµ¬ ìĨĮ
ĠH T
Ġign ored
Ġrank ing
ĠLa ure
ĠF if
Ġdocument ary
Ġconvin ced
Y S
or ious
Ġdistrib ute
Ġë§ŀ ëĬĶ
ĠW y
Ġc od
ìĶ ¬
Ġnews letter
az y
Ġ0 6
Ġê²Ģ ìĤ¬
itar ian
Ġì¡° ìŀĳ
sell ing
ap olis
ĠIsl amic
ìľ¨ ìĿĢ
Ġcolor ful
iv o
ĠJ ason
ĠP ick
Ent ry
ess ed
Ġsix th
Ã Ĺ
ĠëłĪ ìĿ´
ê´Ģ ìĿ´
ge red
v ens
ĠìĥģíĻ© ìĹĲìĦľ
Ġsuggest ion
ĠJew s
Ġbo ats
Ġper ception
ĠMex ican
Ġphys icians
Ġl ap
Ġsequ ences
Ġdev oted
A K
Ġany time
ĠíĬ¹ ìłķ
ĠNether lands
ĠG O
Ġmac ro
Ġclos et
Ġsub str
Ġroll ed
Ġsp ell
ĠM oh
íĮ Ķ
Ġìĭľ ìłĪ
W R
Ġcitiz en
´ëł Ī
Ġ ),
ĠCom mercial
Ġcomp elling
ĠAll iance
ĠìķĬ ìĬµëĭĪëĭ¤
ĠS pecific
MA X
et ition
v m
ĠIsrael i
ë¯¼ ì£¼
o ons
Ġcontrib uting
ë´ Ĳ
Ġ+ /-
Ġaud it
Ġsoc cer
Ġso ap
IC ENSE
Ġtransform ed
Ġbless ed
ĠDen ver
ĠR O
Ġê¸° ìĤ¬
ìłĦ ëŀµ
u ations
Ġb ol
Ġlog ical
ĠAg ric
ĠHigh way
Ġpur ple
Ġë¶Ī ìķĪ
Ġvis ibility
V I
ëĤ ´ë
om eter
Ġbet ting
en v
Ġcontact ed
em n
ĠìĽĲ ëĤ´ëĮĢ
Ġquant ities
Ġnut s
b at
ĠêµŃ ë°©
Ġfunction ing
Ex ec
Ġtri ple
Ġt ropical
ist ence
Ġspect ral
Ġminim ize
Ġdist ricts
P ay
ant ry
ë§ Ľ
riv ial
íĺĳ ëł¥
Ġunf ortunately
ĠAdminist r
Ġstra w
att r
Ġsil ent
ĠT ool
add ress
Ġëĭ¹ ìĦł
iag ra
ol utions
ĠDefend ants
Ġrend ered
Ġadjust ment
ĠìĿ´ ëĭ¬
Ġìĭ¬ ê°ģ
m art
Ġst eal
ĠH i
aren cy
ĠAf ghan
ë¨¼ íĬ¸
ĠBel ow
Ġse gments
Ġst ones
ĠM ix
Ġval ued
ar ia
Ġìłľê³µ íķĺëĬĶ
h ill
Ġf ut
Ġpres cribed
ĠCom plete
ĠAn ne
Ġsh ield
row ave
ĠìĪľ ê°Ħ
æĺ ¯
Ġìĺ µìħĺ
ĠD or
Ġt itled
ĠN urs
Ġcomp ound
Ġspecial ly
Ġê³µê°Ĳ ìĸ¸ë¡ł
Ġlad ies
o ft
Ġanticip ated
ëŁ ´
ĠB rew
s pec
Ġcare ers
Ġë§Ī ìĿĦ
Ġz ip
ĠI BM
Ġdom inant
Ġdelight ed
Ġclean er
Ġì» ¬
Ġt ear
Ġsent ences
Ġinvest ed
Ġspons ored
ĠB us
ĠB at
ĠP ier
ĠOlymp ic
ĠCo oper
Ġê¸° ìķĦ
Ġb icy
Ġb ones
Ġcross ing
S ET
Ġinter rupt
Ġcom edy
ĠìĦ¤ ê³Ħ
qu al
Look ing
Su per
Ġch ains
ĠChair man
ĠC ash
for ced
ĠB ag
' $
Ġ< =
íĺĦì§Ģ ìĭľê°Ħ
Ġthe ft
Ġconj unction
Ġshel ter
Ġe arning
Ġrespons ive
id av
Ġsing ular
Ġfac ial
Ġdeb ug
Ġp ine
Ġbuild s
igen ous
Ġforg otten
se x
Ġì¸¡ ìĿĢ
ĠEqu ipment
ber ries
ens ively
ìłĲ ìĹĲìĦľ
Ġâ Ĩ
Ġ0 5
ĠE le
S pec
ful l
Ġm esh
ĠMon th
! ).
ë¡ ±
Ġsh ades
am ents
Ġdenomin ator
ĠCl ient
qu et
ëª ¬
le ading
ëªħ ìĿĢ
ĠìĽĲ íķĺëĬĶ
Ġben e
p he
Ġspecial ty
Ġvis a
Ġdescrib ing
Ġdoct rine
Ġe uro
wide hat
Ġê²½ íĸ¥
Ġabandon ed
ëĵľ ë¡ľ
ĠFurn iture
Head er
Ġì£¼ ë¡ľ
Ġë³´ ìŀ¥
Ġë§ŀ ìķĦ
el and
ĠDef ense
Ġsupp orters
c ert
Ġfall en
Ġcollabor ative
ment ed
ĠP ART
Ġdistinct ive
ag ine
ĠìĻ Ķëĭ¤
ne q
ĠCommission er
anc ies
ìĺĢ ìĬµëĭĪëĭ¤
íķĺ ëĿ¼
ĠMan ual
ill ance
Ġseason al
g rid
Ġshow case
Ġemb race
O p
Ġeas iest
Ġapplic ants
Ġdemand ing
ph an
Ġcolle ges
ì£ ½
Ġì£¼ìŀ¥ íĸĪëĭ¤
ĠCurrent ly
ir s
Ġë ļ
Ġlux urious
ì° Į
if ice
al ink
Ġaccess ed
b ird
10 5
H ello
Ġjud ges
ĠO pp
ĠWITH OUT
Ġw ed
Ġautom ation
Ġcou rage
R NA
ar ound
Ġflo ating
Ġsufficient ly
Ġcomb ining
Ġpain ful
Ġst ating
Ġt ears
th ur
ĠT otal
Ġpan c
Ģ ëĭ¤
O ption
ĠRes erve
íĬ¸ ëĤ¨
ĠAd vis
íļĮ ìĹĲ
Cont act
Ġdemonstr ates
Ġun limited
ĠíĻķ ìĭ¤
Ġfig ured
ĠMc G
ĠìĿ´ìľł ë¡ľ
ak h
ĠìĤ¬ëŀĮ ìĿĢ
y our
Ġamend ment
Ġby te
ĠSchool s
ĠSc ript
su ccess
Ġabund ance
Ġfest iv
Ġo xid
ign ment
W orld
Ġìłķ ìĿĺ
ĠCh i
ìĦ± ìŀ¥
ìĿ¸ ê³µ
und le
re ach
ìĭł ì²Ń
ĠB ird
Ġëģ ¼
ĠRel ations
Ġvessel s
Ġarg s
I E
in ters
Ġexist ed
ĠSt orage
if iers
ĠìłĦë§Ŀ ìĿ´ëĭ¤
´ë ŀĺ
Ġê° ¤
Ġaff airs
Ġdisappoint ed
Ġcoord inates
ĠìĪĺ ëĬĶ
Ġê²Ģ ì¦Ŀ
18 0
ĠB attle
ĠS ide
Ġtrad itions
miss ible
Ġgro cery
ox y
ĠíĮĲ ê²°
Ġnutri ents
Ġëĭ¬ ìĦ±
Ġr ush
ĠL ane
ock er
ential ly
ĠHer itage
Ġë°ĺ ëĵľìĭľ
ex ample
ĠíĻľëıĻ ìĿĦ
ë¥ł ìĿ´
roph y
ord on
ĠìĨĮ ìľł
ĠíķĦìļĶ ê°Ģ
ĠEnter prise
Ġcorrespond s
ĠìłľíĴĪ ìĿĦ
ĠT X
d x
Ġpull ing
Ġmarket place
h h
Val id
Ġmass es
Ġarchitect ural
Ġë Ŀ
ĠÐ ¿
Ġprospect s
ĠìĹĲ ìĸ´
Ġbu ck
Ġë¹ Ľ
Ġdecl ined
* -
Ġinter mediate
ar ms
ĠP HP
Th ree
m ate
ĠFore ign
Ñģ ÑĤ
f inal
us cript
Ġper missions
Ġd ont
Ġdispos al
al so
ĠE P
ĠëĬĲ ëģ¼
Ġchart s
Ġep id
Ġin hab
ĠSt ra
ê°ľ ë¥¼
Ġin cl
Ġport ions
Ġwell ness
ĠMor gan
Ġ10 4
Ġìŀ¥ ì°©
Ġcamp ing
sh ift
Ġê²¨ ìļ¸
St ore
Ġìłķ ë¦¬
Ġdri ed
AP I
}^ \
ĠíĶĦëŀĳ ìĬ¤
Ġw elfare
Ġbenef ic
Ġìŀĳ ëħĦ
F urther
Or der
Ġcam ps
em ade
Ġì²ĺìĿĮ ìľ¼ë¡ľ
Ġdem o
Ġhas h
ĠS ony
ĠL aur
Ġë§¤ ìŀħ
rit is
ë²ķ ìĿĦ
Ġmagn ific
ĠChall enge
Ġabs ent
ĠIn sp
ĠíķĦìļĶ íķĺëĭ¤
ìłĦ íĻĶ
Ġëªħ ìĿĺ
V ery
pro ve
Ġcost ly
ĠCour se
Ġt ong
ĠNever theless
ix el
Ġeas tern
Ġdivis or
Ġlik elihood
ĠH o
ĠR ot
Ġdest inations
Ġc ort
ol ph
ĠK it
ĠPh arm
Ġal umni
ĠB ol
st ock
Ġìłķ ë¹Ħ
Ġvol umes
ĠìŀĲìĭł ìĿ´
ëĭ¹ ìĿĺ
ĠìĹ ĺ
Ġmed itation
ĠM ission
ĠìķĦ ë¬´
Ġbene ath
ìĹĪ ì§Ģë§Į
ĠW at
Ġst olen
Ġsche mes
f iles
\ ^
Ġcor ners
Ġhome work
ìľ¼ë¡ľ ë¶ĢíĦ°
ĠC ould
Ġë§Ĳ ìĿ´
Ġgra des
u h
Ġstart up
or ia
Ġthe orem
ĠKent ucky
l ocation
ink le
ĠG h
ĠíĪ¬ ìŀħ
Ġ10 2
ĠG ate
Ġelectron ics
ĠAct ive
Ġcr ushing
Ġven ues
Ġst ellar
Ġê¸°ëĬ¥ ìĿĦ
ê°Ģ ì¡±
ĠUt ah
ĠR ain
ĠR ap
ĠCom merce
Ġíĺ¹ ìĭľ
Ġt el
Ġìĺ¤ íĨł
Ġdress ing
ĠE c
ific ates
Ġëĳĺ ëŁ¬
Ġì Įĵ
app ropri
l ies
Ġinte nd
Ġíŀĺ ìĿĦ
ick ed
Ġpre view
Ġ$ (\
ìļ° ëĵľ
ar se
C ore
R T
Ġdelet ed
am on
Ġexpress ions
Ġê¸° ì´Ī
ĠëıĦ ì°©
h ave
ĠP H
cept ions
Ġclar ity
Ġg al
ĠV it
ĠAl ong
ĠS ov
Ġ19 78
Ġo s
ĠPe ace
ĠScott ish
Ġcomb inations
Ġsyn chron
Ġë°Ķê ¾¸
Ġì£¼ ëıĦ
Ġgra vity
Ġpen et
Th ose
L ocation
old er
IN S
Ġrefer ring
ĠDe ep
Ġindic ator
ĠPrem ier
ĠEmp ire
Ġassist ed
t le
Ġnob ody
Ġëıħ ë¦½
ĠB row
Ġanc est
Ġmodel ing
Ġinstruct or
Ġdisag ree
Ġê³ł ìĨį
ĠìĤ¬ ìŀ¥
ìĺĪ ìĪł
ĠL ater
Ġcry st
Ġclimb ing
Ġden y
Ġport s
men u
Pro duct
ìľĦ ë¡ľ
s cope
ì§Ģ ê¸Ī
Ġìŀ Ń
Ġìĭ ±
ĠPalest in
ĠM ir
ĠëĮĢ ì¤ĳ
q quad
Ġê°ĲìĤ¬ íķ©ëĭĪëĭ¤
ëĭ Ĳ
Ġapprec iation
Ġph ases
Ġco ins
ë§Į ëĤ¨
Ġê·ľëª¨ ìĿĺ
Ġë§ŀ ì¶°
Ġapplic ant
Ġëħ¸ ëŀĺ
Ġg am
Ġca f
ĠD ump
Ġtremend ous
ĠNig eria
Ġfant asy
Ġagric ulture
b us
Ġj am
ĠSim ilarly
ĠSpe ed
Ġhighlight ed
ëŀ Ĳ
ĠêµĲìĪĺ ëĬĶ
S ection
........ ........
ĠM ind
ĠìĻĦ ë£Į
ĠT arget
ìĽĲ ê³¼
id el
ĠSt ay
Ġhe ated
out heast
Ġmat ched
Ġprogram mes
t own
ore sc
ust ain
ĠDes cription
he art
ur d
P erson
ë§Į ìĿĦ
Th read
pl ane
Ġë¶Ī íİ¸
Ġo h
b c
ãĥ ¼
íŀ ĺ
Ġclos ure
i ative
Ġtext s
ĠSpr ings
Ġì į
Ġassign ments
ĠAr ray
íİĺ ìĿ¸
Ġalbum s
Ġout line
ke nds
App lication
ĠS A
ut ives
B E
Ġsynt hetic
ĠRead ing
Ġphenomen on
ĠBit coin
Ġhand ed
V P
ĠCle ar
Ke ep
Ġêµ¬ ìĨį
Ġconfig ured
gu ard
en z
ë¥ Ļ
M c
Ġenc oding
ëĵ± ê¸ī
Ġc ure
Ġí Ģ
roll ed
ê±° ìļ´
iz ers
Ġrecycl ing
oc a
ĠìķĪ ìĹĲ
ë¬¸ ìĹĲ
look ing
Ġthere of
Ġfree ly
s n
ë Ĵ
is ons
Ġìĭľ ì²Ń
ìĨĮ ìĹĲ
Ġì°¨ ë³Ħ
Ġgar bage
Ġ à¤
ĠF IG
ĠSt yle
Ġoccur ring
Ġadapt ed
Ġany body
ĠV ancouver
Ġw age
Ġintern ationally
ad ays
er on
ê¸° ê³ł
Ġv oices
êµŃ ê°Ģ
Ġl ighter
ë¬´ ë¥¼
ĠìĹĨ ëĭ¤ëĬĶ
rem ove
Ġë¬¸ ìŀ¬ìĿ¸
Ġinflamm ation
ĠV A
T AG
ĠâĢ Ŀ
ĠëĤ® ìĿĢ
ĠìĪĺ ë°ĸìĹĲ
N N
Ġtro ops
doc s
Ġpip eline
ott age
ch a
Ġabsor ption
ĠG ene
ĠC e
íĮ ©
br is
* )
math sf
Ġintrodu cing
Ġìľł ìĿ¼
ìłģ ìĿ´ê³ł
Ġsh ore
ĠN ik
Ġge ometry
ĠG ulf
ache l
Ġcount less
d ings
IC T
ì¶ľìŀ¥ ë§ĪìĤ¬ì§Ģ
f amily
Ġìļ´ íĸī
ìĹ¬ íĸī
Ġì²Ń ìĨĮëħĦ
ĠìĽĲ ì¹Ļ
Ġìľł ë¦¬
Ġm ock
Ġê´ľ ì°®
ffic iency
Ġfol k
Ġstruct ured
AV E
ĠìĿ¼ ìłķ
D IR
Ġh un
} +\
Ġsol ved
Ġch amber
ĠìłĢ ìŀĳê¶Į
ëĿ¼ ë©´
O H
Ġautom obile
Ġfavor able
ìĿ´ ëĦĪ
ĠInt ellig
Ġê²ĥ ìĹĲ
Ġo d
Ġsupp lements
ĠìķĪ ëĤ´
Ġfavor ites
Ġmort ality
y cle
ìĤ¬ ëŀĮ
Ġd a
Ġte aches
ëģ Ŀ
ant e
olog ically
ìłľ ëıĦ
is an
Ġbar riers
f un
igh ters
Ġê²½ ëĤ¨
Ġìłľ ëıĦ
sh ore
âĨ ĳ
ĠíĴĪ ì§Ī
Ġob j
R ange
Ġinfin ite
Ġround s
Ġup set
ĠCert ified
ĠV PN
ìĺĢ ëįĺ
ĠO s
Ġsc rap
ë¹ Ľ
ĠCon vention
ĠQue ens
ĠLouis iana
Ġ- \
che stra
ĠP il
ĠY OUR
ĠWrit ing
ĠMe eting
Ġexpl aining
Ġrecruit ment
ĠìĻ¸êµŃ ìĿ¸
Ġcelebr ating
ë°Ľ ìĿĢ
Ġê¸° ìĹ¬
pl ed
ãģ Ļ
ĠëĤĺìĺ¨ ëĭ¤
ĠìĿ´ ë¥¸
itzer land
Ġinsu fficient
Ġbel oved
Ġhand ful
ìģ ĺ
Ġmaxim ize
b as
Ġp ension
æ Ń
ĠTh ailand
ĠìĿ´ìķ¼ ê¸°ë¥¼
ìľ¼ë¡ľ ëıĦ
ĠëĨĵ ê³ł
v ia
Ġstrength s
ĠCar ib
ur i
Ġê¸° íĥĢ
ì£¼ ê°Ģ
ĠPy thon
Ġ3 000
ĠìĤ¬ ëĬĶ
sk i
Ġë²ķ ë¥ł
ac les
Ġco in
Ġsuspend ed
ĠìĨĮ íĨµ
ĠPort land
Ġp ays
Ġbuild er
Ġsurve ys
ä ¼
ìľ¼ë¡ľ ìĦľ
ĠW E
ĠëĤ¨ ìĦ±
Ġcompr ises
agn etic
Ġu k
ë§Ī ìĿĦ
ë¦¬ ìĸ´
Ġt id
íķĺ ê²łìĬµëĭĪëĭ¤
ĠQu est
Ġaccept ing
w idget
Ġmole cules
Ġclust ers
B P
l an
ont in
Ġdig est
Ġviol ations
Ġbl ame
ad vant
ĠF unction
AN G
Ġapp et
ê½ ĥ
l it
Ġprosec ution
c ustom
Ġë°± ìĭł
ĠìĿ´ ê³³
Ġrest ored
Ġk its
sc ape
S che
ĠMat thew
Ġviol ated
Ġcl im
Ġj azz
Ġë¶Īêµ¬ íķĺê³ł
Ġ5 000
Ġm ud
Ġê·¸ ëħĢ
ë²Ħ ìĬ¤
ĠìĤ¼ìĦ± ìłĦìŀĲ
Ġì´ī êµ¬
pect ives
íħĮ íģ¬
ìĨĮ ê°Ģ
W indows
ĠìĹĦ ì²Ń
Ġinter section
199 7
ĠB h
ĠA th
Ġs ons
Ġind ication
ëĳ Ķ
Ġan ger
um bers
ĠIn v
Ġlist ings
ë¬´ë £Į
ĠìļĶ ì¦ĺ
oles ter
ìĭľ ê°Ģ
ĠH op
f d
Ġt ies
Ġver tex
Ġalign ment
Ðµ Ð½
Ġcirc ular
ĠR V
Ġ$ |
ĠPlaintiff s
Ġb ind
ĠC F
Ġë°Ķ ëĭ¤
ĠëĤĺ ìĻĶëĭ¤
ĠReg ion
ERR OR
u ity
az ines
ĠCl aim
Ġìµľì´Ī ë¡ľ
Ġì¡° ì¹ĺ
Ġm eth
Ġsn ack
ĠAl ways
Ġpoly nom
L O
Ġclaim ing
d riven
sc r
ĠA w
Ġíĸī ëıĻ
Ġinvest or
ĠComm and
Ġbroad er
ard less
Ġb out
Ġconserv ative
ans hip
ĠP as
ê·¸ ëŁ°
Ġad hes
ĠìĪĺ ê°Ģ
ĠPh ill
Ġm sg
Ġblog ging
Ġ} )
Ġen act
íı¬ ì»¤
Ġê°Ī ëĵ±
ie re
ìľ¨ ìĿĦ
Ġìĺ ¥
ĠìĿ´ ìĻĢ
êµ¬ ìĿĺ
Ġê°Ŀ ìĭ¤
Ġrec overed
ĠMiss iss
ĠC rit
H ost
ason able
Ġimpro ves
Ġpl umbing
ĠM ail
Ġrepeated ly
li est
ĠL am
C V
ĠV R
ĠD ifferent
Ġsqu ad
AS H
re nder
h ash
st age
d ra
Ġl ounge
Ġfl aw
is ers
Ġl attice
Ġê±´ ì¶ķ
Deb ug
ĠìĿ´ ìŀ¬
} );
Ġl obby
ìĬ¤ëŁ¬ ìļ´
ìĤ° ìĿĦ
ìķĪ ìĹĲ
qu er
Ġë°ĺ ëıĦì²´
ĠG ab
ê²¨ ëłĪ
ĠC OUR
ĠMot ion
ë° į
olog ic
íĻ Ī
W est
Ġdef ensive
Ġdis abilities
ĠTechn ical
ìĬ¬ ë¡¯
ĠSur vey
Ġ ....
Ġ10 6
Ġtast y
ê³µ ëĭ¨
Ġìľł ì¹ĺ
Ġgen re
Ġit er
Ġtun nel
Ġchar m
Ġh ood
Ġang ry
ĠíĨł ë¡ł
ĠëĮĢ íĻĶ
par ams
ìĽĶ ìĹĲ
Ġsim ilarly
Ġu pt
pt ic
p al
íĭ° ë¸Į
w he
ë§İ ìĿĢ
Ġê´Ģìĭ¬ ìĿ´
âĹ Ĩ
Ġfl ip
Ġhes itate
Ġt ires
ĠGree ce
Ġthrow ing
Ġn ick
m outh
Ġtra uma
as ures
Ġdom ains
ĠC ulture
ount ered
Ġtomat oes
ĠR ent
ĠS ri
ĠìŀĲ ìľ¨
ëŀĢ ëĭ¤
ìĿ´ ìķ¼
Ġautom otive
Ġoccup ied
OW N
ph ant
ipp i
ac o
Ġìł ĬìĿĢ
Ġinv itation
Ġdistingu ish
B ay
Ġmem or
Ġmaint ains
Ġillustr ated
Ġd w
ĠìĤ Ńìłľ
** ,
ĠF resh
Ġcon ferences
rep resent
Ġg aining
ET H
Ġbelong s
Ġext ensions
Ġc ups
Ġseem ingly
Ġê¸°ì¤Ģ ìľ¼ë¡ľ
st ick
Ġcalc ium
port ed
ĠF C
å ·
ëħ ¼
ì§Ģ ìĻĢ
ĠL iter
ab ases
em ic
ç Ľ
ĠëĤĺ ìĦł
å ¹
ĠS ug
Ġgalax y
Ġh ike
ë§Į ìĿ´
Ġë°Ŀíĺ Ģ
Ġg em
ìĿ´ëĿ¼ ë©´
Ġf ridge
ĠAnth ony
Ġ19 75
ĠE S
oc he
ĠMag ic
Ġbo oth
augh ters
Ġê² ¸
ĠF le
ĠB irth
d est
Ġ é
ic ut
ĠìľĦì¹ĺ íķľ
ĠFl ash
ĠRem ove
ĠC her
Ġper ceived
ëĤ´ ëĬĶ
ĠF alls
Ġ& \
ĠH ad
ĠìĽĲëĤ´ëĮĢ íĳľ
ĠOrgan ization
ìĸ´ë ¯¼
ĠëĤĺìĺ¤ ëĬĶ
ee k
r in
ëľ »
M ac
ĠìĪ ł
ĠìĦ¤ ìłķ
Ġenc ountered
ĠDemocr ats
th read
Ġìĭľ ê°ģ
S ur
}^{ (
ëĭ¹ íķľ
at tered
ĠMc K
Ġactiv ated
Ġkey words
Ġsl ice
ĠìĹ´ ê³ł
ë£ ¡
Ġval ley
Ġc oding
Ġsear ches
Ġcir cles
Ġden ying
Ġtiss ues
íķĺ ìĭľëĬĶ
ĠR ol
ber y
Ġc ous
Ġw ax
c ost
ê·ľ ì¹Ļ
th al
v able
ĠN eb
i ological
Ġdistrib utions
Ġsam pling
Ġcy cles
ĠëĤ¨ ìķĦ
ĠD ocument
b ie
Ġhomeown ers
Ġë³´ ìĺĢëĭ¤
Ġmet rics
J an
Ġsupport ive
ĠìļĶ ê¸Ī
Ġsing les
qu es
Ġelev ated
ll a
Ġbre ed
Ġê±° ë¦¬
ĠMalays ia
ëĶ° ëĿ¼
Ġb other
Ġp ars
c pp
ĠSwed en
ìłĲ ìĿĢ
Don ald
ĠìĪĺ ë¦¬
199 6
ìĤ¬ ìĿ´
íĴ Ģ
ĠH om
. $
am ins
ĠResp ond
iz ard
ĠLet ter
ograph ical
N E
ĠC raft
Ġappear ing
En c
Ġdeterm ines
ig s
Ġë¬´ë ĮĢ
Ġëĭ¹ ìĹ°
Ġappro ached
v ance
ĠEd itor
Sh ow
> \
ë¦¬ ëĵľ
Ġspect ra
Ġins ulin
ĠDet roit
equ al
ë¬¸ ìłľ
ĠA F
Ġd irty
itt y
ìĿ¸ ì²ľ
Prov ider
Ġp ione
ĠFriend s
âĶĢ âĶĢ
Ġwind s
ĠM aking
Ġpolit icians
íĻĢ ëį¤
ĠìķĦ ë§Ī
ipl inary
ĠD un
ĠìłĦ ëĤł
Ġout let
ir atory
ĺ ĳ
RE F
enc il
Ġt v
Ġë°° íĦ°ë¦¬
ĠM E
Ġoff ensive
Ġinform ative
Ġto ll
ë¶Ģ ìĻĢ
íĴĪ ìĿĦ
ĠLet t
ĠSy ria
sh ine
Ġexp ed
] \
ĠJac ob
Ġconnect ivity
Ġappeal ing
Ġact ed
ĠíĶĦë¦¬ ë¯¸ìĹĦ
ad get
ĠìĨĶ ë£¨ìħĺ
Ġê¾¸ ì¤Ģ
le ans
Ġcomp ute
ĠìĦł ìĸ¸
res ist
lish ing
St ar
Ġì¡° íķ©
Ġj unk
ìľĦ ìĿĺ
Ġremind ed
reg ular
ĠíĪ¬ íĳľ
ĠW ind
ĠÌ ģ
g it
Ġê²½ìļ° ìĹĲëĬĶ
Ġveter an
Ġpe ers
Ġswe at
nd ant
bb ed
ĠíĿ ¡
che ll
Ġres il
ê¶Į ìĿĺ
Ġgun s
Ġ ^^
Ġviol ent
å ¾
Ġqu it
Le ft
ĠPhilipp ines
Ġdo zens
ĠO cc
OM E
íĿ ¡
ĠPri ze
hed ral
ĠD ance
st airs
Ġd ive
ĠP in
Ġê²°ê³¼ ë¥¼
ĠIn clude
Ġrem inder
Ġadvent ures
Ġíı¬íķ¨ íķľ
ĠëĲĺ ì§Ģ
ĠCoun sel
Ġë°© ìķĪìĿĦ
Ġê¹ Ĭ
S ch
b ot
Ġl enses
Ġcle ans
Ġpoint ing
ĠN ative
Ġë§Ī ì°¬
J oin
Ġclean ed
i aries
su per
ĠíĽ ¨
P tr
N Y
ur ring
Ġsqu ee
Ġtrans cript
19 95
ff e
Ġth umb
Ġglob ally
ul ative
ìĹŃ ìĿĦ
ik ip
Ġpromot ional
ì¡° íķ©
Ġhas s
Ġë¸Į ëĿ¼
Ġdelay ed
ĠìĬ¤ íĨł
Ġmach inery
ĠInt el
} "
gl as
Ġíķĺ ìĿ´
Ġtrans mit
re ction
Ġs ail
ĠìĤ¬ìĭ¤ ìĥģ
ĠNe v
Ġb ust
Ġaffil iate
acter ial
m ith
ĠAss ess
ãĢ ī
Ġbehavi ors
low er
ĠL ot
ĠB ron
Ġtra ins
Ġë°° ê²½
ĠOther wise
Ġeth ical
m eta
Ġprof ound
ê º¼
Ġnew er
Ġded ication
ir us
ĠC ondition
Connect ion
Ġìŀ¬ ìłķ
Ġprev ents
p read
ĠSt op
ĠSu ccess
Ġd os
ìŀ¥ ìķł
Ġw ides
Ġê·¼ ê±°
ìĭľ ë¯¼
âĢ »
ĠW rite
ĠE L
Ġbrief ly
Ġnames pace
ĠWh it
ĠAd ditional
G T
on ge
Ġemerg ed
ne ath
Ġchampions hip
Ġnegot iations
Ġdist inction
ĠCo ffee
Lear n
opp er
ĠM ars
ëį° ìĿ´íĬ¸
ĠíĻľìĦ± íĻĶ
Ġbl ade
pr ison
ģ íģ¬
êµŃ ìĿĢ
ĠMedic are
Ġg rip
ĠS ud
ĠBet ter
íķ ´ë³
Ġassoci ations
Ġapprox imation
ĠSc reen
Ñ ĩ
Ġdial og
Ġë§Ī ë¬´ë¦¬
ê±° ëĵł
Ġadjust able
Ġdur ability
Ġa ug
Ġì£ Ħ
G en
Ġìĺ Ĩ
com ed
Ġsc ream
Ġp ants
Ġbas ics
Ġëĳ Ķ
Ġh arsh
ĠEx cel
ĠR ab
Ġ ----------------
Ġrespond ent
ë°Ķ ëĭ¤
def ined
Ġ2 20
Ġhonest ly
Ġnot ify
Ġpred iction
ig ue
Ġbre w
ur u
âĺ ħ
Ġdim in
* .
ĠMon te
Ġcon vention
Ġcand y
ĠM L
Ġveget able
ĠPan el
n n
FOR M
F ollowing
im ore
N av
st ration
10 2
Ġíĺ¹ ìĿĢ
ĠCapt ain
P res
tain ment
ĠN ort
Ġback yard
ĠG i
Ġde bris
Ġ19 76
ë©´ìĦľ ëıĦ
Ġsuper vision
Ġcoast al
Ġë³´ ì¡°
Ġhere in
Ġhealth ier
ĠT ogether
S ave
ĠTur k
ĠPro ced
ĠìĨĮ ëĵĿ
ĠRes ource
Ġwe ights
ĠO ption
fl u
Q ue
s chool
ĠêµŃ ë¦½
Ġmus h
Ġë´ Ħ
Ġcompet ent
ĠìĿĺ ìĤ¬
íĨµ íķ©
Ġpromot ed
ì£¼ ë¥¼
P osition
ion ed
Ġsent encing
Ġhuman ity
ps y
ĠìĿ´ìľł ëĬĶ
Ġê³ł ê¸ī
med ia
Ġëī´ ìļķ
m ia
d ated
lay er
¨¸ ëĭĪ
Ġworth y
ĠD raw
ĠR ick
b rew
Ġì§Ģ ìĭĿ
. :
t mp
Ġë¹ ħ
aut h
Equ als
Ġsh r
urch ase
Ġëħ¸ ì¡°
ĠG ib
Ġsh ine
è ¦
ĠìĻ Ķ
Ġswitch ing
ilib rium
Ġtarget ing
Ġtechn icians
M s
ì§ģ ìĽĲ
; &
Ġb il
ĠWARRANT IES
ëħ ģ
ĠM i
ĠíļĮ ìŀ¥ìĿĢ
) }$
agon al
ĠH ung
ĠìĺģìĹħ ìĿ´ìĿµ
Ġmult ip
Ġ10 3
ĠBook mark
pi racy
om al
it ual
Ġ( (-
Ġë§¤ ëħĦ
Ġd b
Ġd ressed
ĠCh amber
bar a
ap or
Ġdram atically
)) /(
Ġpo inter
ĠAl aska
Ġë§Īì°¬ ê°Ģì§Ģ
ar o
D raw
EF A
ĠH ERE
Ġown s
ì¦Ŀ ìĿĦ
Ġpix els
Ġtransl ate
Ġdev ast
Ġimp air
Ġle ver
ĠHow ard
ĠMic hel
ì¢ Ģ
Ġpack ing
bl ack
Gener al
ëŁŃ ìĭľ
Ġì¶ľ ê³ł
c ache
ë¶Ħ ìĹĲ
ur ations
im ity
am ous
´ë° °
Ġf ool
ĠJ ess
a que
st ruction
ĠT ower
ref ix
Ġair line
ĠMay or
ĠRober ts
IC K
ĠLe gal
Ġ+ +
Ġíķĺ ìĹ¬
Ġë¹ł ë¥¸
ro be
Ġì Įį
U rl
n atural
Ġfort un
Ġex cluded
Ġnot able
ax is
ìĿ´ íķĺ
Ġgl ory
Ġper pet
i per
Ġê³µ ëª¨
Ġd ot
Ġdef ining
ĠìłĦ ë°ĺ
Ġwel coming
Ġìļ°ë¦¬ ìĿĺ
Ġde com
ĠB ring
Ġl ately
Ġprior ities
ĠD oor
Ġsem ester
ìĬ ´
ex port
ch air
ener y
Ġes cap
Ġev olved
Ġìĭ¤ íĮ¨
ĠD IS
ĠCent ury
t ask
Ġadv ances
Ġcompan ion
m ad
ĠN ash
Ġdel icate
ĠWalk er
Ġëĭ¤ ë¥´
Ġtradem ark
ãģ Ĺ
Ġcom ic
íĮĮ íģ¬
Ġcle ver
Ġunder ground
st at
ìłľ ì£¼
Ġìħ Ī
Pro t
ĠRec ord
Ġë³´ ìĿ´
Ġworld s
at ility
Ġprejud ice
Ġê³µ ìŀ¥
Ġì»¤ ë®¤ëĭĪ
Ġsupp ress
ikip edia
3 50
im ated
Ġhom eless
êµŃ ìĿ´
Ġsurv ived
Ġvalid ity
Ġg host
T L
ĠCo le
Ġexcept ions
Ġgluc ose
Ġelement ary
Ġm p
out ing
ĠX ML
Sh ould
Ġë²Į ìĸ´
In tern
Ġc uisine
ìĥģ ìľ¼ë¡ľ
ãĤ Ĵ
Ġì·¨ ìĹħ
Ġdent ist
Ġpad ding
Ġpack et
Ł ìķĦ
Ġde ar
Ġc ant
Ġd in
Ġrevers ed
ĠCh rome
ĠSw itzerland
Ġpredict ions
iff s
D ir
ĠìĻ¸ ë¶Ģ
Ġdeploy ment
field s
Ġconsider ably
ĠPh one
Ġì¢ĭ ëĭ¤
Ġtrans it
Ġded uct
Ġs ake
Ġalleged ly
Ab out
Ġassum ptions
Ġint ensive
Ġh ills
rib utes
Ġarbit ration
ĠB uck
em et
Ġra bb
ĠP ain
Ġìĭľ ëıĦ
c b
T ask
Ġì£¼ ë§Ĳ
ĠìĿ¼ ìľ¼
ĠK al
Mod ule
ĠëıĪ ìĿĦ
Ġper ipher
ĠMat hemat
Ġsystem atic
Ġfin ishes
ëł¤ ë©´
in ternal
Ġì°¨ ë¥¼
ĠB ull
Ġ& =
ìĿ´ëĿ¼ ëıĦ
ìľĦìĽĲ ìŀ¥
Ġcontin ually
C I
Ġpost er
ĠR AM
ĠNot ice
Ġëħ¸ ì¶ľ
ĠPh oenix
ĠPlay er
Ġtem p
T ool
Ġmerchand ise
Ġbi om
ĠW edding
Ġnurs es
Ġê·ľ ìłķ
Ġë½ ĳ
ĠS pec
ì²´ ë¥¼
W A
Ġperform s
Ġnation wide
phas is
Ġret ention
Ġ3 65
ä¸ į
Ġche f
Ġì§Ħ ëĭ¨
íķĺ ê²łëĭ¤ëĬĶ
Ġmot ions
åľ ¨
Ġê°Ģ ìłķ
sp ring
ĠíĽ¨ ìĶ¬
ash ing
ĠSw iss
Bl ack
Ġb ases
Ġbe ings
ĠB ah
Ġpul se
Ġ19 77
Ġque ue
b ably
Ġëĵ± ìĿĢ
Ġquot ed
ou stic
ĠB right
Ġsurv iv
olester ol
Ġë¹ĦìĬ· íķľ
ĠìĿ´ ìĿµ
Ġpast a
Ġpres idential
ëĵ Ń
ic hes
av ailable
st ud
Ġbes ides
Ġref use
Ġle ar
ĠThanks giving
Un it
de bug
Ã Ĥ
ìĭŃ ìĭľìĺ¤
Ġë²Ķ ì£Ħ
ĠThom pson
Ġìĵ ¸
Ġle isure
Ġmethod ology
N R
Ed it
c am
Ġnot ified
Ġadvoc ate
Ġgovern ance
Ġen comp
Ġwork flow
Ġfact ual
ĠCarib bean
ĠíķŃ ìĥģ
ĠA ve
Ġcon ve
Ġíļ į
, .
` ,
ĠMult i
ah oo
Ent ity
Ġcannab is
ĠM un
å ¯
Ġd ying
Ġvill ages
ry ption
Ġtre asure
m ount
Ġr anks
ĠUr ban
Ġì§Ģê¸Ī ê¹Įì§Ģ
Ġpartners hips
Ġì£¼ ê³ł
íķľëĭ¤ ë©´
ocr atic
Ġbur st
ä¸ ª
F ull
Ġco ating
l ie
T itle
Ġw ings
Ġm art
Ġenem ies
Ġman uscript
Ġcons ume
Ġsu icide
ĠGu id
âĨ Ĵ
T I
ëª¨ ëį¸
Ġdeal t
ê°Ģ êµ¬
M enu
Ġì¡¸ ìĹħ
ê¸° íļį
Ġint imate
) }{
Ġrestrict ion
ì į
ê²° ê³¼
ĠT ask
Ġp ockets
íħĶ ëłĪ
ë°Ľ ê³ł
ĠK ings
b ridge
Ġë¨¹ íĬĢ
Ġdecor ative
Ġaff idav
ĠíĺĲìĿĺ ë¡ľ
Ġcross ed
Ġse nds
ĠHawai i
ĠL ock
ĠÎ ¼
ĠMar ia
19 90
ĠSa udi
ĠInter ior
Ġdil ig
Ġbu gs
ĠìĹ¬ ë¡ł
y y
Ġcounter part
Ġremem bered
Ġbul let
m ac
rop ic
h ang
= -
Ġp ose
Ġíĥĳ ìŀ¬
Ġher bs
cript or
Ġmet a
ĠMet al
P os
ĠìĪĺ ìĪł
ĠAud io
ĠF DA
Ġbur ied
Ġì£¼ ìĿĺ
Ġfra gment
ìķĺ ìĬµëĭĪëĭ¤
ĠApp l
ert o
Ġpro xy
Ġë³´ ìĿ´ê³ł
Ġan ten
ĠëĤĺ ëĪĦ
ìģ ľ
Ġinput s
Ġê²ĥ ê³¼
Ġloc als
Ġped est
Ġë²ł ìĿ´
ud ge
ĠA bs
ĠíĻĶ ìŀ¥
Ġst up
Ġsil ence
ĠBl ood
Ġpro pose
ĠN at
Ġë¶Ī ê°ĢëĬ¥
l arge
Ġìłķ ê¸°
m ember
Ġcap ac
Ġvalid ation
ic ates
w y
ĠAr gent
Ġbook ed
ĠIndones ia
Ġinequ ality
Ġmin erals
ĠM all
ì¡° ìłķ
ê±´ ìĿĦ
Ġëª¨ ìĸĳ
F E
ĠR A
ëłĪìĿ´ íģ¬
ĠH omes
u ated
ìļ´ ìłĦ
o il
Ġconscious ness
Ġexpl ored
Ġ" /
ĠW ant
ĠB or
Ġmer it
ol as
Ġë°ľíĳľ íĸĪëĭ¤
B as
rop olitan
reed om
ĠClin ical
s ys
Ġdraw s
Ġcreat ures
ĠëĦ¤ íĬ¸ìĽĮíģ¬
Ġdeal ers
íĬ¸ ë¦¬
Off set
Ġë°Ķ ëĿ¼
P AR
Ġr h
Ġì²Ń êµ¬
Ġcloud s
he ll
ĠEm ail
fend ant
c od
Ġb er
Ġìĭľ ëĮĢ
ou b
Ġto ps
Ġdocument ed
ĠìĽĲ ê³ł
Ġê³ ¡
ĠDe an
ĠOver all
Ġê³Ħ ìĹ´
ĠìłĢ íĿ¬
Ġ( $\
Ġacc ent
if iable
P i
ìĭľ íĤ¨
Ġchair man
íĬ¹ ë³Ħ
v s
Ġchar ming
ìĦ ¯
Ġmagnific ent
ĠDirect ors
Ġhead quarters
Ġê º¼
Ġle verage
ĠL iver
Ġbo asts
New s
Ġwel comed
Ġinflu ences
& &
Ġë¬¸ìłľ ëĬĶ
play er
cour t
cc a
ĠCol lect
ĠN ich
er ge
è ®
Ġë¬´ ìĹŃ
E val
ĠAnton io
Ġattach ment
ĠG ran
ĠW olf
RE G
ĠDes k
Ġstream s
Ġ9 00
Ġkid ney
sh ire
Ġking dom
ĠLeg isl
Ġd amp
Ġnecess ity
L ED
Ġdon ated
Ġì¹ľ íĻĺê²½
ĠF ish
10 4
ĠJun ior
Ġupd ating
comm and
Ġinst itutional
ĠRev olution
Ġcomput ed
Ġg onna
Un ited
Ġdef ects
ĠJ oy
14 0
ëł¤ ëĬĶ
Ġprog ression
Ġcoup ons
r h
Ġcoll apse
ad ows
Ġë°Ŀíĺ ĶìĬµëĭĪëĭ¤
Ġê´Ģëł¨ ëĲľ
Ġ11 5
Ġbl oom
ĠF ine
f ocus
ĠR C
Ġingred ient
Ġlo vers
d ro
Ġ19 74
Ġì°¨ ë¡Ģ
ĠSol ar
Ġwhe at
qu ired
Ġcustom ize
ĠìłĦ ë©´
Ġmet er
ĠG ary
Ġover s
V ol
Ġíĺĳ ìĿĺ
Ġê²½ ê³ł
Ġv ig
ĠíĿ ĳ
Ġthreat ened
ì¡Į ìĬµëĭĪëĭ¤
ĠëĮĢ ê·ľëª¨
ìļ¸ ëŁ¬
ìĿ´ ëŁ°
Ġl am
ĠC ow
Ġencoura ges
Ġpract icing
Ġrehab ilitation
ĠM ining
Ġprem ier
ard ed
S k
Ġsh ifts
Ġl id
ĠLink ed
Ġaff irmed
Ġconsider ations
Ġextend ing
Ġíķ ¸
Ġpri zes
Ġs isters
ë°© ë²ķ
Ġt ale
Ġra c
Ġep ic
N ames
pat ient
Ġsus cept
ĠM as
Ġperm alink
Ġê¸ į
Ġtast es
Ġo ak
æľ ī
ĠM aine
Ġdecor ating
ex pl
b ank
Ġ19 73
Ġíķ´ ìĦĿ
ĠCompan ies
Ġexpect ation
Ġsn acks
{ -
Ġact ress
Ġlim iting
Ġsubst ances
l anguage
ì²Ń ìĿĢ
ĠTechn ologies
Ġp seud
Ġd airy
on i
b one
Ġê°ľ íĺģ
Ġexhib its
Ġsynt hesis
Ġacknowled ged
Ġì¸¡ ë©´
g ien
char ged
Ġpath way
ëįĶëĿ¼ êµ¬ìļĶ
ĠD ak
ĠCOUR T
fl ix
ĠìĥĿê°ģ ìĿ´
ĠRep air
ĠëıĦ ìłĦ
g row
Ġì§Ģ íĤ¤
ìĸ´ë¯¼ ì£¼ëĭ¹
Ġtr icks
Ġhypothes is
Ġexec utives
re a
_ .
Ġíľ ĺ
Ġshel ves
level and
199 4
Ġíĭ Ģ
Ġlab our
oth y
ĠW right
) ),
ìŀĲ ì¹ĺ
Ġmag azines
Ġchem istry
hand le
ê¸Ī ìķ¡
D ocument
ud a
to ken
f ound
s om
c opy
Ġtrans fers
Ġconst itution
Ġdraw ings
íļĮ ê²¬
Ġwides pread
ĠSov iet
Ġc ave
Ġíİĺ ìĿ´ìĬ¤
Ġsimpl er
ĠMet ro
ĠPal ace
Ġì»´ íĵ¨íĦ°
ĠìĿ¸ ê³µ
ìŀĲ ìĽĲ
Ġ10 8
D L
Ġview ers
inst ance
Ġobject ion
Ġìħ Ģ
Ġcompl ain
ĠL CD
ĠW a
Ġneed ing
min us
Ġê±° ë¶Ģ
U B
ì¤ĳ ê³ł
ch annel
ìķ µì»¤
ĠEd ge
ì¦Ī ëĭĪìĬ¤
Ġpract itioners
ĠPart icip
ĠT am
ĠìĻĦ ë²½
ĠBl oom
ĠDep uty
ĠSa fe
Ġê°ľ ëħĲ
ë§Į íķľ
ê²Ģ ì°°
Ġê¸´ ê¸ī
11 1
Ġcritic ism
Ġbas eline
ĠBow l
io xid
ĠA BC
exp ensive
Ġan th
Ġne u
ĠS F
ĠìĨĮ íĶĦíĬ¸
Ġ19 72
Ġì»¤ íĶ¼
íķ¨ ìľ¼ë¡ľìį¨
Ġsize of
t ic
ĠìĥĪ ë¡ľ
Ġadminist ered
ĠH ug
Ġpat ience
¾ ¼
ĠK y
ĠëĤĺ ë¨¸
ĠR S
Ġvar ies
ĠD a
ffic ients
Ġel ab
Ġconst ru
ê´Ģ ìĹĲìĦľ
Ġw ages
Ġ20 21
Ġmother s
ê³µ ìĹħ
ail ure
M ain
Ġavoid ing
ĠBas ic
Ġex empt
Ġdom inated
ask et
Ġrid ic
ĠìĤ¬ìļ© íķĺëĬĶ
Ġtransp arency
Ġvolunt ary
A pr
Ġw ound
w indow
Ġbra ce
H as
ĠP ages
He y
b efore
Ġz ones
Ġon ion
Ġar th
Ġass ists
ĠA CT
Ġche er
ĠR F
ê´ĳ ì£¼
Ġsurround ings
Ġ ).
es c
Ġenroll ed
Ġless er
Ġco h
ĠEnter tainment
Ġ15 00
ĠEx hib
b ecause
l ass
Ġìłľ ê±°
X iv
Ġë°ĶëĢ Į
) **
Ġb oring
dom ain
ĠìĿ´ëĤ ´
OR K
Ġl ined
ob b
e u
ĠS EC
ìĿ į
ĠN J
Ġsmooth ly
le vant
Ġcoll ision
sc opy
Ġveter ans
Ġí Ĩ
k h
Ġëĭ¤ ëĭĪ
Ġconcent rate
Ġìĩ¼ íķĳ
ĠìĹĨ ëĭ¤ê³ł
j oin
tend ed
OR S
ĠDub ai
Ġpun ishment
Ġin line
Ġë¯¸ ë¦¬
Ġsec urities
Ġprest igious
Ġp ond
Ġadjust ments
íĶĮ ëŁ¬ìĬ¤
T ry
Ġdecor ated
ìĦł ìĿ´
Ġunder neath
Ġs el
ĠëıĦ ìĽĢ
ìŀ Ķ
ĠMississ ippi
ĠReturn s
Ch ild
ym pt
ĠO ften
ĠV irtual
Ġmain stream
ĠD oc
Ġcomp ression
ĠMar g
Ġaest hetic
Ġp H
ĠQu ant
Ġdem ocracy
Ġëį ĺ
Ġì¶Ķ ìłķ
Ġlong est
Ġrepresent ations
Ġdefin itions
Ġs aves
Ġcycl ing
- (
u j
Ġmark ers
ìĹ ł
cont ainer
Ġinvestig ations
Ġê°ķ íķľ
Ġb ot
Ġë¯¸ ëĶĶìĸ´
ĠN ear
ĠOr leans
add y
Ġcount ing
oc ur
Ġë§ º
th ird
ĠFranc is
ĠíķľêµŃ ìĿĺ
Ġcomm od
]{ }\
ìĭľ ë¥¼
ĠWi Fi
Ġapp end
ah o
p are
Ġport ray
æ ł
ìĹĲê²Į ëĬĶ
Ġrel ies
Ġj er
Ġp unch
Ġshould ers
ĠAn alyt
Ġjust ify
ëĭ¤ ìĿĮ
ĠìĥģíĻ© ìĿĦ
Ġn g
Ġm amm
ĠO racle
Ġland l
Ġbo il
l on
Ġcar p
Ġfarm ing
Ġ$\ {
ëĮĢ ìĥģ
%% %%
ĠIN C
ĠPro p
âĢĻ (
ĠD ays
ĠRe lease
Ġun comfort
Ġhe ter
Ġì§Ħ ì§ľ
eb ook
Ġch lor
Ġver ified
Ġra ises
s a
Ġì°½ ì¶ľ
Ġsh ame
00 01
Ġë ®¤
re ational
Ġwee kends
ìĬ¤ íĭ°
ĠíĻķ ìŀ¥
Ġsp ine
Ġintu itive
bur se
Ġf ought
ĠUs ed
Ġì£¼ ìĨĮ
ĠCon fig
ëŀ ĢìĿ´
Ġres ervation
Ġì´Ī ê¸°
Ġë§Ī ê°Ĳ
ĠInvest ment
Ġunder graduate
Ġcred ibility
// /
ab a
Ġmod est
Ġb ree
ial ize
Ġgradu ates
ĠìłĦ íĪ¬
emet ery
He ight
Ġeduc ated
D O
ract ed
Ġfoot age
Ġhom emade
Ġparticip ant
Ġb ikes
Ġì§ĢìĨį ìłģìľ¼ë¡ľ
¾ İ
Ġconflic ts
h is
le ton
Ġint im
Ġdes criptions
Ġrel ied
ĠThe ory
Ġdis advant
] ).
ĠConnect icut
ĠHolid ay
Ġkey word
Ġret ained
ê±´ ê°ķ
v t
Ġmic rowave
å ±
Ġbal con
Ġtra ct
ro ck
Ġpress ing
ĠT yp
ĠHar vard
Ġreven ues
Ġprohib ited
M us
Ġì¤ĳ ìĹĲ
Ġë°©ìĭĿ ìľ¼ë¡ľ
ĠW ine
bl ue
24 0
u er
íı ´
supp ort
íķĻ ëħĦ
it err
Ġtun ed
AC H
ĠUnivers al
ĠëĦĺ ëĬĶ
ĠëĶ ±
Ġlike wise
ĠD oll
Ġsimpl icity
ĠìĺĪ ë¹Ħ
Ġa f
Ġnon profit
Ġhor ror
Ġë©Ķ ìĭľ
Ġsc attering
ric ane
´ë ŀ
Ġunf air
Ġr ides
Ġposition ed
iss a
Ġë§¤ ê°ģ
ĠêµŃ ë¬´
v d
z an
ìĤ¬ ìĭ¤
Ġë ¿Į
ĠD ra
Ġul tr
Ġgu ilt
Ġm aj
Ġpo ison
Ġl umin
ĠDe al
Ġgl uten
ĠA RE
aps ed
Ġend orse
S ettings
Ġas h
En ter
Ġsec rets
ì¼ĢìĿ´ ìħĺ
Ġsurve illance
Ġaltern ate
Ġhon ored
Ġdat abases
Ġste pped
ìĺ¤ ìĿ¼
Ġhop ed
Ġtal ents
ìŀĲ ë£Į
ĠToy ota
t n
unt u
ĠìĨį ìĹĲìĦľ
Ġinter ference
Ġprov in
Ġproject ed
ìļ° ìĬ¤
if i
ĠYear s
Ġal tered
ĠìĨĮ ìĨ¡
Ġimmun ity
Ġcomp iled
P o
Ġal ien
Ġassess ments
Ġin clusive
Ġfriends hip
ĠRestaur ant
G raph
Ġhung ry
Ġbathroom s
B it
Ġthread s
Ġpix el
ĠRes ume
ĠS R
ĠTok yo
ĠìľĦ íĺĳ
Ġdiscl ose
ì£¼ ìĭľë©´
Ġart ic
ëĳ ¥
Ġqu art
ĠìĻ ĢìĿ´
Ġcor ruption
Ġj ar
Ġreason ing
Ġon ions
Dev ice
Ġcar riers
ĠíĮĮ íĬ¸
Ġb orders
Ð ¼
ge x
ĠT N
Ġ( '
ĠY ellow
ĠíĬ¹ ìĪĺ
our se
Ġorganiz ational
Ġpert urb
im ages
íķ´ ë¥¼
Ġh ierarch
Ġtransl ated
?? ??
V R
ĠìŀĪëĭ¤ ë©´
yl on
ĠíĶ¼ ë¶Ģ
Ġel astic
Ù ħ
op les
Ġcl ay
Ġì§ §
Ġde ce
ĠLu ke
Ġroll s
Ġg aps
D oc
Ġorgan ised
f ive
ĠíķĦ ìĪĺ
ä ¿
ĠìĿ¸ ë¬¼
Ġfor k
Ġappell ate
t or
Ġtrans plant
ëł¥ ê³¼
ĠC ele
ê¸° êµ¬
Ġìĵ ´
Ġtravel s
Ġinfect ed
ìĬ¤ íĶĮëłĪìĿ´
iov ascular
ê¸° ëĬ¥
Ġì¶©ë¶Ħ íŀĪ
Ġfun eral
P arent
199 3
Ġë°ľìĥĿ íķľ
s ed
Ġinit iated
Ġmon etary
ĠInnov ation
T ypes
Ġst iff
íŀ Ĳ
aint ed
May be
Ġp ork
Ġcard iac
ĠG ram
p n
ass ing
Ġconf using
sh aped
Ġcent res
Ġdro pping
Ġback ing
Ġpool s
Ġn iche
Ġconstit u
="../../ ../../
vel ope
ëĭ¨ ìĿĺ
ĠFrank lin
Ġìĥģ íĺ¸
Ġconfig ure
m us
w estern
ëĭ Į
ator ies
Ġenerg ies
Ġv on
st able
st an
Ġmechan ics
Ġcraft ed
ĠìŀĲ ëħĢ
ne red
ë§ĮìĽĲ ìĿĦ
ì³ ¤
Ġ ×
Ġd rew
ĠT ab
ĠP E
ĠAd ams
Ġdisapp ear
ĠT oo
ĠìĤ¬ ìĥģ
orient ed
h alf
Ġ: )
Inter face
ĠìĥģíĻ© ìĿ´
Ġmod ifications
Ġlib eral
" ))
ĠM I
ëĭ¨ ì§Ģ
å ĩ
Ġsc aling
ìĿ´ ëį°ìĿ¼ë¦¬
ìĺ¤íĶĦ íĻĶìĿ´íĬ¸
Ġcirc ulation
h icle
}. $$
ĠPol and
Ġëł Į
ott a
Ġinterpret ed
Ġeth nic
A ng
ì» µ
ĠGra ce
ê» ´
Ġst airs
ãģ ¦
Ġliter ary
Ġgr asp
iterr ane
ìĤ¬ ëŀĳ
Ġcraft s
C ache
è Ģ
ë¦¬ ìĺ¤
ĠP ad
Ġì·¨ ìĨĮ
ë°ĺ ëıĦ
ĠSum mit
Dav id
um atic
Ġadministr ator
Ġ< -
ìŀ¬ ë¥¼
Ġíģ ´ëĿ¼
Ġ19 20
Ġve gan
Ġcomprom ise
ĠB ear
ĠFed eration
Ġware house
Ġpart ly
Ġafter wards
Ġíĺķ ìĦ±
< !--
ĠG A
Ġunderstand s
ĠÂ ±
Ġoccas ional
ins ert
an cer
Ġìĥģ ë°ĺê¸°
Ġì¦Ŀ ê¶Į
Ġappro aching
Ġv iable
ĠíĹĪ ìļ©
ĠëĬĺ ìĸ´ëĤĺ
ab ad
Ġappoint ments
Ġsubs crib
Ġhold ers
ĠI RS
ĠLead ership
ìŀĲ ê¸Ī
íĥ ĳ
w ritten
ĠSt adium
Ġk iss
Ġconnect s
æķ °
Ġang les
Ġrefresh ing
Ġfre el
Ġwithdraw al
Ġsa fer
all ing
Ġabsor b
Ġpharm aceutical
ac hers
ê±°ëĵł ìļĶ
Pl ace
Ġsoon er
Ġce ment
Ġeduc ate
Ġì¹ ´ë©ĶëĿ¼
print f
ĠC J
ëĳ ĺ
ĠR ace
Ġattract ed
Ġë° ĸ
ĠG ray
Ġë¹ł ë¥´ê²Į
ìĹĲ ë§Į
ather ine
Ġtomat o
s or
ĠIn side
Ġì Ķ
U CT
Ġproject ion
ìĭ¤ ìĹĲìĦľ
Ġê¸Ģ ìĿĦ
ĠPl atform
Ġpros per
Ġrenew able
Ġover t
Ġsubs et
ĠìĽ ¨
KE Y
ĠDump ster
Ġgr ill
Ġprosec utor
ĠìĹħ ëį°ìĿ´íĬ¸
osc ow
ert ation
10 3
ann on
Ġspecific ation
Ġsun ny
Ġpoly mer
Ġfat al
g un
ĠN elson
ì§Ħ íĿ¥
ers ed
Ġl ane
ìķĪ ìĿ´
Ġbu cket
Ġhousehold s
ere r
s ession
ĠìŀĲ ìĤ°
Ġprof itable
Ġcon e
Ġloyal ty
ĠD omin
Ġm os
ĠUk raine
ê³¼ ìłķ
Ġì°¨ ìĿ´ê°Ģ
Ġíķĺ ë©´ìĦľ
ì²´ ê°Ģ
Ġmark er
t v
Ġste ering
ĠPhys ics
Ġaw ait
all oc
Ġattend ees
ol o
ourn als
ĠAnd y
Ġëıħ ìŀĲ
ìĿĺ ìĽĲ
ĠAl an
* ]{},
Ġorgan izing
Ġbackground s
Ġê²ĥ ì²ĺëŁ¼
Ġb ump
Ġpra ise
Ġlaunch ing
ìº ł
ĠW onder
í Ī
ke e
ĠPitt s
Ġguarant ees
âĢĿ ).
´ëŁ ¬
ĠJ en
Ġ24 0
Ġêµ° ìĤ¬
... )
Ġfear s
ar ity
ĠEv ents
ĠMe anwhile
ë¡ľ ë¥¼
O ct
Ġë§İ ìķĦ
ĠB achelor
ĠR ange
Ġíı¬ ì»¤
Ġ[ "
Ġdr ill
Ġgradu ation
ell i
ced es
Ġequ ality
Ġpo le
ĠBrook lyn
Ġimm ense
Ġrespect ed
c ondition
S ort
urs or
ĠH ans
ade qu
ëĨ ĢìĿ´
em a
S N
ur g
ì§Ģ êµ¬
Ġcur t
Ġsurprising ly
Ġm igr
ver ter
ê¶Į ìĿ´
ê°Ĳ ëıħ
TH ER
Ġsl ides
ĠBen ef
Ġext rem
Ġë¸Ķ ë£¨
Ġpres erved
ĠR ES
Ġadvis or
\ }$
( *
Ġë°©ì¹¨ ìĿ´ëĭ¤
Ġbe ars
iterrane an
e er
ON G
C are
Ġê±± ìłķ
}} ^{
Ġroll er
ug g
ĠInte gr
ab ul
Ġover head
ĠBe at
Ġlegend ary
Cont ainer
S ELECT
ĠD ise
Ġatt ain
Ġinc idents
Ġbad ly
Ġoptim ize
ĠT ro
Ġ 000
ê°ľ íĺģ
ĠA y
Un fortunately
Ġcoe fficients
e in
ann ah
ãĢ Į
Ġpo em
Ġê¸°ìĹħ ìĿĺ
Ġìĭ¤ ëĤ´
Ġdepos its
fl oor
ĠF isher
Ġspons or
ĠC BD
opp ers
am an
rat ulations
Ġang ular
ot ing
Ġpick s
re q
ĠN az
ĠP interest
Ġopp onent
ĠSh an
ĠMe chan
ĠY oga
at able
ins ic
Ġì°¨ëŁī ìĿĦ
ë° ¥
ĠC leveland
ĠRus sell
ìĦ± ìĿĺ
ìĺĪ ìķ½
m aker
Ġdes ires
Ġconsum ing
ê ¿
Ġim prison
Ġf et
ĠAssoci ates
ĠCert ificate
Ġpursu ing
Ġanalyt ical
ëŁī ìĿĢ
Ġ[ '
Ġpsych ology
Ġrail way
usal em
ª ¨
Ġtou ched
rop ract
S pace
íĨłíĨł ìĤ¬ìĿ´íĬ¸
l ate
Ġaggreg ate
Ġfun c
ĠTai wan
ëĤĺ ë¬´
Ġë° ĸìĹĲ
oy d
Ġê¸° ê³Ħ
Ġpro be
Ġad orable
Ġmet res
ëŁ ´ëĵľ
ĠìĨĮ ë¦¬
Ġì¹´ ì¹´ìĺ¤
R ES
íķĺëł¤ ëĬĶ
ĠíĽĪ ëł¨
Ġfel ony
Ġsy mp
Pre vious
ID E
Ġrev ised
w al
Ġë§ĪìĿĮ ìĿĦ
ĠíĸĪ ëĬĶëį°
Ġnever theless
Ġë¹Ħ ìĥģ
Ġwarm ing
ëĲĲ ìĬµëĭĪëĭ¤
Ġë§¤ ë§¤
Ġhospit ality
ëĤ Ļ
L ife
W in
Ġcar cin
ĠB apt
ogene ous
Ġw idget
gl obal
ìĹĪ ìĿĦ
Ġìĥ ¤
Ġb aked
Ġë¶Ī ê°Ģ
eng ine
ìłľ ìĿĺ
Ġmet als
ë°Ľ ëĬĶ
Ġë°ľ íĸī
con v
Ġcro ps
Ġinter vals
Ġred irect
ĠST AT
Ġvan illa
Ġtravel ed
ot ypes
Ġê²½ ë¶ģ
ĠV in
ĠS pect
ab lished
Ġextra ction
Ġca ution
Ġqu een
Ġroof ing
ĠBalt imore
Ġ12 3
ĠR idge
ĠBe gin
ens ation
m ill
Ġst air
Ġfrequ encies
ĠBet ween
ĠT rib
ĠF ant
Ġdecl aration
Ġ" $
ias m
ĠDiam ond
Ġel ite
Ġman ages
Ġìłģ ìĿ´
red ict
ĠDou glas
pr im
G od
Ġindic ators
ĠM T
Ġcer amic
Ġfor ums
C ong
ê·¸ ë¦¬ê³ł
bre aking
Ġbu zz
´ë³ µ
ig ating
ust ral
f y
Ġchap ters
Ġd aughters
ë³´ íĺ¸
Ġprob able
ĠCo al
ìļ° ê³ł
ĠìĹ° ê°Ħ
Ġëı ķ
li ance
Ð¾Ð ²
ë¦¬ ê²łìĬµëĭĪëĭ¤
ĠL uck
Param eter
ĠCo ach
N um
Ġachieve ments
Ġavoid ed
Ġriv al
Ġìłľê³µ íķľëĭ¤
anc ers
Ġat e
íĸī ìłķ
Ġ áĦĴáĦĴ
D at
de pend
ĠAct iv
ac er
Ġimpl ant
Ġr itual
ĠH ousing
f c
Ġout lined
ĠL OVE
ze ch
Ġë³´ ìĪĺ
ĠëıĻ ìĺģìĥģ
Ġst ressed
íħĶëłĪ ì½¤
Ġdisc on
Ġcar go
íĶ¼ ìĬ¤
Som etimes
P ORT
Ġrese mb
Ġhe ater
ãģ ¯
Ġuncomfort able
ĠD ental
Ġexp on
ĠV M
ĠìĿ´ë²Ī ìĹĲ
RE CT
Ġê°ľìĿ¸ ìłķë³´
ach t
Ġê¸į ìłķ
m ut
Ġrandom ly
199 2
Ġpip es
ĠF M
Ġë³´ ì¦Ŀ
ìľ¼ ë©´ìĦľ
Ġdark ness
Ġp c
Ġatt raction
ĠìĹ° ê¸°
Ġpro long
Ġminor ity
ìĭĿ ìľ¼ë¡ľ
ĠWh atever
ĠGirl s
D em
ëĪ Ī
Ġì ¤
Ġhyd rogen
Ġrest art
Ġevalu ating
Ġout lets
ĠìķĦ ëıĻ
ĠìŀĲ ë³¸
Ġri vers
Ġdatas et
ĠìłķíĻķ íķľ
Ġì§ĢìĽĲ ìĿĦ
Ġëª» íķĺëĬĶ
Ġly rics
ĠíĨµ ìĿ¼
Ġsacr ifice
ĠÐ ²
Ġab normal
Ġam ple
ĠS el
O rig
â Ŀ
ĠìĽĲ ëŀĺ
ĠG ift
Ġëĵľ ëĿ¼ë§Ī
ĠPal m
ĠM O
Ġ4 50
on ed
ĠF er
Ġìĺ¬ ëł¤
ì¹ ¸
co very
ìĩ¼ íķĳ
ĠíĹ ¬
Ġprotect s
ĠAl i
Ġindu ction
ĠR ing
Ġìĭľìŀĳ íĸĪëĭ¤
Ġwall paper
Ġ19 68
ĠG B
ĠìĿ´ìļ© íķ´
Ġdevelop s
ener gy
ĠBru ce
bu ilt
ol ver
Ġdef ence
ĠB art
ĠN ep
ĠG re
Ġexam s
Ġt anks
ĠC old
Ġforest s
Ġcle ared
ê²¼ ëĭ¤
m ma
ĠF ashion
Ġwarn ed
Ġhass le
Ġra cial
Ġbound ed
b iz
Ġ19 30
ill o
Ġpubl isher
os ures
10 8
Ġen v
% ).
íķĺê³ł ìŀĲ
Ġep it
p u
an ol
Ġh tml
Ġarriv ing
ĠìŀĦ ëĮĢ
| ^
ĠìĦł ê³ł
Ġgl ue
ĠìĤ¬ ê³¼
G H
ĠS ad
ĠAn na
ĠTh ai
Ġch olesterol
Ġjoint s
ìĥģ íĥľ
ĠíĿ ĺ
al ia
ê³ł ê°Ŀ
ĠGet ting
ĠRe ally
Ġpure ly
Ġìĺ¤ íĶĦ
m ag
Ġë°° ì¹ĺ
Ġíķľ ëĤĺëĿ¼
m el
Ġfabric s
Ġl ips
Ġexc use
ĠDu ke
ĠG ordon
ĠSus an
G rid
ĠChe l
ĠL ocated
ĠìĹ° ê³Ħ
R ad
ë©´ ìĿĦ
ëĵ¤ ìĸ´
aly st
Ġ19 69
W D
ĠBl uetooth
Ġmetabol ism
ĠP resent
}( {\
ĠUs ers
]{} ]{}
Ġ ï¿½
íŀĪ ëĬĶ
ëĵł ì§Ģ
ĠOr th
Ġtra p
Ġres ur
ĠM asters
d agger
F our
Ġ< !--
b ind
Pr int
ĠìłĢ ëħģ
w en
ank a
Ġpers pectives
" ...
Ġtong ue
Ġë§Į ëĤ¨
Ġlack ing
ĠJ SON
Ġíı¬ ìĿ¸íĬ¸
íķ´ ì§Ħ
ĠìĦ¸ ì¢ħ
Ġprob ation
ĠIm port
ìłĲ ìĹĲ
w ait
ì²´ ìľ¡
Ġê¸°ìŀĲ íļĮê²¬
ĠL oad
ĠM ut
ëį° ìĿ´íĦ°
ĠìĻĦ ìłĦíŀĪ
j an
Ġpromot es
Ġwa ist
us ive
> .
h l
Re al
Ġcons piracy
Ġdes irable
ĠëıĦ ìĻĢ
ĠìĿ¼ ìŀĲë¦¬
ìĿ¸ ëĵ¤ìĿ´
Ġë°ķ ê·¼íĺľ
ĠëĮĢ ê¸°ìĹħ
Ġê² ģëĭĪëĭ¤
ĠT ar
ìĹ°êµ¬ ìĽĲ
Ġëĭ¤ ìĨĮ
Ġtra y
Ġdeploy ed
ĠëıĮ íĮĮ
Ġpup ils
ĠT ag
OR Y
OS S
Ġcompliment ary
Ġreg ulated
St ack
Ġsatisf ies
op ter
Ġlight ly
Ġthr illed
ëł¥ ìĿĢ
ĠCopyright s
Ġinter pre
ĠRepublic ans
ĠìĹ´ ë¦¬ëĬĶ
ĠM M
ling ton
Ġê°Ģê²© ìĿ´
Ġenhance ment
Ġdress es
ĠB aker
Ġf are
Ġdefe ated
ocy tes
she et
Ġpray ers
rict ion
V ector
ĠL ang
ë¹Ħ ëĬĶ
ĠH air
Ġ{ "
Ġgran ite
am ples
AN CE
or b
Ġrou ter
2 20
Ġìĭł ì°¨
ĠG S
ĠíķĻ ìĬµ
cell ular
ì¤ ĺ
Ġë¹¨ ë¦¬
Ġper f
inter face
Ġast ron
Ġslow er
Ġund ers
Ġrenov ation
her ic
íķľ íħĮ
Ġf u
ĠAd obe
e ared
Th ough
ĠO ptions
Ġsell ers
iv ic
ìŀĲ ìĤ°
ij ing
Ġant ioxid
Ġdel ays
Ġpick up
Ġp ile
Ġcompr ised
us r
ĠDrag on
ry lic
ĠTem plate
ëĲĺ ê¸°
ĠF ra
s ers
() :
ĠL ad
d c
L INE
ĠAl ber
Ġrel ates
Ġlog ging
ĠH ud
Ġdep ict
ĠRe quest
Ġrespond ents
com pl
Act ive
Ġdiet ary
Ġíļ¨ê³¼ ë¥¼
Ġdon ate
Ġ19 71
Ġthank ful
M icrosoft
Ġeffic acy
Ġdist ant
pro file
sh irt
ĠìĺĪìĥģ ëĲľëĭ¤
Ġíİ¼ ì³Ĳ
Ġeconom ics
Ġpa ired
Ġreward ing
Ġin expensive
ìļ´ ìĺģ
Ġb od
i w
cel ona
ëĭ¨ ìĿ´
Ġprofession ally
Ã© s
Ġan not
âĹ ĭ
W ow
ĠM erc
ĠìŀĲ ëŀĳ
over nment
eral d
Ġdou b
B re
ĠP riv
ìĬµ ëĭĪê¹Į
Ġaw a
Ġpred omin
Ġë°° íı¬
ST AT
Ġl ag
j ar
Ġcas inos
ĠPrim ary
}} }}
íĸĪ ìľ¼ëĤĺ
ĠO UT
Ġrel atives
appropri ate
cl ock
ĠQ ual
ĠCorpor ate
Ġg ard
Ġfundra ising
ëĮĢ íĸī
B IT
Ġver ification
Ġwal let
Ġë²ł íĬ¸ëĤ¨
Ġm a
Ġë¶Ħ ë¥ĺ
ìĹĲ ëĦĪì§Ģ
ĠF ro
Ġ10 7
á ĥ
ì£¼ ë¡ľ
ĠëĤ¨ ìŀĲ
ĠM aint
Ġcris p
Ġinter ventions
ĠëĪĪ ìĹĲ
ĠNev ada
Ġì¤ĳ ê°Ħ
ĠN ice
B et
est amp
f ox
ĠìŀĪ ì§Ģ
ĠCo ord
ĠH u
text rm
ĠëıĻ ë¬¼
ĠD rug
Ġarch ive
Ġextract ed
ĠìĿĺ ë¬´
Ġback pack
ĠìĹĦ ë§Ī
ĠG er
Ġapp ra
Ġflav our
U K
f our
ĠUs ually
Ġp ear
Ġrecogn ised
ëªħ ìĹĲ
mpt y
Ġgovern or
Ġsell s
ar ma
´ë ¶Ģ
te es
ìļ° ëĶĶ
D isc
r ise
ç ¬
ĠìĹ° ìŀ¥
Ġë¶Ī ëŁ¬
TH E
ĠìĭĿ íĴĪ
Ġshe ep
Ġoccup ation
Ġê±¸ ì³Ĳ
un ks
rec ord
y on
ie val
he imer
Ġre ass
ìĦ ¬
Ġto bac
C ard
} -\
Ġ25 5
ĠBe ck
Ġfem in
Ġfound ing
ëª¨ ë°ĶìĿ¼
ìĸµìĽĲ ìľ¼ë¡ľ
Ġê·¸ ê°Ģ
es ity
Ġp ist
íİ ľ
Ġcounsel ing
og s
áĦĥ áĦĥ
af ood
ìĬ¤ ìĻĢ
Ġemb arr
Ġe co
ĠT ell
ĠH em
Ġnot ing
vel ength
L ight
ne x
Ġprox imity
Ġsched ules
sh ape
ê¹Įì§Ģ ëĬĶ
ĠB io
ìĤ¬ ìĿ¼
ĠSt ream
ĠìŀĪìĹĪ ëįĺ
Ġo ste
Ġh o
im en
Ġsub mitting
Ġpenal ties
Ġinc idence
Ġìĭľìŀ¥ ìĹĲìĦľ
ĠJer usalem
Ġbl ast
ĠHT TP
Ġ17 0
ìĭľ íĤ¬
ĠS weet
W E
ĠD ad
ëĭ¨ ìĿĢ
ĠL if
hold ing
ĠCons erv
um ble
ĠI l
ĠS end
ì§ĢëĤľ íķ´
ĠCharl otte
app lication
ĠìŀĲ ê¸Ī
ĠìĦł ìĥĿ
3 60
Ġto dd
Ġ{ {
Ġconfig urations
ì§Ī ìĿĦ
Ġlog s
ul se
Ġpot ato
à ®
ĠS alt
Ġst ove
and o
ir ates
Ġwood s
OL D
ĠV erm
ĠìĿĺ íķľ
Ġê°ķëł¥ íķľ
Ġut ter
Ġê·¹ ë³µ
Ġ$ [
Ġte ens
M o
M ich
ĠSp ot
} _\
h ma
Ù Ĩ
ON T
ven ile
Rec ord
Ġmer its
ëĮĢ íĨµëł¹
ĠAfghan istan
Ġam id
Ġenter prises
¼ ìª½
ĠAn imal
ĠInde pendent
Ġre im
ìĸ´ë Ĥ¬
Des ign
ĠL E
Ġclear ance
F in
Ġgrant ing
.. \
Ġ{ @
d p
ì¢ħ ìĿĺ
Ġvit ro
Ġd ock
Ġë§Ī ìĤ¬ì§Ģ
sh ort
Ġdecl are
ĠS ay
worth y
Cons ider
Ġbr ass
Ġsk etch
ke eping
ĠTreat ment
Ġb arn
Ġobs c
Ġsecret ary
Ġh oly
Ġhe lic
ìĭľ ì¼
Ġauthent ication
Ġre he
Aut hor
om eters
ĠM ine
ĠMe et
Ġcount ies
01 0
ĠAssoci ate
ì§Ģ ë©´
G oogle
ìłĦ ìĿ´
sc ribe
Ġcool er
ch ant
od a
ë¿Ĳ ë§Į
Ġn urt
Ã £
Ġë° ĳ
Ġconsum ed
I ED
k n
Ġbirth s
Ġsen iors
Ġmotor cycle
cont ract
ĠD al
Ġrepos itory
ĠëĤĺ ìĺ¬
Ġìı ĺ
M art
¬ ëĭ¤
Ġ} \
Ġnovel s
Ġpropos ition
, $$
Ġqu ilt
Ġrep ay
Ġgener ates
ëıĻ ìĿ´
Ġìłĳ ìĪĺ
% (
Ġìķ ī
Ġtra des
ĠC SS
Ġrid ers
ĠW ard
Ġun clear
Ġse aled
Ġëª» íĸĪëĭ¤
Ø ±
ĠApp eal
ëĭ¤ ë§Į
op ard
E mpty
Ġw ool
ĠìłĲ ìĹĲìĦľ
Ġplant ed
Ġenthus iasm
hav ior
Ġag rees
Rem ember
Ġgl oss
Ġìĥģëĭ¹ íŀĪ
on z
Ġì¶ľ ë²Ķ
ìĿĮ ìĿ´
Ġfl oral
Ġdistingu ished
ĠG rey
Ġi T
ĠëıĦ ìĽĢìĿĦ
Ġbreak down
He alth
199 1
ĠSp a
Ġupload ed
iz on
ĠLaw rence
Ġde put
ĠìĹ¬ ê¸°ìĹĲ
Ġpar se
fl ags
. [@
ê¸¸ ìĿĦ
Ġenzy me
ä» ¥
Ġíĸ¥ ìĥģ
Ġdec imal
ĠìĹ ĳ
ĠìĨį ìĹĲ
sel s
ëħĦ ìĿ´
Ġë¯¸ ìĦ¸
Ġdist ances
Ġdec oration
Ġfurn ish
ĠìĦł ë°ľ
ëıĦ ìĻĢ
Ġcontrovers ial
Ġor bit
Ġfund ament
ID S
mon ary
im mer
al one
Ġsear ched
ĠìłĪ ëĮĢ
Read er
ìķ Ĭ
Ġto pped
âĸ ł
ĠH onda
Ġlif ting
ìĿ¸ ì¹ĺ
Pro f
Ġchar ter
99 99
ī ìŀ¥
Ġ áĦıáĦı
EE E
et ics
Ġì¦Ŀ ê±°
Ġìŀ¥ê´Ģ ìĿĢ
Ġdiv ine
ĠS in
Ġcomp ress
Ġsubst it
Ġal igned
ass ment
ass ador
Ġcont ention
ric ular
SI ZE
ĠB ou
ĠìĺĪ ì¸¡
av an
Ġanim ated
z ip
ĠM oscow
ĠInd ividual
Ġrefrig erator
Ġan k
Col lection
ens itive
ĠMor ris
ĠíĮĮ ìĿ´
Ġlic enses
ĠíĺĦ ê¸Ī
iv an
Ġpar liament
Ġë¶ģíķľ ìĿĺ
Ġco zy
Ġdef ect
Ġ" <
Ġth rew
ĠK an
Ġoccur rence
C le
O pt
ĠìĪĺ ìĦĿ
Ġcert ificates
Ġp est
ĠPrem ium
ĠZ one
ĠK ate
AR K
omm y
ĠíĻķìĿ¸ íķł
ĠS ort
J S
Ġpract ically
ĠTransport ation
ĠT ow
lic enses
Ġë¬´ ìĬ¨
Ġcorrespond ence
Ġdecre ases
} [
Ġse iz
Ġinv iting
ir ational
ĠP UR
ĠêµŃ íĨł
ru le
Ġtast ing
Ġíľ ł
Ġam ino
atin um
ĠB oot
ëĵ¤ ë¡ľ
Ġìĥģ ëĮĢë¡ľ
ìĤ¬ ë¬´
Ġpoor ly
ĠAr thur
ĠìĿ¸ ìĥĿ
ĠSu ite
Ġpill ow
gra v
Ġcon greg
ĠìĪĺëıĦ ê¶Į
A X
ĠMed iterranean
Ġì¦Ĳ ê¸¸
Gl obal
ad min
Ġê³¨ íĶĦ
Ġe ll
Ġso y
ĠâĨ Ĵ
Ġtim ber
Ġampl itude
ãĢ ķ
Ġupgra ded
Ġprior it
ĠìķĦëĭĪ ë©´
Ġk g
Ġcons ensus
Ġë³µ ì§Ģ
ĠAdd ress
íĬľ ë¸Į
Pan el
Ġspons ors
Ġwa iver
Ġad oles
bb ing
Ġexpress ly
ment al
Ġìŀĳ ê°Ģ
ìĪĺ ë¡ľ
íĺģ ìĭł
Ġë¶Ģ ìĹ¬
Ġëĭ¤ ìĿ´
Ġbes ide
ĠìłĢ ìŀĳê¶ĮìŀĲ
App ellant
Ġins ulation
Ġimp ose
íĻĶ íķĻ
re ne
ĠDub lin
ul ates
B ER
Ġcall back
ĠR y
Ġtobac co
Ġtact ics
C ap
en cer
I Z
Ġfar ms
Ġj son
Ġ áħ²áħ²
Ġcr ust
Ġcast le
land o
hat tan
Ġen rich
ĠìĿ´ íĥĪ
Ġs ocket
Ġdisput es
ĠT ools
Ġpal m
res ource
ĠC ars
ë¦¬ íĬ¸
Cl oud
Ġinvestig ating
Hand le
Ġdismiss al
Ġ10 9
ug in
Be ing
Ġsh ake
Ġì¼ Ģ
Ġsh irts
Ġ\ "
Ġar ter
Ġtend ency
Ġst ats
Ġm as
form s
ĠAnt i
ĠìĤ¬ì§Ħ ìĿĦ
Ġdisc ontin
ĠLe ft
Ġve ctors
Ġflow ing
). $$
ĠM R
Ġhar ness
ĠR T
s ure
ĠìŀĪ ìľ¼ë©´
Ġint ro
ìĺģ ìĹħ
Ġì²´ íģ¬
Ġcan on
Ġpress ed
ĠíĻĺ ìŀĲ
ĠíĨµ íĻĶ
ĠC G
and ra
IN K
Ġcourt esy
ĠO d
ĠCost a
Ġìĺģ ìĥģìĿĦ
Ġperman ently
Ġpropri etary
Ġinc urred
Ġë°ĺ ë³µ
H ash
ĠTrans fer
ìĦľ ìĹĲ
R est
Ġsc ary
Ġc ree
ĠK BS
Ġtrain er
Ġëª© ìłģ
Ġcoord ination
Ġve gg
ĠZ e
w atch
ë²ķ ìĿ¸
ĠValent ine
act ivity
Ġunder go
ĠNY C
ĠDe pending
are a
v c
Fl ags
Ġmathemat ical
ĠWhe el
å ½
Ġtwe et
ur dy
ĠCon sequently
ìĽł ëĭ¤
Ġch ill
sc opic
ĠRob inson
Ġf ixtures
Ġmar ble
ĠíĻį ì½©
, âĢĻ
Ġan chor
ie ces
íĮĮ ìĿ´
ê²Ģ ìĤ¬
ment ation
math scr
In c
ĠëĿ¼ ìĿ¸
A nt
Ġvit amins
l at
pe red
Ġrem inds
Ġìĺģ ìĸ´
Ġattrib uted
cm d
ĠíĬ¹ íĹĪ
Ġwond ered
ĠCar ter
ĠA CC
Ġsent enced
in fl
Ġne ural
p air
Ġ' '
ĠThe rapy
Ġmount ing
Ġrespond ing
ĠThrough out
em porary
ìĥģ ê³µ
Ġl ig
Ġhum or
ĠB UT
Ġcy t
ren a
s un
Ġpack s
Ġë¡ ¤
ĠGra ham
A ug
Ġlabel ed
p ers
Ġbi ology
ĠM os
ĠCom par
Ġsc iences
ĠL ex
Ġneed le
Ġê°ĢëĬ¥ ìĦ±
ì£¼ ë¯¼
Ġz oom
T ech
ĠTurk ish
Ġpromot ions
ing o
ĠD est
ì§Ħ ìĿĦ
Ġl ug
chn ology
ì¿ Ħ
íĨ ±
ĠB AS
ĠìłĪ ë°ĺ
ĠFour th
Ġrec reational
Ġtax i
Ġenh ancing
ĠBar bara
ëĮĢ ì¶ľ
ìĿĺ ëıĦ
ĠíĮ¨ ìħĺ
Ġblock ing
im eter
Ġoff line
ìľł ìĿĺ
ip es
Ġstup id
Con vert
FL AG
ĠOlymp ics
ĠF alse
ë¥ ľ
aut o
ap a
Ġunw anted
op ing
Ġë°ľíĳľ íķľ
Ġw ore
ìĥģ ìľĦ
Ġr ally
ple ments
êµ° ìĿĺ
Ġex otic
AM P
ĠF ocus
Ġ\ ;
ard o
ĠNAS A
$ ^{-
k ens
ë¶Ģ ë¬¸
Ġê·¸ ë¦¬
f are
ĠOther s
Ġê°Ģê²© ìĿĢ
ĠKenn edy
w ave
Ġg room
Ġíķĺ ëĬĺ
Ġbus es
s ave
Â »
ĠChrist opher
Ġsport ing
ĠAl t
Ġupgra des
Me anwhile
Ġquant itative
| |
app le
Ġëį ľ
Ġbrow sing
Ġsus pected
ì°¨ ë¡Ģ
ĠCommun ication
ance ll
ĠìĹ°íķ© ëī´ìĬ¤
ĠìĥĪ ë¡Ńê²Į
ĠP erm
Ġu mb
ĠSte wart
æĸ ĩ
Ġcent ered
} ^{-
Ġdebt or
Ġle nder
OUN D
Ġar ises
pe at
Ġë´ ¤
oub ted
ĠC t
p rom
Ġharm on
Ġdis able
h ole
Ġsyn c
ëł ¬
Ġembod iment
ĠT aking
, $
ĠU P
ëľ ¨
th an
Ġtow el
10 6
}} $.
irm ingham
ĠBr un
ĠOper ations
Ġfirm ly
Ġtrad ers
Ġst itch
Ġìĭ¤ ìĭľê°Ħ
Ġë¦¬ ëįĶ
Ġattack ed
Ġsched uling
BU G
Ġrepl ied
Ġcapt ain
Ġì±Ħ íĥĿ
ĠF al
Ġv iagra
t ri
Ġhoriz on
Ġê°Ĳ ìķĪ
Ġ19 67
Ġinsert ed
Ġrun ner
ê¸° ê¸°
Ġjump ed
Stud ents
im edia
Im pl
ĠJon athan
ĠEs pecially
Ġsh ar
Ġgood ness
Ġpers istent
ĠìłĦ ëĤ¨
ĠN BA
Ġì§ ĵ
Ġcock tail
he rence
x s
Ġresp iratory
Ġê¸° íļĮë¥¼
ìĥĿ ìĤ°
Ġun ve
Ġíķĺ ë°ĺê¸°
{ (
< \
ĠCor ps
Ġìłľ ìĿ¼
Ġreg ression
Ġcancell ation
), \
ĠIntellig ence
ë¯¸ ëŀĺ
ĠP ink
ĠRou te
Ġtravel ers
ĠAg ent
ĠArchitect ure
ĠìłĢìŀĳê¶Į ìĿĦ
1 19
Ġall ocated
Ġf oss
Ġfortun ate
ĠPark er
Ġìĭľìŀ¥ ìĹĲ
Ġtou ches
C ent
Ð ´
Tem plate
ats on
Ġì·¨ ëĵĿ
è¡ Į
íĬ¸ ëĬĶ
ĠIm ages
gg ing
ĠTe a
ĠGra de
Ġcor on
ĠF eed
Ġunemploy ment
Ġgover ned
Ġappropri ately
ëħĦ ìĥĿ
j et
S ession
ì§Ģ ëĬ¥
Ġlic ensing
Ġstrugg les
ãĢ Ķ
des ign
Ġref ined
Ġt ensor
Ġdisc rete
ìĬ¤ëŁ½ ê²Į
ucle ar
Ġ11 4
ĠAss ert
W ould
Ġspread ing
i em
Rem ove
Ġì§ĳ íĸī
ê³µ ìĽĲ
ĠAr g
Ġfert il
ĠH unter
Ġrecord ings
Ġë ĺĳ
Ġë² ½
Ġcred entials
Ġì¤ĳêµŃ ìĿĺ
re ference
Ġê°Ģê¹Į ìļ´
Ġì¡° ìĸ¸
ĠSh ipping
Ġprov ing
Ġì²ł ìłĢ
us ers
Ġear liest
Ġfestiv als
12 7
ĠCamp bell
Ġw and
F ont
Ġten ant
ë¥ł ìĿĦ
ìĦľ ê´Ģ
Ġmer ge
Ġnewsp apers
W elcome
Ġpuzz le
Ġportra it
ate ur
Ġbelong ing
ĠSom ething
ĠUS E
Ġl iber
Ġfif ty
Ġh ockey
ĠB rid
} ]
Ġì§Ħ ìŀħ
ĠìĿ´ë¦Ħ ìĿĦ
Ġwarm th
Ġprevent ed
Ġdu ct
ìĿ¼ ìĿĢ
Ġscan ning
Ġbub ble
íĻĶ ìłĲ
Ġun law
Ġs ou
Ġìĺ ·
Ġê³µ ë¶Ģ
he im
t im
ĠH end
ĠJ oh
ĠìĽĶ ëĵľ
Ġpath ways
¤ ë²Ħ
ĠíĥĢìĿ´ ìĸ´
Ġbrand ing
íķĺ ê²łëĭ¤ê³ł
jav ascript
ĠOrig inal
Ġsubs cribe
m ask
Ġcons iders
ĠNet flix
Ġor b
Ġprotocol s
Ġì§Ģ ë¶Ħ
ĠìĬ¤ ìľĦ
ĠëĤĺíĥĢ ëĤĺ
Ġb illing
Ġind ict
Ġvar iant
Ġì§ĳ ê³Ħ
Ġundert aken
Ġfat igue
Ġdies el
ĠìķĬ ìľ¼ë©´
ĠëĶĶì§ĢíĦ¸ ëī´ìĬ¤
é Ļ
Ġforg ot
Ġê°Ħ ëĭ¨
Ġill um
lim its
ĠL isa
com ment
ãģ ª
un ge
ot on
ĠSpecific ally
Ġd iving
ĠSwed ish
Ġlength s
cle an
ĠìĥĿê°ģ íķľëĭ¤
ke ep
íĺķ ìĿĦ
ig o
ĠOffic ial
Ġarriv es
Ġdes erves
L R
ĠìŀĦ ìĭľ
Ġbra ke
ìĶ¨ ìĿĺ
Ġjump ing
ĠP ic
ĠEx ception
E s
ì¡° ìĽĲ
Ġprompt ly
Ġg adget
Ġë°° ì¶ľ
Ġtrick y
11 5
ĠAl f
Ġ Ñģ
st ory
ĠG round
Ġbehavior al
Ġdiscon nect
Ġsp inal
Ġappear ances
Ġíı¬ ê¸°
ĠL oc
ĠëıĻ ìĿĺ
or ized
Ġrefe ren
Ġdemon stration
im pl
ë¥´ ê¸°
atern al
ĠPl ans
Ġisol ation
c ond
ĠAl ice
Ġland ed
ĠG DP
Pl an
Ġconstit utes
sc ar
ĠìĪĺ ìļ©
ìķŀ ìĦľ
ĠA le
ìĿ¸ íĦ°
ĠL ower
. *]{}
it ants
ĠDis cover
Ġsal mon
D iv
Hist ory
ĠëĤĺ ìĻĶ
Ġmed al
The ta
Ġsevent h
ãģ §
e val
Ġinform al
´ëį Ķ
Ġfat ty
4 50
Ġpan ic
Ġas ce
Ġf ires
ĠìĻĦ ìłĦ
ĠF IT
ãģ Ł
B ody
lo op
Ġover d
Ġpositive ly
Ġê±° ì£¼
Ġstri kes
Ġì¡° íļĮ
ig ator
n orm
Ġillustr ate
ë³ ´ë©´
Ġê³Ħ ìĤ°
Ġbound s
ren cies
umb led
ĠV ision
Ġrel ie
Ut ils
Ġperiod ic
Ġter rain
ac cept
ìĽ¨ ìĿ´
b d
id o
ì¡° ì°¨
AL S
Ġobst acles
ê·ľì¹Ļ ìĹĲ
pe ople
Ġstra ins
Ġsp ont
' \
ĠApplic ations
Î ¿
Ġb ake
Ġdiscuss es
Ġrele asing
ĠìĦł ìŀĦ
ĠCharl ie
Ġmiss ions
ĠìĿ´ë Ŀ¼
Ġf ried
Ġoptim ized
ìłķ ìĥģ
ìłĲ ìľ¼ë¡ľ
ii i
Ġìĥģ ìŀ¥
Ġscal ar
u cl
Ġant ique
W idget
Ġactiv ate
ph ony
Ġind ul
ĠB ond
) </
ĠDe bt
Ġre un
Ġqual ifications
Ġwh olesale
ĠD river
ĠìŀĪ ìľ¼ëĤĺ
Ġimport ed
ãģ ¨
ë¶Ħ ìķ¼
Ġsl iding
ĠOut door
Ġfem ales
Ġìłľ ëª©
Ġìĭ¤ ì²ľ
Ġjournal ist
Ġnutrition al
IS A
ĠMov ie
ìłĪ íķľ
Ġrender ing
ĠPro position
Ġcrypt ocur
å ¸
å¤ §
}\ \
Ġê³µ ë¬´ìĽĲ
Ġfif teen
ib ration
Ġsl ope
íķ´ ìļĶ
Ġsumm it
ron ics
ac count
Ġëĭ¤ ê°Ģ
w ent
att oo
t ool
Ġ ----
ĠCrim inal
St and
ĠSte ven
ĠCan on
Ġë³´ëıĦ íĸĪëĭ¤
Ġwa ited
b oth
ag u
ĠExt ra
ast ics
Ġsod ium
and al
art en
ĠInc re
Ġathlet ic
Ġwh isk
ĠB os
ìħ ī
ĠPat ients
Ġrhy thm
Ġen er
Ġconv ince
ë Ń
Ġ19 40
Ġof fend
Ġdist ress
G reen
Ġlink ing
Ġtrig gered
Ġprom o
Ġìĸ´ ìłľ
Ġm ales
ì¹ĺ ë£Į
ìŀ ĸ
Ġf isher
Ġsp am
Ġap olog
Ġì£¼ ìłľë¡ľ
oo oo
ĠRec ently
æ Ķ
Ġìµľ ìĭł
ch anged
ĠD elta
ows ki
Ġìĸ´ë ¨¸ëĭĪ
ìħ ĭ
Ġsy m
Ġpharm acy
Ġblock chain
ĠA my
Ġfra g
ĠBeaut y
ĠM es
Ġvir al
ĠH it
Ġcorrel ated
Ġund e
pro d
oubted ly
Ġw ires
ĠDis play
å Ĩ
ĠìĥĿê°ģ ìĿĦ
ë£ °ëłĽ
Ġtoler ance
ru nt
ĠP od
Ġlect ure
Ġass ure
Ġsever ity
bor ough
Ġam bit
ĠBar celona
CL UD
Ġj av
ĠG ardens
ĠDet ails
ĠNor way
ë ļ
ĠìĿĺìĽĲ ìĿ´
Ġn ic
Ġhand ler
Ġë¯¸ ìĪł
Ġë°Ķ ëŀĢëĭ¤
Ġreported ly
o i
ê³Ħ ê°Ģ
Ġconsult ants
ĠT ouch
Ġd ub
ĠP le
uff y
vert ed
Ġ( [
ĠíĽĦë³´ ëĬĶ
Ġsymm etric
ìĥģ íĻ©
Ġdeg ener
ĠìĿ´ë£ ¨
ĠLic ensed
Ġre ck
Ġcard iovascular
íİ Ģëĵľ
Ð ¿
Ġcontrovers y
Ġener get
G ra
ĠV IP
K T
ĠA ch
11 4
Ġperfect ion
Ġexpect s
æ Ģ
Ġremed ies
ĠB eth
N ESS
c ategory
Ļ Ĥ
íİĺ ìĿ´
ĠíĶ¼íķ´ ë¥¼
oot ing
ĠSuper ior
D an
ĠGreat er
ê³µ ëıĻ
Ġthere after
Ġê· ł
ĠBe ijing
ìķĺ ëįĺ
ĠAny one
ĠF reedom
P y
O O
ĠíĸīìĤ¬ íķ©ëĭĪëĭ¤
)) /
Ġfra gr
W atch
ĠO ri
Ġimm igrants
bor ne
Ġar row
app er
Ġ$ -
t ops
ìĺ¨ëĿ¼ìĿ¸ ìĭłë¬¸
Ġbe ating
Ġì£¼ ìĿ¸ê³µ
ĠìŀĲ ê²©
ĠëĬĲ ê»´
if act
* (-
ĠëĤĺ ìĿ´
x it
Ġhe d
reg ister
Ġall ocation
ê³µ ê°Ħ
Ġì¶Ķê°Ģ ë¡ľ
ĠìĿ´ëĵ¤ ìĿĢ
ĠìĤ¬ìĿ´ ìĹĲ
Ġhyper t
C N
Ġre vel
ĠCons umer
H ope
Ġdecor ations
Ù Ī
ĠWay ne
Ġscript s
ìĽĶ ê¹Įì§Ģ
Ġ --------
ĠJ oint
ed ar
Ġgraph s
ìĿ´ìļ© ê·ľì¹ĻìĹĲ
ĠApp ro
ar ium
Ġour s
ĠìĿ¼ ìĸ´ëĤĺ
Ġê³¼ ìłķìĿĦ
Ġe book
ĠK han
Ġmuseum s
23 3
Ġêµ¬ ëıħ
Ġlog istics
Ġinter fe
´ë§ Į
& =&
ĠìĥĪ ëĪĦë¦¬
Ġíķ´ ìĨĮ
Ġtu ition
}} $,
ĠíĶĦë¡ľê·¸ëŀ¨ ìĿĦ
ĠF actory
Ġgrad ient
ĠR isk
ib li
ĠO FF
and el
Ġup s
o ks
ĠStand ards
Ġse wing
ĠDak ota
ê¹ ¨
P ublic
Ġê³ł ìĸĳ
arent ly
Ã¼ r
\ ,\
D IT
Ġfree ze
re z
ĠíĮĮíĬ¸ ëĦĪ
ĠC OP
stand ard
Ġt orn
Ġìĭ¤ íĺĦ
ne ed
Ġnow here
Ġë¯¸ ëĭĪ
") );
t i
Ġearth qu
ĠìĪĺ ì§ĳ
Ġhy gien
w d
Ġstress ful
Ġnom inated
3 000
ëĮĢ ë¹Ħ
Ġê·¸ ë¦°
Ġê°ĳ ìŀĲê¸°
ĠUlt ra
Ġexpl ores
Ġp iv
íķĺ ëĭĪ
ìĥģ ëĭ´
en o
Ġcatch ing
A h
Ġv ou
ìŀ ī
ĠëĶĶì§ĢíĦ¸ëī´ìĬ¤ ìĿ´ìļ©ê·ľì¹ĻìĹĲ
Ġíķĺ ê²Į
Inte ger
Ġlearn ers
AT ED
Ġam big
Ġsh aft
äº º
ĠT a
ãĢ Ī
ĠCh art
f g
Ġhabit at
Ġpe aks
Ġì§ģ ìŀ¥
R ule
Ġpor ch
ï¿½ ï¿½
ĠE ye
Ġexhib ited
Ġshare holders
Ġgrand mother
Ġst adium
Ġvert ices
in itely
Ġsc ared
ĠK B
ĠH at
Ġstrugg led
Ð° Ð½
Ġsh ifting
éĩ ĳ
ìĭł ìĿĦ
R oot
it i
Ġaut umn
Post ed
umb ai
ĠTra ck
T im
Ġst ew
ĠS oul
ĠTH AT
45 6
ĠS BS
H ot
Ġê³µ íķŃ
Ġpar ish
cl oud
ĠIs a
Ġc ables
Ġtra ject
Ġìĭł ìĨį
Ġhard wood
Ġë°ĺ ë°ľ
Ġl akes
l am
Ġreg ener
Ġc akes
ĠT her
Ġê¹ Ķ
ĠCN N
ĠC zech
Ġrat ios
amp a
Ġsw ap
ìĪĺ ìĪĺ
Ġw rest
ul u
Ġc attle
Ġten ants
Ġpy thon
Ġco pe
16 8
Ġfix ing
all ed
or us
Ġë¹ ļ
u ly
Ġad apter
êµ° ìĿĢ
ins p
Ġin adequ
S n
s al
ĠIntern al
ĠM essage
ëĭ¹ ìĿĦ
Ġenc rypt
ë²ł ìĿ´
ag ne
Ġcompr ising
Ġorient ed
ĠApp ell
ĠC E
Ġë¹ł ìł¸
M AN
bel ie
ĠJust in
ĠEn c
ìļ© ì°¨
Ġdiscl osed
Ġìı ŁìķĦ
ë¶Ģ ìŀ¥
Ġê°ĸ ì¶Ķ
J son
Ġì§Ģ êµ¬
Ġreg ret
Ġspir its
Ġìµľ ìłģ
Ġannoy ing
Ġìŀĳ ìļ©
Ġic ons
ĠU ntil
inn amon
ĠLab our
Ġê³µ ìĭľ
ĠLaur a
um per
g b
ĠEv ans
ĠìĻĦ íĻĶ
Ġment or
C reat
Ġë§Ĳ íķľëĭ¤
Ġhe x
ĠM Y
ĠìķĦ ë¬´ë
ĠAl bert
Ġpar a
w p
ĠCl ose
Ġext ensively
Ġìķŀ ìĹĲìĦľ
ĠColl ins
ĠS ERV
ĠëĮĢ íķĺìĹ¬
å® ļ
Ġhorm one
as ury
Ġp el
ìłĦ ê¸°
Ġlend ers
Ġopp onents
ĠíķĺëĤĺ ìĿĺ
re view
W ARE
Ġmail ing
De velop
ìĤ¬ ìļ©
n c
Ġp ics
Ġë¸Ķ ë¡ľê·¸
Ġl os
Ġrecon struction
ì° į
ê³µ ê°ľ
Ġpe pt
19 86
Ġcoe fficient
ĠìĤ¬ëŀĮ ëĵ¤ìĿĢ
G iven
æ ŀ
e an
Ġsmart phones
ëĭĪ íĦ°
< <
ĠBed room
N eed
19 89
Ġy arn
ĠìĬĪ íį¼
ĠCit iz
Ġequ ilibrium
Ġmyster ious
he ro
add le
Ġblank et
Ġfail ures
Ġpass ive
B r
Ġaccess ing
P rior
Ġt ones
Ġn ails
ĠMon itor
ĠC oc
Ġsan ctions
Ġspecial izes
Ġreson ance
H L
ĠEmer gency
Ġìĺ¤ ëŀľ
íķĺëł¤ ê³ł
Ġ& =&
L icense
Ġpun ct
Ġpe an
ĠMad ison
ëħĦ ìĭĿ
Ġtum ors
¸ Ĳ
Ġev olving
urb an
ê³ł ìĨį
Ġin coming
Ġêµ¬ íĺĦ
Ġrep orter
Ġm elt
ë¶Ģ ëª¨
Ġwr ist
ex per
Ġcheck out
Ġh iding
ER Y
ìłľ íķľ
Ġë¹Ħ ì¦ĪëĭĪìĬ¤
F ound
ì§Ħ ìĿ´
ĠìŀĪëĬĶ ì§Ģ
ĠëŃ Ķ
19 80
Ġsw itched
Ġeth ics
hel ial
ĠMit chell
íĽĦ ë³´
Ġcor rupt
Ġjournal ists
Ġneut r
ĠS ustain
Ġë¬ ĺ
Ġcompet itions
ĠA SS
Ġus ername
Ġf ond
inst ein
P ub
Ġìŀ¥ ë¹Ħ
Ġmathemat ics
is en
div ision
ĠJenn ifer
Pl atform
Ġin aug
ĠK r
Ġë¶Ģ ê³¼
ĠD ining
t otal
Ġan onymous
ment ioned
Ġinv oice
Ġinstall ations
sp ot
m ove
Ġë³ĳ ìĽĲ
it ored
force ment
Ġadapt ation
Ġì§ĳ ëĭ¨
Ġëĵ¤ ê³ł
Ġì± Ļ
Ġsubstr ate
Ġr if
iot ics
ĠC AN
de gree
Ġun ity
Ġat oms
Ġeduc ators
H ttp
Ä ±
Ġalt ogether
ĠëĤĺ ê°Ī
Ġë© ĭ
Ġíļ¨ê³¼ ê°Ģ
ìĭ¬ íŀĪ
Ġelim inated
ĠPitts burgh
Ex per
Ġp ound
ier ra
Ġrent als
)$ $
list ed
ĠSt age
ìĿĺ ë£Į
Ġvacc ine
ëģ Ħ
ĠD ating
ĠL IM
ĠMil itary
ĠH ell
ĠC urt
ìľ Ī
Res ults
ìĨĮ ê°ľ
az ing
subset eq
ëłĪìĿ´ ëĵľ
count ry
ĠW ILL
i otic
ĠV AL
ĠHe at
Ġcush ions
ìĦł ìĿĺ
Ġë°© ìĹŃ
ìĨĮ ìĹĲìĦľ
Ġfor ty
Ġbless ing
in burgh
ĠLiver pool
h n
requ ency
N ever
ĠArk ansas
ĠíĬ¹ë³Ħ íķľ
Pro perties
omorph ism
Ġdon or
the ning
Ġst ip
RE AD
Supp ort
Ġêµ ³
ĠD rop
ĠìĿĳ ëĭµ
Ġcosm etic
Ed itor
Ġìĭ¤ ì§Ī
10 7
% ;
ìłĦ ìŀĲëĬĶ
Ġtra ditionally
ìĿ¼ ë¡ľ
Ġlegisl ature
Ġtra its
Ġs ulf
le tt
Ġm ant
Ġì»¤ë®¤ëĭĪ íĭ°
Ġat omic
Ġcontrib utes
ëªħ íķľ
ĠìĿĺ ìĭ¬
é ģ
C G
ĠìĨĮ ì¤ĳíķľ
ĠW A
old ing
qu is
ĠC ass
ĠK ay
ĠMan hattan
Ġbench mark
Ġren al
form er
Ġplant ing
Ġê¸° ë¶Ģ
ĠS au
ĠiT unes
Ġwater proof
Ġtherap ist
gh ai
ĠRes erved
ĠíħĮ ìĬ¤íĬ¸
Ġë°© ì§Ģ
Ġrom ance
Ġì·¨ ìŀĦ
Ġcontem pl
F D
ol in
ĠC rown
Ġìļ° ìĬ¹
H ub
Ġinstrument al
Ġp ale
ĠV ent
ien cies
ĠY TN
n ell
ĠPol ish
ĠInst ru
Ġì°¾ ëĬĶ
ĠD iet
Ġch ic
() ->
Ġëĵľ ëĿ¼ìĿ´
=" ../
b ay
Ġ2 30
Ġanaly sts
Ġout look
Ġphr ases
//////////////// ////////////////
ëł¥ ìĿĺ
Ġth rive
P ower
Ġwitness ed
sw er
ë²ķ ìĽĲ
Ġìŀ¬ ìĥĿ
Ġg inger
ĠíİĺìĿ´ìĬ¤ ë¶ģ
are l
Ġìłģê·¹ ìłģìľ¼ë¡ľ
Ġrun ners
ĠCra ig
ogen esis
ĠíĸĪ ëįĺ
ure ment
ĥ ½
OL L
ĠìŀĲ ë¦¬ë¥¼
" ?
ĠS MS
Ġb ail
ê°ľ ìĿ¸
Ġquick er
íħĮ ìĿ¸
ĠR NA
Ġ19 65
ĠM ira
Ġa pt
Ġê¾¸ì¤Ģ íŀĪ
Ġsince re
b ial
Ġd y
ĠPhys ical
íĮ Ł
Ġcurt ains
Ġgram s
Ġter race
id x
est inal
ĠM ason
Ġfin ances
c ient
ĠìĪĻ ë°ķ
Ġin verse
ìĸ´ëĤ ´
ĠI oT
ĠPar am
re place
ĠEconom ics
ĠV I
sh are
ĠìĹ¬ëŁ¬ ë¶ĦìĿĺ
ĠK el
ĠE T
ĠP ool
oc ard
10 9
o j
Ġ25 6
ìĦ¸ ê¸°
opl us
ĠM ER
Ġpri est
ĠF el
ĠSing h
w ind
Ġstri ps
ëłĩ ê²Į
ĠìĿ´ìļ© íķł
Ġcost ume
ar in
ĠY an
we g
ict ional
CON FIG
Ġdiss ertation
Ġê°Ģ ëĵĿ
ìĨĮ ëĬĶ
et c
abul ary
me an
ë¬´ ìĹŃ
S pecial
ĠL odge
ĠR u
ĠC ream
ĠC ertain
Ġfurn ished
ĠìłĦ ë¶ģ
19 88
ĠDef ault
Ġdiscipl ines
ĠFe el
Ġtrans mitted
ëĶĶ ì§ĢíĦ¸
Ġher b
Ġf ate
Ġíĺ¼ ìŀĲ
ĠE ither
00 2
ìĭĿ ìĹĲ
Ġì§ĢìĹŃ ìĿĺ
Ġì¢ħ ëª©
ios ity
ìķ½ íĴĪ
' >
ìĪĺ ìĦĿ
ĠT ob
Ġ\ |
ĠT un
on omy
ë¦¬ ë©°
Ġout f
Ġinter faces
íı¬ ë¥´
ìĤ¬ ìĬ¤
ĠFif th
ìĿ´ ê¸°ëıĦ
f und
ĠB irmingham
Dis play
Ġresid ual
Ġfl esh
ount ain
Ġlength y
ĠP ant
Ġex clusion
ĠSch olars
ot ics
Ġì±Ħ ê¶Į
Ġtempor arily
ink s
pl ot
Ġë¶Ģíĥģ ëĵľë¦½ëĭĪëĭ¤
por ter
ìłģ ìĿ´ëĭ¤
ĠëĮĢ ê¸°
ĠProdu ction
}} }$
st ation
an im
ong a
Ġíİ¸ ë¦¬
ìĽĶ ëĵľ
ê² ģ
Ġgra vit
back ground
Ġprov es
Ġë¹Ħ ëĤľ
êµĲ íļĮ
Ġburn ed
ĠìĿ¼ ìĥģ
Ġf ier
Ġì°¨ ê°Ģ
Ġasp ir
Ġassert ed
âĢ Ĳ
th ree
Ġch i
æ İ
Ġpar cel
Ġretail er
Ġneighborhood s
Ġfrustr ating
Ġle nding
ĠG arc
Ġch ick
ĠU b
ìħĶ ìķ¼
pro gram
op ath
ĠA bb
Ġfoot print
Ġìĭľìŀĳ íķľ
Ġsun light
Ġst oring
Def inition
ĠìłĢëł´ íķľ
G r
Ġëĸł ëĤĺ
b ral
ĠëĤ¨ íİ¸
ĠResp onse
A ud
Ġl od
êµ¬ ëĬĶ
l ad
ë ¸Ĳ
ëĮĢíķľ ë¯¼êµŃ
Ġver b
Val ues
ĠS pl
Ġfinancial ly
Ġsc ent
ul atory
ĠCl ay
er ness
Ġëĵ± ìĹĲìĦľ
ìķ¡ ìĿĢ
ĠP T
Ġje ans
Ġsol ic
ëŀ Ħ
T erm
che m
Ġíĥľ ìĸĳ
Ġsac red
ç ½
ĠëĤ´ìļ© ìĿĢ
Ġ$ .
ë ī
ëĲ ¨
Ġbe an
ĠëĤĺë¨¸ ì§Ģ
Ġconcentr ated
ëĤ´ ê³ł
ĠF ly
Ġsp here
Ġadequ ately
ĠA A
T ON
Ġpot ent
ps hire
CH AR
_ +
ĠìĪĺ ìĨĮ
Ġcur tain
ìī ½
Ġassemb led
ĠH alf
ê° Ķ
Ġm ig
Ġst yl
ĠN ord
Ġflu oresc
et itive
ë¦¬ ê·¸
Ġë§ŀ ì¶¤
ass y
ĠB ot
F ore
Ġê·¸ëŀĺ ëıĦ
Ġgirl friend
Ġtrans itions
Ġas ympt
ĠBe yond
ĠA id
Ġvol can
T ab
d iff
Ġcush ion
ĠN ode
Ġinf ant
Ġê¹Ģ ìĺģ
ĠP oker
Ġìĭľìŀ¥ ìĿĺ
ĠCry stal
ĠL ore
z i
f r
l ace
ĠS I
é Ŀ
Ġl as
Ġf usion
ĠíĿĲ ë¦Ħ
Ġsil k
Ġj ournals
ë¦¬ íķĢ
Ġsu cc
Ġstick s
ĠF an
ĠC AR
ĠChe ap
ke eper
Ġac oustic
Ġg erm
Ġfluct uations
Ġh orn
Ġdec ides
Ġdetect or
Ġsw itches
S outh
ĠAr c
ra pper
ì²´ ìĿ¸
as a
Ġrecycl ed
Ġd oses
Eng ine
ron es
ĠìĨĮíĶĦíĬ¸ ìĽ¨ìĸ´
W orks
ĠMarsh all
ĠNot es
amb oo
Ġsc enery
$ ^{
Ġ13 5
S ocial
ĠT es
Ġelig ibility
ĠSn ap
Ġende av
th a
Ġm erc
ëĤĺ ëĭ¤
ĠU l
ĠBath room
Ġb acon
own er
ĠK rist
ĠO THER
ìĭ ¶
trans lation
Ġ3 20
ĠëĤ ¸
ĠV ac
Ġv ic
ĠR io
Ġst arter
Ġê´Ģ ëŀĮ
Ġtre k
åı ¯
Ġadvis ory
ĠD ry
Acc ount
Ġanaly zing
ĠM t
Ġg ates
ĠK ath
Ġìĭ¤ íĹĺ
Ġë§Ĳ ê³ł
L ab
Ġ11 3
ë¡ł ìĿĦ
des c
Ġdep riv
ãĢ İ
ic ion
ĠOr lando
Ġso vere
ĠìĤ¬ ìŀ¥ìĿĢ
ĠP eters
es pecially
Ġreal ise
Ġl ining
Ġh obby
ĠON E
å ī
ĠDesign s
W ant
++ ;
Ġë ķ
ëŀ ©
um m
Ġansw ering
ĠF BI
Ġaccred ited
ĠíĸĪ ì§Ģë§Į
ì§Ģ ê¸°
ene z
Ġkill er
^{- \
ê°Ħ ëĭ¤
Ġê³ł íĨµ
ĠPro ceed
Ġfro st
Ġwa velength
Ġëªħ ìĺĪ
ê±´ ì¶ķ
ĠëĮĢíĳľ ê°Ģ
ë¦¬ ìĬ¤íĬ¸
D om
Ġtrans cription
ì§Ģ ê²Į
ìĤ° ë¬¼
ë¥ł ìĿĢ
f ramework
p her
Ġconsist ed
íķĺëĬĶ ê³³
Ġd ictionary
f illed
ĠíĮĮ ìĽĮ
ex cept
Ġch ron
ĠíķĺëĤĺ ëĭĺ
Ġëĵ£ ê³ł
ĠíĻĶ ìŀ¬
Ġconvin cing
ĠBelg ium
Ġent ers
ĠVol unt
Ġillustr ations
ĠH ello
ach ment
Ġinflu ential
Ġtr an
Ġfeas ible
UL AR
Ġnot ebook
Ġwas hed
íĭ ¸
Ġaw k
Ġt in
ĠëĤĺ ìĦ°ëĭ¤
ir ical
re he
Ġinnov ations
ĠAnalyt ics
Ġp ads
Ġge ometric
it ol
Ġur ge
C B
Ġrele vance
ĠìľĦ ìĹĲ
ĠHig her
Ġcand le
ĠT rip
Ġm s
Ġì§Ģ ë°°
Ġun pre
ĠâĢľ [
ob ic
Ġfor b
ìĨĮ ë¹Ħ
Ġì°¸ìĦĿ íķľ
ĠU pper
S Y
in is
ĠëįĶë¶Ī ìĸ´ë¯¼ì£¼ëĭ¹
ĠCol on
ìĹ ĳ
Ġassert s
g ration
Ġê³ł ìľĦ
Ġ" (
c ule
Ġsil ly
E ff
Ġdesce nding
Ġmusic ian
ĠT M
ìĤ¬ ìŀ¥
s up
ul ly
Ġdon ors
ĠMur ray
Sh ort
íĳľ ë¥¼
ul ic
´ëĤ ´
P op
So ft
AN K
ìĬ¤ ìĹĲ
Ġor n
ĠPro s
Ġclar ify
Ġlist ened
Im port
ĠìĿ´ ìĬĪ
Ġmeant ime
Ġmoist ur
ĠWar ren
Ġpursu it
Ġinstruct ed
Ġmess aging
Ġ19 64
att ribute
Ġdead ly
Ġëĵ± ê¸ī
ĠP ent
Ġë² ¨
ess ional
ĠìĹ° ì¶ľ
Ġaccompany ing
Ġnot ifications
Ġê¼ ¬
ĠProced ure
ri k
E U
Ġapp les
G ame
Ġíĳľ ì¤Ģ
he res
Ġconcert s
ster dam
Ġë¡ľ ë´ĩ
Ser ial
ĠìľĦ íķĺìĹ¬
Ġst urdy
ĠR d
Ġo ct
ìľł ê°Ģ
ir i
åĲ Ī
Ġrecip ients
Ġvar iance
Ġsp ices
R ound
Ġstim ulation
ĠTra ding
Ġdefic iency
connect ed
Ġreal m
ĠVol ume
oura ge
ìĸ´ ì§Ħ
Wh ite
ĠBB Q
Ġinc on
ìĭľ ê¸°
Ġwat ches
Ġex clude
Ġê±° ëĵŃ
Ġassist ing
ĠG ot
Ġsu ng
19 87
áħ ³
D i
Ġamaz ed
p riv
7 50
ĠW indow
Ġ11 6
Ġbreat he
ĠìĤ¬ëŀĮ ìĿĺ
Ġass urance
Ġmedic ines
_ ,
Ġn u
Ġg y
Ġby pass
ĠAl b
n ia
ĠG ard
Ġê·¼ ì²ĺ
Ġcont ra
ë¥ĺ ë¥¼
Ġwh is
b order
ĠSt atus
de cl
\_ [
ĠStrateg y
Pl us
p atch
Ġnation ally
D ig
Ġtra ded
ment ia
Ġint act
19 84
ìĤ¬ ìĿ¸
ĠMount ains
I ter
´ë ħ¸
Ġm im
ĠClin ic
Ġtouch ing
ìĿ´ ìłĦ
Ġëĵ ł
Ġinnoc ent
ĠìķĦëĭĪ ê³ł
ĠìĥĿ íĥľ
ĠKen ya
Ex press
k now
Ġemb ro
ĠëįĶë¶Ī ìĸ´
Ġappro ve
ĠëĤĺìĺ¤ ê³ł
parent s
ĠE PA
de lete
Ġcancell ed
ĠWe ight
Ġl bs
F eb
Ġìłķ ëĭ¹
ĠRespond ent
Ġbalcon y
ê·ľ ì§ģ
whe el
ĠResp ons
ëĦ ¥
Ġsp ite
Ġstat utes
Ġrefuge es
l as
Ġì±ħìŀĦ ìĿĦ
Ġc ents
Ġì´Ī ì²Ń
ĠId aho
comp onent
id al
ys ical
ĠPub l
Ġìĵ° ëĬĶ
Ġ2 25
Ġambit ious
Ġdownload ing
j amin
Ġfor cing
ë°Ķ ë¡ľ
Ġcommer ce
ĠH V
ìĭľ íĭ°
Act ivity
uk i
Ġë¿Ĳ ë§Į
ĠR at
Ġur gent
Ġag grav
ĠHope fully
ica id
Ġl one
Ġhand made
íĬ¸ ê°Ģ
ov al
Ġband width
Ġì¿ł íı°
ins ula
Ġare na
Ġline up
any on
Inte rest
ĠAssess ment
ĠëĨĴ ëĭ¤
ä ¾
ĠíķľêµŃ ê²½ìłľ
ĠG ill
ìĽĶ íĺ¸
at isf
Ġë°ľ êµ´
ĠìķĦìĿ´ íħľ
Ġì¢ĭ ìĿĦ
o is
Ġì£¼ ëł¥
ed e
c ity
Ġë°Ŀ íŀĮ
ĠSw itch
Ġrequest ing
ĠìĪĺ ìĪĺ
ĠPh ase
Ã£ o
Ġreg ulate
Ġcreat or
ĠB ishop
ĠSe ven
ç §
Ġt ribute
author ized
ĠPu erto
ibl ical
j ob
ĠK IND
ĠX box
ĠLe ave
Ġrev ision
ĠLib erty
EN CE
que ue
Ġcl ips
Ġê²° ìłľ
Ġim plements
ê²ĥ ëıĦ
Ġcha os
se en
ĠíĺĦ íĻ©
ìĦľ ê°Ģ
ĠImp act
ĠD W
Ġy og
Ġo z
se ys
Ġadvoc acy
Ġtim er
Ġì¶ľ ë§Ī
Ġmir rors
B en
Ġimp ly
Ġbicy cle
ĠChe f
ëħĦ ìĹĲëĬĶ
Ġthro at
Ġdisplay ing
ĠT ed
Ġbr ide
Ġreferr al
O A
c oll
it us
M iss
Ġshift ed
C r
uns igned
13 5
Ġpreval ence
ĠC u
ĠAth let
Ġíİ¸ ì§ĳ
Ġplay ground
or ative
ĠE val
Ġmet adata
Ġì¢ħ êµĲ
ol er
og g
Ġmon itored
ĠEx ample
Ġall oc
id ate
Ġê°ĸ ì¶ĺ
g mail
It ems
Ġal mond
Ġmat rices
Ġapp ar
Ġfib ers
N P
R ect
Ġ12 7
ĠëĶĶ ìł¤
ĠMaterial s
ot yp
e fficient
Ġall oy
cont in
ĠëĶ° ë¡ľ
Ġperipher al
En abled
Ġcream y
Ġinv is
ig m
Ġen velope
Ġrenew ed
Ã© e
Ġê± ·
Ġformer ly
Ġsurge on
ĠíĨµíķ´ ìĦľ
ĠForm at
Ġfr ustration
}} )
Ġë§Ī ì¹ĺ
EFA ULT
im ental
ìĿ¼ ë°ĺ
Ġl um
Ġfe ver
, {\
Ġcoll ateral
Ġw ars
Ġimpl icit
Oper ation
ĠìµľëĮĢ íķľ
Ġë°Ŀ íŀĪ
ĠìĹ´ ìĸ´
ĠìĪĺ ìĽĲ
Ġcater ing
ĠLead er
Ġìŀħ ëł¥
ann ers
ĠWorks hop
Ġqual ifying
}} (\
op a
Ã ł
Ġìľł ìĹĶ
file ID
19 85
ìĸµ ëĭ¬ëŁ¬
Ġcomm ence
Ġred ist
oo g
O s
ãĢ Ĭ
atter y
ìĥ ¤
ĠëıĻ ë°ĺ
ĠTh or
ĠM ob
Ġill ustration
ĠPalestin ian
ech o
rell a
ĠH ind
Ġbron ze
Ġl ou
Ġir r
L ock
Ġbr ut
Ġelim inating
c ook
Ġcon gr
Ġìķŀ ìĹĲ
Ġë¹Ħ íĸī
** *
Ġr ic
Ġward robe
Ġl azy
Ġblog gers
Ġneur ons
x sl
Ġsom etime
ë¨¸ëĭĪ íĪ¬ëį°ìĿ´
Ġinev itable
th ink
p ract
ochem ical
Ġvoc als
ast ically
V ideo
ĠRegist ration
ê°ľ êµŃ
mind ed
2 25
Ġundert ake
att ed
ĠìĹ¬ ìķ¼
Ġsun set
ëį° ìļĶ
Ġs ailing
Ġê·¸ ëķĮ
ĠCh oice
ĠL l
B Y
ìĭľ ìĿĺ
E Y
Ġre de
Ġshall ow
art icle
c amp
Ġpat ches
Ġadd ict
ĠSam ple
ĠV ector
ëįĶ êµ°ìļĶ
Ġeat en
ĠAll ow
ord ered
Ġbrid ges
Ġdry ing
Ġpump kin
Ġê·¸ ë¦¬ìĬ¤
IS H
ĠíıŃ ë°ľ
sett ings
al ine
ĠNe ither
Ġìĭľ ìŀ¥ìĿĦ
Ġsynt ax
Ġl iv
Ġìĭł ìĦ¤
ãĥ ³
Ġretrie ve
Ġaccept s
St at
ut ils
Ġver se
ë¬¸ ìĿ´
Ġshe er
Ġintrodu ces
ĠCond itions
Ġincent ives
ë¬¸ íķĻ
ìĸ´ë ²Ħ
ch at
ĠBrother s
Ġì²ĺ ë²Į
rom agnetic
ê²½ ìĿĦ
ìĭľíĤ¤ ê³ł
L im
Ġê²¬ ìłģ
ĠRog er
Ġcher ry
ĠìĿ´ ìĻ¸
so ever
Ġë°©ë²ķ ìĿĦ
Ġm k
ìĹħ ìĨĮ
see ing
ĠF at
Ġg ospel
íĶĦë¦¬ ì¹´
Ġcon gress
ĠEd inburgh
ìĿ´ë¸Į ë¦¬ëĵľ
ĠìķĪ ë³´
h d
Ġì£¼ ê°Ģ
Ġev olve
Ġhere by
ĠX P
M edia
iss ance
ig ger
Ġc ottage
Ġíķ ´ë³
Ġed itors
ì£¼ ëħĦ
ĠGl en
ĠGr iff
est y
Ġp umps
ê¸° ìķĦ
ĠMuslim s
Ġunique ly
Ġmod ular
s ime
ç ī
Ġwed dings
or ie
Ġm int
Ġsp otted
Ġstrong est
Ġe Bay
Ġon set
Ġê¸°ë°ĺ ìľ¼ë¡ľ
Ġtechn ically
I ts
Ġcare g
Ġprint able
AP P
Ġìĺģ ìĹŃ
Apr il
re port
ìĦ¸ ë¡ľ
< ?
T EST
ĠI an
c iting
O wn
Ġterm inate
ĠìŀĪìĸ´ ìķ¼
ĠìľĦ ê¸°
Ġcyl inder
ìłĦ ê±°
Ġincons istent
ë¯¸ ëĶĶìĸ´
ĠDe cl
e ks
Ġl over
u ctions
ìĿ´ ì¦Ī
ĠStud ios
ct uary
rol ogy
ell ery
Ġrust ic
Ġaffidav it
ĠS ent
ê¸° ì§Ģ
ĠT rial
Ġë§Ī ìĬ¤íģ¬
st rap
pass word
Ġlect ures
en um
Per haps
ìŀĲ ìľł
Ġ< ?
ĠìĶ¨ ëĬĶ
ĠN ag
Ġsacr ific
ass ed
ac re
ìĺ µ
ĠOper a
sime q
Ġbra ve
t ub
Ġë¬´ ìĦł
ì¤ĳ ìĿ¸
' _
19 2
Ġd ens
Ġcustom s
it ime
it ems
ex e
Ġdef icit
Ġem erge
at ched
Ġestim ation
Ar gs
[ [
ĠHealth care
ĠL akes
re lease
Ġê²° íķ©
ĠPr incess
atern ity
om on
ëĲĺ ìĹĪìĬµëĭĪëĭ¤
Ġslic es
Ġl amps
AR N
ĠìĦł íĺ¸
Ġerr one
ĠC ant
ĠìŀĲìĦ¸ íķľ
Ġdet erior
ë°° íĦ°ë¦¬
cl ub
f alls
Ġìĭ¶ ëĭ¤
ĠìĹ° ë§Ĳ
Ġrank ings
ĠL uther
ĠW ang
******************************** ********************************
P F
ì²´ ìĿĺ
comp at
Inst ead
ëªħ ê³¼
ë¥¸ ëĭ¤
ĠN A
ê³Ħ ìĿĺ
cl er
Ġw re
ĠAct ually
with out
Ġch rist
du ction
Ġê³³ ìĿ´
ĠSt ars
Ġreflect ing
ĠP rec
Ġsimpl est
Ġê¸° ìļ¸
ĠìĤ¬ëŀĮ ìĿĦ
Ġm arch
Ex ample
ĠMem ory
St ill
p ark
Ġëĭ´ ìĿĢ
ĠëĮĢ íļĮ
Ġcomment ed
ĠSum mary
ĠìĭľìĬ¤íħľ ìĿĦ
Ġterr ific
Ġen semble
Exp ression
Ġíĥ ĵ
N D
Ġseam less
ĠKnow ledge
Ġsubscrib ers
ĠOpt im
Ġincorpor ating
be it
F un
et ra
d n
ĠA irl
Ġadministr ators
ĠY e
Ġìĸ´ ì©
Ġg reens
ĠìĿ¼ë³¸ ìĿĺ
ĠìŀĲì²´ ê°Ģ
Ġinterview ed
Ġdis comfort
Ù Ĭ
ĠL ocation
ĠBapt ist
ĠLabor atory
ch t
Ġut ilities
ìĨĮ íĶĦíĬ¸
AN S
Comm on
Ġvari ants
ì½Ķ ìĬ¤
p resent
Ġles ions
Ġob esity
ĠF actor
Ġg um
Ġabund ant
ĠM umbai
Ļ ëĭĪëĭ¤
ĠJ azz
Ġìĭľìŀĳ ìľ¼ë¡ľ
down load
Ġble eding
Ġincent ive
ĠH S
ĠìĿ´ ê°ĻìĿ´
C opy
Ġinher it
ĠLinked In
Ġinter ven
ĠìĿ´ ê²Į
Ġvis ually
Cl ose
Ġì°¨ ëĭ¨
Ġíķľ ë¯¸
ìĿ¸ ìĤ¬
ĠìŀĪìĸ´ ìļĶ
Ġha unt
Ġìĭ¤ íĸī
ĠG C
Ġcast ing
Ġ erg
ëıĻ ìķĦ
3 20
Ġë© ¤ë²Ħ
Ġsl im
quot ing
ĠíĻĶ ë©´
Ġgl oves
T w
e ach
Ġremark s
ĠìĨĮ ë°©
ac cur
Ġresearch ing
te in
In formation
Ġassess ing
Ġ4 01
ĠT on
Ġqu arters
ĠD ress
C am
Ġë²Ĺ ìĸ´ëĤĺ
Ġphotograp hers
Ġinvas ion
ah l
B F
e ing
ĠD S
inc ome
Ġvalid ate
ĠSt orm
ëª¨ ìħĺ
ìĸ´ ëĬĶ
Ġrenew al
Ġê°ľ íİ¸
by tes
Ġsort ed
Ident ifier
Ġ` `
Ġë¹Ħ ê°Ģ
íĻĶ ìĻĢ
us age
Ġred es
Ġas leep
ìĪĺ ìĽĲ
IS E
ĠElect ronic
m ass
g roups
ë¦¬ ë©´
ĠHist oric
ĠL an
ĠC ategory
Ġpr one
Ġfaith ful
Ġëĵ± ê³¼
C ur
Ġ19 66
ìļ° ìĦł
Par ams
ĠHamilton ian
Ġì¤ĳìķĻ ìĿ¼ë³´
ĠMad rid
ĠL en
em ption
B usiness
In v
íĿ Ĳ
êµ¬ ë§¤
Ġdemonstr ating
ĠE li
Ġinv ariant
Ġpol ished
Ġfrustr ated
Ġ Ï
em ia
onom ous
Ġcheap est
b ian
Ġse lections
pl aces
Ġscient ist
Ġíĺĳ ìĥģ
Ġram p
ĠMar ie
ĠExplore r
Ġê´Ģê´ĳ ê°Ŀ
ĠMur phy
êµ¬ ëĤĺ
Ġ11 8
ig hed
ëĭĺ ëĵ¤
Ġcom bo
om ed
Ġvine gar
Ġlift ed
T otal
Ġapprox imate
ìłķë¶Ģ ëĬĶ
ĠM atch
us hers
Ġlandsc apes
EM ENT
ìĭľ ëĮĢ
p ayer
Ġê°Ģ ìĿĦ
Ġ2 10
ĠPark s
Ġsw ord
Ġì¶© ëĤ¨
ĠDel aware
ine ment
Ġint ric
Ġst ub
Ġíģ¬ ë¦¬ìĬ¤
Ġêµ īìŀ¥
ue z
Ġtyp ed
Ġcommission ed
mod ules
ìĪ ¨
Ġfore x
V A
ĠT u
Ġmand ate
ĠV oice
Ġundert aking
ëĲĺ ìĹĪ
B ra
ĠS ettings
Ġelev ation
g ary
Ġterm inated
l oss
ĠëĪĦ ìłģ
rist ol
Ġt an
am as
ĠCH ECK
ĠA x
ul as
Ġnon etheless
omorph ic
Ġin effective
ĠDat abase
ill ary
om i
Ġìŀ¬ ìĤ°
Ġcommun icating
Ġc um
' ],
e g
Pa ul
^ -
ìŀ ĺ
Ġcomp ile
ĠF ix
og an
Ġgra ins
Ġc md
Ġëªħ ìĿ´
17 0
Ġì§ ľ
Ġconv ictions
Ġreim burse
ĠCont emporary
Ġt mp
ĠM IT
Ch anged
Ġrib bon
Ġan ch
Th us
ìłľ ìĹĲ
ĠAust ria
Ġaffil iated
Ġíķľ ìłķ
ìĨĮ ë¦¬
Ġpre fix
Ġë¹Ħ ë°Ģ
ìĿ´ ë¡ľ
H y
Ġë§Įëĵ¤ ê¸°
Ġex ports
$ ]{}
íķľ ê²¨ëłĪ
Ġeditor ial
ĠìĿ¸ íķĺ
ĠíĺľíĥĿ ìĿĦ
Ġposition ing
b ag
h ouses
Ġcoll ar
Ġrel ay
ut ers
Reg ister
ë§Į ëĭ¬ëŁ¬
Ġlog ged
leg ate
ê²ł ì£ł
n one
iqu id
Ch ildren
Ġrel uct
Ġde er
ĠC arm
ed it
ĠëĤ´ìļ© ìĿ´
P OSE
ĠFa ith
Ġb ored
e ous
erm at
Ġtub es
Ġexch anges
Ġpic nic
ĠR SS
se min
Ġexem pl
ĠIt em
Ġre ign
og gle
ĠK aren
Ġind ices
ë¶Ħ ìĦĿ
Ġcompat ibility
ĠëĶ° ëľ»
ĠQu estion
99 9
ĠPart ner
Ġsand wich
Ġstory t
ĠO H
ah n
M aster
Ġ20 22
ìĹ¬ ìĦ±
ë¹Ħ ìķĦ
Ġmet ast
Hel p
set minus
ĠP ure
ì¹ĺ ì§Ģ
Ġcreat ure
Ġatt itudes
ĠIN T
ĠM BC
Ġcorrect ed
Ġpe oples
Ġenc ryption
L iving
Ġse w
ĠMont ana
alth ough
Ġreprodu ce
Ġanaly st
ìŀ ł
Ġpe el
ĠApp ly
Ġres ign
ĠSen ator
ĠëĮĢ ë¶ģ
Ġë³ ´ë
ĠìĤ¶ ìĿĦ
Ġmetab olic
Ġgrat itude
our t
)* -
r isk
Ġëĭ¹ ë¶Ģ
Ġëĭ¨ ì§Ģ
ì§Ģ ìĪĺ
ĠA aron
Ġar tery
ri ors
Ġcle aring
Ġund oubtedly
Ġmind set
ĠHe aven
iss ue
Y eah
c rit
ul k
ìĿ¼ ê°Ħ
ĠìķĬ ëıĦë¡Ŀ
Ġmon ster
ĠìĿ¸ ê¶Į
plug in
en able
ë ±ħ
ĠAgric ulture
Ġpres ervation
lo at
ĠFac ulty
ch anging
Ġë§ ¨
ë¯ ¹
Ġdelight ful
ìĸ´ë§ ģ
ìĤ¬ íķľ
Ġat om
ĠB erg
Ġp ier
ĠT erry
Ġê± ´ëĦ
by e
Ġup hol
Ġpo ems
Ġdem ol
D T
Ġre lying
M T
ĠCirc le
Ġh i
) !
ĠK am
ĠëıĻ ê¸°
Ġco ated
Ġqual ification
ĠMar vel
Ġped iatric
á »
ĠÂ °
ĠAl z
Ġfil mm
ĠDe gree
Ġtra ged
ĠK le
Ġopt imum
Ġsod a
Ġn m
ynam ics
ĠL P
Ġsuper visor
Ġmem orial
ĠìĨĮ ìĦ¤
ĠRich mond
rim p
t c
Ġsoc ks
r aska
Ġëħ¼ ëŀĢìĿ´
Ġsp ins
ĠNorth west
Ġshow c
C ome
ì°¨ ë¡ľ
Ġdr illing
ĠChem ical
ph abet
ĠCl ar
Ġbon uses
ìĬ¤ íħĮ
íķ´ ìĸĳ
Ex pl
Ġpar ams
Ġban ner
Ġì´Ŀ ìĦł
Ġpal ette
Ġcinem a
Ġ12 00
Ġprot otype
Ġment ally
Ġover flow
na ire
Ġn p
ĠC anyon
M arch
Ġê°Ģ ë¥´
Ġterror ist
ĠN V
ìĿ´ ë¯¸
Ġins urer
Ġjo ins
el ong
Ġb om
Ġsp ice
Ġcrit ics
Ġmetall ic
H TML
Ġëħ¸ íķĺìļ°
ĠS olid
ĠStan ley
ĠVictor ian
ĠGener ally
ĠF lex
ìłĦ ìŁģ
ìĸ´ëĵ ľ
Ġpred e
ĠCab inet
Ġindict ment
ĠOb viously
æ³ ķ
Ġrig id
Ġsp oon
sc ri
Bel ow
Ġmargin al
B uy
Ġexam ining
**** ,
yn chron
Ġë§Į ëĤľ
ĠT ib
S end
ew orks
ĠS Y
Ġenerget ic
Ġì§ģ íĽĦ
ê³ł ìļĶ
Ġê³Ħíļį ìĿĦ
Ġìłķì¹ĺ ìłģ
Ġy eah
Cont in
ĠPub lishing
ĠSupp ly
v ideo
U ID
ĠRich ards
Ġìłĳ ì´ī
hy dr
ĠãĢ Į
it ives
Ġfound ations
ĠW orth
Ġìľ µ
ĠBut ter
ĠÐ ¸
Ġìĥģ ì§ķ
n an
ĠEag le
Ġform ally
á Ģ
ĠëģĿ ëĤĺ
ĠDise ase
_{ -
w edge
ĠC ad
Ġjust ified
Ġse afood
Ġë¸Į ëłĪìĿ´íģ¬
Ġë°Ľ ì§Ģ
{ }
R Y
Ġn ons
ĠH ack
Ġìĺ Ľ
ĠI O
Ġplug ins
Ġarg uing
Ġa fore
Ġì§Ģê¸Ī ìĿĢ
ĠL ar
ìĿ¸ ëıĦ
ram es
ĠPart s
Ġass ay
Ġd ign
L ICENSE
Ġìľł íĬľë¸Į
ĠH az
Ġmid night
è §
ĠChampions hips
Ġfold ing
Ġê°Ģ ìĦľ
ĠíĽĦ ìĽĲ
unicip ality
Ġìľ¡ ìĦ±
ĠCOM P
D ialog
Pro gram
ĠR ice
ĠR ivers
Ġíĸī ìĤ¬ë¥¼
Ġpolynom ial
Ġsty ling
Ġì§Ī ë³ĳ
Writ er
Ġresearc her
Ġv ivo
Ġdim ensional
êµ¬ ìĹŃ
ĠM aj
14 4
Ġcorre ctions
D ouble
ĠMed icaid
reg ion
ĠAltern atively
ĠK night
CL A
Ġcor p
Ġë°° íĮħ
ĠM ode
Ġtest ify
Ġg ay
Ġê°¤ ëŁŃìĭľ
ĠBoy s
ĠìłĢ ìŀ¥
Ġëĵ¤ ìĹ¬
Ġë¥ ĺ
Ġtur key
Ġrob bery
ĠìĿ¸ ê¸°ë¥¼
ĠEff ect
Ġbe verage
ĠíĹĮ ë²ķ
Ġë¶Ģë¶Ħ ìĿ´
ac et
ĠM BA
Ġexp ans
Ġcomfort ably
ìŀĲ ëĵ¤
Ġder ive
Ġboy friend
Ġrepl ica
ĠPro perties
P OST
Ġrecommend s
Å ¡
Ġrecept ors
ĠJ obs
Ġan at
ìĸµìĽĲ ìĿĺ
g on
under line
Ġnot ation
ĠHar bor
est on
ĠìĿ´ê²ĥ ìĿĢ
Bl ue
and um
ë© ¸
Ġeven ly
ì§Ī ìĿ´
¥ Ĳ
Ġhapp ily
E uro
am bers
AL SE
ìĹ° ê¸Ī
ëĸ ¼
êµ° ìĿ´
Ġcoh ort
ê´ĳ ê³ł
ĠP ER
Ġlast s
En joy
elle es
t ails
Ġface book
Ġk ay
ĠìħĪ ìĿ´ëĭ¤
ä¸ Ĭ
ĠHon or
Ġinf ra
un ches
ibl ings
Ġë²Ī íĺ¸
Ġemb ark
Ġcoc aine
Ġdys function
ë¨¸ ìĭł
Ġdiscover ing
G old
Ġê°Ģ ìĬ´
Ġimpact ed
f u
$ ).
ĠG ov
ĠL arry
ĠF ortunately
Ġcontact ing
Ġtra pped
Param eters
Ġintent ions
Ġindu ce
Ġdis par
ëª ½
Ġhero es
ĠReview s
Ġì·¨ ìŀ¬
es ters
riv es
ê²½ ìŁģ
Ġcompos er
Ġapp ellee
> ();
Ġharm ony
Ġoutput s
Ġo un
ĠQuest ions
ĠP ret
she ll
ĠëĮĢíķ´ìĦľ ëıĦ
Ġsec uring
Ġê¸¸ ìĿĦ
aa aa
Ġë° ¥
Ġê³³ ê³³
Ġíİ Ģëĵľ
Ġaccount ability
Ġë¸Ķ ë¡Ŀ
L OG
ĠSk in
Ġs ights
n ai
Ġro pe
as ion
d river
Ġpro st
íĻĶ ìĿĺ
l ibrary
Ġview er
Ġê°Ļ ìķĦìļĶ
ĠëĪĦêµ¬ ëĤĺ
Ġ7 50
Ġë§Į ìķ½
Ġfree zer
l ades
Ġíķ´ ìĸĳ
ìĿ¼ ìĿĺ
em en
Ġë°ĶìĿ´ ëŁ¬ìĬ¤
ĠK l
ĠãĢ İ
s ort
Ġbro kers
select ed
ëħĦ ëıĦ
ë§Ī íĨł
ĠPay ment
ĠB T
ê ¾¼
g ic
Hel per
ĠCol oring
ĠPack age
he at
Ġì¶ķ êµ¬
ë¯¼ ì£¼ëĭ¹
im ens
ĠìĪĺ ë¦½
ĠRec overy
Ġst roll
g ow
ĠCl imate
Ġlo ops
Ġrec reation
Ġe ternal
ĠíĻĢ ëį¤
ĠëĬĺ ìĸ´ëĤľ
Ġê°ľ ë³Ħ
ĠB A
ëĭ¤ ìĭľ
ĠBud get
ĠFe atures
ip h
Ġout reach
ĠRail way
ĠArab ia
ing e
Ġanten na
Ġcountry side
ĠAdvis ory
Ġsy rup
Ġang el
t k
ux e
ĠAm sterdam
ĠìłĦ ëł¥
íĸ¥ ìĿĦ
ĠNurs ing
Ġsp icy
Ġpay able
Ġcollabor ate
ach ine
Ġdem ocratic
Ġin complete
Ġtherap ies
i ator
Ġëª¨ ëĭĪíĦ°
Ġpar as
ipp ers
Ġl ime
Ġp ins
Ġconnect or
p oke
ìłĢ ëĬĶ
R ich
ĠìĪĺ ë§İìĿĢ
view s
Ġ18 00
Ġë© Ī
Ġas c
Ġath lete
áħ® áħ®
Ch annel
ìľł ëŁ½
ĠìĦł ì§Ħ
J une
ĠO re
ĠìĿ Ħ
if def
F actor
est hes
Ġplan es
Ġun h
Ġtim eline
Ġprompt ed
text bf
Ġê²½íĹĺ ìĿĦ
Ġbatt les
Ġwhat soever
ĠBirth day
ĠG ospel
Ġì¦Ŀê°Ģ íķľ
Ġoff enses
ĠK id
ìŀĲ ëĵ¤ìĿĦ
Ġqu iz
Ġë´ī ìĤ¬
Ġnegot iate
Ġwarn ings
Ġparent al
ĠGu y
ĠF ramework
fil ename
ê°Ģ ìŀħ
B ank
ĠB ranch
e em
ë° ¤
ĠëĮĢ íıŃ
ĠPet itioner
ĠëĬ¥ ëł¥
ĠP os
Ġpre tend
ĠìĤ¬íķŃ ìĿĦ
ĠÐ ½
Ġenroll ment
Ġíıīê°Ģ ë¥¼
Ġab used
al an
Ġjo ke
ĠN AT
ĠA lp
Ġdiagram s
íļ¨ ê³¼
s quare
Ġpubl ishers
Ġreserv ations
ĠStr ong
ĠA er
ĠH ab
ĠPhot ography
Ġno on
ĠUn iverse
Ġsc attered
ì» ·
Ġorg ans
Ġoverlook ing
Ġsemin ar
Ġf ocal
ëŁī ìĿĺ
ĠìķĦëĭĪ ëĥĲ
Ġconvenient ly
Ġìļ´ìĺģ íķĺëĬĶ
Ġgenuine ly
Ġ11 7
Ġdry er
ĠDen mark
Ġbit ter
ìĿ´ ìĿĺ
ë¸Ķ ëŀĻ
ĠìĿ´ë ªħ
Ġac et
ĠT odd
ĠR achel
Ġìŀ Ĭ
Ġì½Ķ ë¦¬ìķĦ
ĠGra duate
ht aking
ist ically
Ġcar b
ĠWal ter
Ġpaper work
connect ion
Ġm ph
íķ¨ ìĿ´
ĠìĦ Ń
Ġac ne
Ġë¶Ħ ë¦¬
Ġdeb ts
il k
Ġn our
Ġ19 63
ìŀĲ ëĵ¤ìĹĲê²Į
ur ally
Ġsh y
Ġê°Ģ ì¹ĺë¥¼
ì¹´ íİĺ
ĠìĦ±ê³¼ ë¥¼
Ġcav ity
Ġsign aling
ĠSt ri
ĠP ope
Ġí ĥģ
Ġt rivial
Ġsens es
ê¸Ī ë¦¬
ĠU C
Ġkne es
ĠíĮ¨ íĤ¤
ë°ķ ìĬ¤
c ross
ìĸ´ëĤ ł
\ }
um ar
ĠPict ures
L oc
ĠJ et
By te
ĠState ment
Ġpo et
Ġìī½ ì§Ģ
Ġê³µ ê¸°
Ġxml ns
Ġthem ed
Ġconver gence
Ġmid st
Ġclick s
ĠìĿ¸ íĶĦëĿ¼
Ġìĭł íĺ¸
Ġform ulation
ĠCol omb
Ġlay ing
ĠCol lab
com b
Call back
ĠNash ville
ple tion
ĠV a
s r
ĠìĿ´ë §
Ġf iring
ig a
in ion
ĠC ultural
if eration
ë¬ ĺ
Ġìŀĳ ëıĻ
Ġregist ry
Ġconcept ual
ed a
b ane
19 83
Ġvir uses
ĠS V
ìķĪ ìĿĢ
By tes
Ġblog ger
Ġgra bbed
Ġê´Ģ ì¸¡
Ġìĺ¬ ëŀĲëĭ¤
Ġenjoy ment
ë°ĶëĳĳìĿ´ ê²ĮìŀĦ
Ġdisapp eared
A ir
Ġë¶Ģ íļĮ
Ġdam aging
ra ndom
Ġconstruct or
ĠScient ific
Ġdrain age
ê°Ģ ë¡ľ
Ðµ ÑĢ
Ġden otes
PD ATE
ĠP U
ĠìĿ´ë ŀ
ë³ ´ëĵľ
ĠSe an
Ġquestion ed
per formance
Ġunlaw ful
Ġpass port
= >
ĠY eah
ìŀ¬ íĮĲ
Ġh ind
Ġaccess ibility
11 7
ëĲĲ ëĭ¤ê³ł
Ar ch
Ġìĭ¬ ìĤ¬
ĠN HS
ĠEv idence
Ġv o
Ġcent r
ĠG RE
c ateg
ĠIm agine
Ġunt o
ĠìĦ¸ ìĥģìĿĦ
' }
ĠV ista
uck er
is al
ĠìĥĪ ë²½
Ġbl ues
Ġgl ance
Ġsat ur
ĠTurn er
Ġscr ut
ib les
Ġëħ¸ ëł¥ìĿĦ
ĠS oph
ĠR oof
or o
ĠPART IC
De lete
ìĪĺ ìĤ¬
Ġê·¸ ëŁ¼
ec onomic
g ro
æ °
Ġhor rible
ĠEX P
Ġwor ries
Ġë°Ľ ìľ¼
col on
Ġcomment ary
Ġêµ¬ ê°Ħ
Ġ !!
ê¹ Ŀ
Ġë¶Ģ ìĿ¸
Ġìłĳ ì¢ħ
Ġìľ Ī
Ġast hma
M OD
Ġsk irt
Ġfar mer
Ġawk ward
py thon
n ings
Ġmon itors
U X
Ġë³¸ ëĭ¤
role um
ĠM ills
Ġíģ ´ëŀĺ
ĠìĬ¤íĥĢ íĬ¸
ĠWire less
Ġn ort
per p
íķ´ ìĻ¸
ĠìĹ¬ ìĿĺëıĦ
ìĹ ½
Ġcrow ds
Ġë°Ķê¿ Ķ
M ag
ĠSo on
ĠNew ton
Ġunder went
he p
s ky
Ġident ifies
Ġch rome
Ġrecru iting
Ġbo om
ĠIm prove
$ _{
Ġen um
Ġin ability
Ġcomput ational
ang a
ĠFl ore
Ġaw ful
Ġthreat ening
ĠMathemat ics
Ġexpress ing
Ġprof ic
Ġmill enn
ĠJer ry
ì¡° ë¥¼
ĠAl most
Ġsent iment
ĠìĤ¬ëŀĮ ëĵ¤
ĠëĮĢ ìļ°
Ġ( +
T urn
ĠIndust ries
ash i
ê°Ĳ ìĤ¬
ĠCh ile
ab etic
St op
ìĬ¤ íĦ´
ĠHam pshire
Ġdu o
ĠHud son
Ġabsor bed
f p
Ġdefin ite
Ġsle ek
ĠìĪĺì¤Ģ ìĿĺ
Ġf res
Ġincorpor ates
Ġlad der
Ġmerch ant
ĠB eng
Ġì§ģ ìĹħ
Ġì£¼ ê´Ģ
ìĨĶ ë¦°
Ġì ¿
ĠE sc
Ġas ymm
Ġimag ined
Ġtempor al
he ets
Ġê¸Ī ë¦¬
ĠëŁ °
Ã ¥
Ġ} }
ĠPer ry
ĠStart ing
ĠR ic
ĠPortug al
Ġvan ity
h uman
ĠWood s
ĠProgram me
ĠY am
ĠStat istics
Ġì¡° ìłĪ
ĠS SL
ê°Ģ ê¸°
Ġb anned
rac ing
Ġl ively
ĠMc Donald
M ember
Ġtor que
Ġì¶© ë¶ģ
Ġcapt uring
IG H
il ings
Ġliter acy
ĠJeff erson
Ġcomm em
Ġsub section
ĠAr n
' ))
Ġtail or
ĠAirl ines
Ġac re
Ġwealth y
ĠS qu
ĠSam uel
Ġadvoc ates
ien na
o ffic
ì´Ŀ ë¦¬
ĠInd ians
ë°Ľ ìĿĦ
W C
è ģ
ĠPUR POSE
Ġmer ger
j ury
ìŀ¥ ê¸°
ĠPat ri
at ics
Ġpert inent
Ġs ore
row ser
FT WARE
Ġë° Ł
11 6
Eng lish
Ġm l
Ġe q
ĠF ried
Ġv ascular
ist le
Ġìķ ¨
Ġmod er
Ġemb ry
Ġsubsid iary
Con f
_ [
ĠìķĦë¦Ħ ëĭ¤ìļ´
N ULL
uls ion
F ace
our cing
Ġaccount able
Ġb ip
Ġìĭł íĺķ
ĠìĹ¬ ë¶Ģë¥¼
æĹ ¥
Ġread ings
Ġyoung est
Ġkick ed
ĠG un
Ã º
ë§Ī ìĿ´
Ġham mer
íķĺ ëĦ¤ìļĶ
Ġaccommod ations
pe g
Ġspect ro
at rix
Ġë²ķ ìĿ¸
Ġappeal ed
Ġinflamm atory
Ġthere in
ĠìĹ´ ìĭ¬íŀĪ
ç İ
Ġê´ ´
; ">
ĠF T
na ver
Ġelect rons
ë¬¼ ê´Ģ
( @
Ġthought ful
ĠR ug
Ġê¹Ģ ìłķ
Ġë³´ ìĥģ
Ġì£¼ ìµľ
Ġlack s
requ ire
ãģ ¾
ab stract
ĠComp etition
.... ..
ĠRet ail
Ġë¯¼ ì¡±
com mit
Ġacqu iring
Ġreal ised
pr ising
Ġunder m
Ġsubject ed
Ġsynt hes
c n
ĠíķĺëĤĺ ë¡ľ
ĠCam era
Ġcont ing
ĠCom plex
ĠDel ivery
Ġinf ants
5 12
resist ant
íĥĢ ìĿ´ìĸ´
ĠìĦ¸ ìĥģ
J ECT
Ġtr unk
s ince
ëĤ´ ê°Ģ
Ġfort une
ĠNeb raska
Ġdownload s
ĠThe ater
Ġìĸ´ëłµ ëĭ¤
Sim ple
Ġremod eling
Ġì£¼ ê±°
ë°Ľ ìķĦ
ë°ĶìĿ´ ìĺ¤
ĠGl as
N ational
Ġbre eding
Ġyear ly
Ġpress ures
Ġp ne
Ġalle v
ak y
Ġì¶© ëıĮ
ĠF ern
ĠìĹŃ ëĮĢ
Us ers
Ġìļ´ ìļ©
Ġe ighth
b ps
ĠIn fo
Ġtouch down
Ġequ ip
Ġauthor ization
Ġarch ae
Ġdupl icate
ĠP oll
Back ground
: =
Ġarbit r
D im
bor o
Ġhapp ier
h bar
Ġcomput ation
Over all
) _
Ġdraw er
ĠëıĻ ìķĦ
n m
ĠTe acher
Ġun for
ver ages
f ood
Ġbudget s
Ġinvis ible
ĠL ots
ê¸Ģ ë¡ľë²Į
ê ¶
y ll
out ube
Ġdesper ate
Ġgall eries
w rap
io let
Ġì¡° ì¹ĺë¥¼
íģ ´ëŁ½
ìĽĮ ëĵľ
ĠG D
az ed
Ġinf ringe
}} }\
ĠGro ve
ìŀĳ ìļ©
ĠIn put
uck ed
ëıĻ ìĿĺ
17 5
Net work
Ġê°ľ ìĿĺ
pl er
C ity
Ġnot ably
ĠëĤ´ë ł
ê³µ ìŀ¥
h ad
ĠìłĲ ìľł
ĠElement ary
Ġb ureau
Ġ19 62
ìĿ¸ ëĵ¤ìĿĺ
US E
Ġê³µ ìĤ¬
ĠP aint
Ġorig ins
ĠL anc
ĠAz ure
ĠN an
ĠB U
C ould
ĠCh a
Ġde ed
ì¡° ì§ģ
Ġn ap
ëĴ ¤
Ġto e
ĠAlz heimer
Ġì±ħ ìĿĦ
´ëĲ ĺ
Ġê¸° ìĨĮ
Ġdis position
ĠD ent
Ġslee ve
Ġhum idity
is ode
het ics
Ġd Ã©
ĠMult iple
leg al
´ë§ Ī
Ġinteract ing
ik h
ĠHor se
11 3
s ets
.[ ]{
Ġinsect s
are tt
ĠHol land
âĹ ı
ke ley
ia z
Ġìĭł ë¬¸
íĥ ł
Ġclin ics
ĠShan ghai
ĠC row
re k
re v
ë¡ľ ìĬ¤
ĠL ion
ĠY ard
Ġcelebr ity
ì ·
íĥĢ ìĿ´
Ġunder going
ĠArch ives
T om
h ank
ĠìķĦëĭ Ĳ
Ġencourage ment
D ue
Ġexplos ion
ì§ĳ ëĭĪëĭ¤
g om
Ġconc urrent
Ġopp osing
Ġêµīìŀ¥ íŀĪ
ìĹ¬ ìĦľ
ett es
Ġspecial ize
ĠF o
pos ium
Ġsevere ly
S an
Ġgot o
ĠHist orical
ĠAb ra
: ")
ĠBre xit
ĠY ES
U V
Ġp ills
ë§Į ëªħ
it ated
Î ¼
AS K
disc iplinary
p ic
Ġbo iler
() {
Ut il
St orage
Eval uate
ì¸¡ ìĿĢ
ĠEm ily
ING S
ëħ¸ ì¡°
i u
Ġrot ating
Ġd t
ĠN W
00 5
ĠI g
ì§Ģ ìĹĲìĦľ
ĠIm per
Ġtri angle
19 82
Ġì²´ ê³Ħ
Ġscen ic
Ġíŀĺ ëĵł
f b
Ġacceler ation
Ġlater al
E st
Ġsupp lying
Ġhead phones
Ġinstruct ors
Ġcul inary
Ġarth ritis
ĠChel sea
ĠT ips
ĠW L
e as
ë¯¸ íĦ°
s ch
Ġpert aining
M IN
ë°ĶìĿ´ ëŁ¬ìĬ¤
Ġselect ive
Ġ12 4
Ġìĥģ ìľĦ
ĠíĬ¸ ëłĮ
ĠRe venue
ĠDev ice
Ġêµ¬ì²´ ìłģìĿ¸
ownt own
ck ed
AT CH
app ly
Ob j
z el
Ġshock ed
Ġdevelopment al
Ġê¸ī ì¦Ŀ
ĠBroad way
ĠB I
Ġgra ft
Ġnon linear
Ġhint s
ĠìŀĦ ëªħ
ĠChristian ity
ĠV el
er ie
ĠFin land
am ation
Ġhead ers
Ġenvironment ally
Ġju venile
per or
ĠMor ning
p oly
Ġsculpt ure
Ġsqu ares
R ob
Ġhighlight ing
ĠP ap
Se pt
ë ĩ
Ġ' /
u ilt
ific ant
Ġtrust ee
ê³µ ìĿĦ
Ġwond ers
qu isite
Ġhon our
Ġgovernment al
A p
person al
ĠLind a
Ġparent ing
Ġes cal
ëĤ´ ìļ©
Ġderiv atives
Ġ19 0
Ġgu ards
rolog ical
íĽĪ ëł¨
olute ly
ĠëĤ´ ê³ł
Ġë§¤ìĿ¼ ê²½ìłľ
ĠAcadem ic
ĠS AP
ĠP ine
Ġcop ied
Ġb acterial
Ġspr ings
Ġaff air
Aut o
Ġign or
Ġreve aling
Ġre cl
ĠP oss
ìĭ¬ ìĿ´
Ġtransport ed
Ġê°Ģ ìĨį
ĠCON DIT
Ġse as
Ġfle w
reat ment
Ġadd itions
ë Į
Ġì¡° ê¸°
íİĺ ìĿ´ìĬ¤
Ġbree ze
ĠRob in
ĠProcess ing
ĠBuff alo
ĠB S
ĠPhil ip
Ġcond o
Ġshow ers
ĠRe ference
Ġadm ire
Ġp ap
sh ared
Ġsucceed ed
Ħ Ī
Ġcount ed
VER SION
Ġbro ch
Ñ ħ
ra ment
² ķ
ĠCamp us
ĠOrgan ic
pay ers
ĠColumb us
Ġtext ures
Ġëľ» ìĿĦ
ut o
Ġìłģ ìĿĢ
Ġì»¬ ëŁ¬
ĠQueens land
ĠLe ban
Ġë©Ķ ëī´
ĠReg ardless
Ġdis reg
eng u
ĠìŀĳìĹħ ìĿĦ
ĠS ter
Ġëª©íĳľ ë¡ľ
Ġintegr ating
Ġuse less
E Q
Ġíİ¸ ìķĪ
ĠJim my
G G
Ġë¬¸ ìĿĦ
oun ters
Ġmay or
ant i
2 30
ĠFl at
C ODE
Ġval uation
Ġdr ift
Ġ3 30
Ġìłķì±ħ ìĿĦ
Ġexce l
Ġemotion ally
Ġimpair ment
ĠMarg aret
Ġad jud
ĠS outheast
Ġëĭ¬ ëł¤
Ġcous in
Ġwar mer
cons cious
ine e
ĠH orn
Ġexhib itions
Ġëª¨ ìķĦ
ĠìłĦ ë¶Ģ
ĠN iger
Ġrent ing
2 10
Ġfeed s
struct ed
Ġrevolution ary
Ġë§Į íķľ
Ġfe ather
N orth
Ġanx ious
à ¹
å ¿
ĠClean ing
Ġdece ased
Ġemb ra
at ivity
Ġê°Ģê¹Į ìĿ´
ac ies
ì½Ķ ìĿ¸
pr ice
resp ons
ĠëĤ´ ìĿ¼
Ġb ou
è ¨
Ġoverwhel med
ĠWell s
link s
Ġind igenous
Ġíģ¬ ëĭ¤
IS S
che t
Ġëĸ¨ìĸ´ ì§Ħ
` .
ĠJu an
8 000
end ix
ì§Ģ ìĤ¬
Ġrel ieve
Ġc aut
ĠT OD
ĠíķŃ ëª©
Ġë°ĶìĿ´ ìĺ¤
ĠS ie
ĠPriv acy
ìĦľ ìĿĺ
Vis it
ĠìĦ± ê²©
Ġìµľ ìĦłìĿĦ
Ġm all
ĠìłĲ ìĿ´
ĠCamp aign
ĠìŀĪ ìľ¼ëĭĪ
Ġhe pat
-------------------------------- ----------------
Pl ayer
ìĤ Ń
ĠN am
Ġgram mar
Ġ" ,
ĠìĨĲ ìĿĦ
Ġg rief
r b
ĠMo z
Ġinvas ive
F ILE
Ġoff shore
Ġra ys
Ġgrand father
ĠWe ather
Ġu gly
Ġ12 2
Ġc el
On line
Ġbed ding
Ġbe verages
Ġrecogn izes
ĠC B
Ġfl ush
Ġhol istic
ĠKe ith
íĻĶ ë¡ľ
é Ĺ
Ġret ros
Ġexceed ed
Ġìļ° ì£¼
ced ented
ĠGa ussian
ĠAma zing
ĠArgent ina
ĠIn cludes
Ġc iting
Ġenthusi astic
ĠBar ry
ĠìĤ¬ìĭ¤ ìĿ´
id i
ĠTr uth
Ġê¸°ìĹħ ìĿ´
ĠìķĦìĿ´ íı°
Ġkind ness
Ġê³Ħìķ½ ìĿĦ
Ġrig orous
Ġur ged
Ġun ited
ç¬ ¬
ĠS it
Ð° ÑĤ
Ġsw ift
Ġtou g
Ġaccess ory
Ġactiv ists
à ´
S uch
Ġë°Ķ ëĭ¥
With out
Ġeconom ies
Ġdiss ent
4 000
ĠëĨį ìĹħ
ĠFred er
æ µ
Ġal k
ĠëĮĢíĳľ ìłģìĿ¸
ĠSche dule
Ġgard ening
Ġbal ancing
Ġrad ar
cont rolled
ĠëĬĺ ìĹĪëĭ¤
p ages
ĠB ristol
ĠìĥģíĻ© ìĹĲ
íĢ ´
CH ANT
Ġenthusi asts
ĠCON TR
ĠI CT
an as
Ġpl ed
Ġantib ody
ì£¼ ê¸°
ĠD AM
Ġcrow ded
ĠF act
Ġdiscount ed
ĠR M
t u
R ou
ìŀĦ ê¸Ī
ĠN ike
Ġì¤Ħ ìĸ´ëĵ¤
J ack
ĠB enn
Ġst rap
Ġìĸ´ëł¤ ìĽĢìĿĦ
et on
ĠMer cedes
Ġde position
Ġd orm
ĠCh icken
Ġchar itable
ĠMont real
Ġcon cludes
Ġoverl ap
Ġíķľ ë°ĺëıĦ
Ġì¢ħ ë£Į
Re lease
ĠìłĦ ê°ľ
e ur
Ġ" %
ple ted
ĠHe brew
Ġbel ly
ë²Ķ ì£Ħ
al ities
Ġsh out
app ro
ìĺ¬ ë¦¼íĶ½
us k
Ġvoc abulary
S am
class es
ĠMichel le
Ġf etch
Mich ael
and y
ĠK irk
Ġlic ence
Ġgrand children
ìĶ¨ ë¥¼
ul ously
ĠìĬ¤ íģ¬
Ġple ad
bt n
Ġìłľ ìŀ¬
en abled
Ġì¦Ŀê°Ģ íĸĪëĭ¤
ĠN T
ìĦ¤ íĮħ
ìĦ± ëĬ¥
os itory
Ġac rylic
Ġ19 45
ĠA ld
ĠP un
Ġcan al
Ġye ast
ê¶Į ìĹĲ
ê¸° ë³¸
Ġlug gage
Ġë¶ģ ë¯¸
ĠW atson
. ",
Ġìłģ íķ©
intend o
Ġinadequ ate
imp se
Ġd read
ĠP el
ĠLo an
Ġprec ip
ìĿ¸ëį° ìļĶ
Ġìŀ¥ìķł ìĿ¸
íĻľ ëıĻìĿĦ
íķ´ ì£¼ëĬĶ
ĠPay Pal
Ġdefend ing
Ġbreat htaking
Ġquestion ing
ĠìŀĲìĭł ìĿĦ
Ġch ore
Ġreject ion
i Ã³n
Ġrob ots
Ġíķ© ë¦¬
Ġt read
iv ar
ĠArt ist
Ġinhib ition
íĮ ¬
The ir
ĠChe v
ĠëĪĦ ê°Ģ
ce nd
Ġíļį ëĵĿ
Ġf right
P et
Ġì´Ŀ ë¦¬
m ons
Ġelab orate
Ġaccum ulation
ĠLegisl ature
Ġres olutions
ì§ģ íķľ
Ġhum ble
12 6
ĠW el
ĠFIT NESS
Ġrad ial
ĠiP od
Ġpul monary
ĠBrazil ian
am er
Ġê¸° ìĺ¨
last ing
Ġprede cess
ĠT S
Ġwas her
Ġantib odies
Ġíıī ìĨĮ
Ġbro th
Ġfil ename
Ġemphas ize
ĠF iles
EN S
Current ly
Ġa ids
Ġbe ats
[...]
