{"!":0,"\"":1,"#":2,"$":3,"%":4,"&":5,"'":6,"(":7,")":8,"*":9,"+":10,",":11,"-":12,".":13,"/":14,"0":15,"1":16,"2":17,"3":18,"4":19,"5":20,"6":21,"7":22,"8":23,"9":24,":":25,";":26,"<":27,"=":28,">":29,"?":30,"@":31,"A":32,"B":33,"C":34,"D":35,"E":36,"F":37,"G":38,"H":39,"I":40,"J":41,"K":42,"L":43,"M":44,"N":45,"O":46,"P":47,"Q":48,"R":49,"S":50,"T":51,"U":52,"V":53,"W":54,"X":55,"Y":56,"Z":57,"[":58,"\\":59,"]":60,"^":61,"_":62,"`":63,"a":64,"b":65,"c":66,"d":67,"e":68,"f":69,"g":70,"h":71,"i":72,"j":73,"k":74,"l":75,"m":76,"n":77,"o":78,"p":79,"q":80,"r":81,"s":82,"t":83,"u":84,"v":85,"w":86,"x":87,"y":88,"z":89,"{":90,"|":91,"}":92,"~":93,"¡":94,"¢":95,"£":96,"¤":97,"¥":98,"¦":99,"§":100,"¨":101,"©":102,"ª":103,"«":104,"¬":105,"®":106,"¯":107,"°":108,"±":109,"²":110,"³":111,"´":112,"µ":113,"¶":114,"·":115,"¸":116,"¹":117,"º":118,"»":119,"¼":120,"½":121,"¾":122,"¿":123,"À":124,"Á":125,"Â":126,"Ã":127,"Ä":128,"Å":129,"Æ":130,"Ç":131,"È":132,"É":133,"Ê":134,"Ë":135,"Ì":136,"Í":137,"Î":138,"Ï":139,"Ð":140,"Ñ":141,"Ò":142,"Ó":143,"Ô":144,"Õ":145,"Ö":146,"×":147,"Ø":148,"Ù":149,"Ú":150,"Û":151,"Ü":152,"Ý":153,"Þ":154,"ß":155,"à":156,"á":157,"â":158,"ã":159,"ä":160,"å":161,"æ":162,"ç":163,"è":164,"é":165,"ê":166,"ë":167,"ì":168,"í":169,"î":170,"ï":171,"ð":172,"ñ":173,"ò":174,"ó":175,"ô":176,"õ":177,"ö":178,"÷":179,"ø":180,"ù":181,"ú":182,"û":183,"ü":184,"ý":185,"þ":186,"ÿ":187,"Ā":188,"ā":189,"Ă":190,"ă":191,"Ą":192,"ą":193,"Ć":194,"ć":195,"Ĉ":196,"ĉ":197,"Ċ":198,"ċ":199,"Č":200,"č":201,"Ď":202,"ď":203,"Đ":204,"đ":205,"Ē":206,"ē":207,"Ĕ":208,"ĕ":209,"Ė":210,"ė":211,"Ę":212,"ę":213,"Ě":214,"ě":215,"Ĝ":216,"ĝ":217,"Ğ":218,"ğ":219,"Ġ":220,"ġ":221,"Ģ":222,"ģ":223,"Ĥ":224,"ĥ":225,"Ħ":226,"ħ":227,"Ĩ":228,"ĩ":229,"Ī":230,"ī":231,"Ĭ":232,"ĭ":233,"Į":234,"į":235,"İ":236,"ı":237,"Ĳ":238,"ĳ":239,"Ĵ":240,"ĵ":241,"Ķ":242,"ķ":243,"ĸ":244,"Ĺ":245,"ĺ":246,"Ļ":247,"ļ":248,"Ľ":249,"ľ":250,"Ŀ":251,"ŀ":252,"Ł":253,"ł":254,"Ń":255,"Ġt":256,"Ġa":257,"in":258,"he":259,"re":260,"on":261,"er":262,"Ġthe":263,"Ġs":264,"at":265,"Ġo":266,"Ġw":267,"Ġc":268,"nd":269,"Ġì":270,"it":271,"or":272,"en":273,"es":274,"is":275,"Ġf":276,"ou":277,"Ġp":278,"Ġb":279,"ing":280,"al":281,"ed":282,"an":283,"Ġto":284,"Ġm":285,"ar":286,"Ġin":287,"Ġof":288,"Ġand":289,"Ġd":290,"ic":291,"le":292,"ion":293,"Ġë":294,"ìĿ":295,"as":296,"om":297,"Ġh":298,"Ġth":299,"ent":300,"il":301,"Ġre":302,"ro":303,"Ġe":304,"st":305,"ct":306,"Ġl":307,"ve":308,"Ġn":309,"et":310,"Ġy":311,"íķ":312,"Ġê":313,"âĢ":314,"Ġg":315,"ĠI":316,"Ġis":317,"ly":318,"ĠT":319,"Ġyou":320,"ot":321,"ut":322,"id":323,"Ġfor":324,"ëĭ":325,"Ġbe":326,"ĠS":327,"ur":328,"im":329,"ce":330,"se":331,"Ġon":332,"ig":333,"ow":334,"ra":335,"ol":336,"ĠC":337,"ĠA":338,"ation":339,"Ġu":340,"ch":341,"ay":342,"ver":343,"ith":344,"Ġthat":345,"Ġst":346,"am":347,"el":348,"ìĹ":349,"Ġwith":350,"ad":351,"ir":352,"Ġ1":353,"ëĭ¤":354,"ul":355,"Ġit":356,"ìĿ´":357,"if":358,"ĠM":359,"Ġí":360,"Ġan":361,"ê³":362,"Ġas":363,"Ġpro":364,"Ġal":365,"âĢĻ":366,"ter":367,"Ġ(":368,"Ġcon":369,"ëĬ":370,"her":371,"ĠP":372,"ate":373,"ge":374,"Ġ2":375,"ill":376,"Ġwh":377,"od":378,"Ġare":379,"pp":380,"ìŀ":381,"ëĬĶ":382,"ĠB":383,"Ġwe":384,"Ġor":385,"ers":386,"ab":387,"ìĦ":388,"ment":389,"ìł":390,"ke":391,"Ġha":392,"ess":393,"ê°":394,"ri":395,"ĠW":396,"Ġcom":397,"ĠThe":398,"est":399,"ìĹĲ":400,"Ġv":401,"Ġhe":402,"qu":403,"pe":404,"Ġat":405,"ac":406,"ì§":407,"Ġex":408,"Ġde":409,"us":410,"ĠD":411,"ore":412,"ist":413,"ĠH":414,"ĠF":415,"rom":416,"Ġsu":417,"igh":418,"th":419,"ë¡":420,"ant":421,"Ġse":422,"ìĿĦ":423,"00":424,"ld":425,"Ġne":426,"res":427,"ity":428,"nt":429,"um":430,"ive":431,"ĠR":432,"ĠL":433,"Ġwas":434,"em":435,"op":436,"ain":437,"íķĺ":438,"Ġyour":439,"un":440,"os":441,"ort":442,"oc":443,"ìĿĺ":444,"ĠìĿ":445,"Ġthis":446,"Ġìŀ":447,"Ġby":448,"art":449,"Ġr":450,"--":451,"ê³ł":452,"Ġfrom":453,"Ġnot":454,"Ġhave":455,"ìĭ":456,"ë¡ľ":457,"¸°":458,"Ġcan":459,"ĠG":460,"íķľ":461,"ust":462,"Ġsh":463,"ĠE":464,"ĠN":465,"ies":466,"Ġch":467,"and":468,"ight":469,"ë¥":470,"ëı":471,"iv":472,"ì§Ģ":473,"ud":474,"ect":475,"Ġìł":476,"all":477,"our":478,"ìľ":479,"Ĥ¬":480,"ìļ":481,"ure":482,"ĠâĢ":483,"Īëĭ¤":484,"Ġ$":485,"Ġle":486,"Ġwill":487,"ial":488,"ê°Ģ":489,"ard":490,"ome":491,"ĠO":492,"ìķ":493,"pt":494,"per":495,"te":496,"Ġ\"":497,"ine":498,"ould":499,"ë¦":500,"red":501,"pl":502,"out":503,"ost":504,"ĮĢ":505,"Ġwor":506,"Ġ-":507,"Ġpl":508,"ag":509,"ide":510,"rou":511,"Ġab":512,"ê²":513,"ìĬ":514,"ìĿĢ":515,"Ġall":516,"Ġj":517,"age":518,"oo":519,"ction":520,"ìĦľ":521,"Ġus":522,"ell":523,"ff":524,"gh":525,"ie":526,"Ġdo":527,"´ë":528,"ë¥¼":529,"Ġê°":530,"able":531,"Ġwhe":532,"Ġë°":533,"Ġad":534,"ice":535,"..":536,"ak":537,"Ġk":538,"ê¸°":539,"Ġcomp":540,"ally":541,"Ġcl":542,"ast":543,"ich":544,"Ġ=":545,"ated":546,"Ġ3":547,"ë§":548,"êµ":549,"ĠJ":550,"ind":551,"Ġhas":552,"ther":553,"iz":554,"ëıĦ":555,"og":556,"ìĽ":557,"ear":558,"ack":559,"01":560,"Ġìķ":561,"Ġê²":562,"'s":563,"Ġen":564,"ëĵ":565,"are":566,"Ġme":567,"ue":568,"ìĸ":569,"Ġgo":570,"Ġbut":571,"ĠU":572,"ip":573,"cl":574,"ime":575,"íķ´":576,"The":577,"ëĤ":578,"orm":579,"Īĺ":580,"cc":581,"Ġim":582,"ake":583,"Ġout":584,"ry":585,"ame":586,"ase":587,"Ġso":588,"one":589,"ë¦¬":590,"ib":591,"ass":592,"ook":593,"ions":594,"Ġcont":595,"du":596,"Ġres":597,"ong":598,"ĠTh":599,"act":600,"Ġapp":601,"ite":602,"ĠIn":603,"ign":604,"ans":605,"Ġup":606,"ult":607,"ous":608,"ë°":609,"ìĿ¸":610,"very":611,"so":612,"ance":613,"Ġtheir":614,"ap":615,"ìŀĲ":616,"Ġmore":617,"Ġwhich":618,"ail":619,"Ġone":620,"Ġour":621,"ĠìĹ":622,"ìľ¼":623,"Ġë§":624,"ë¶":625,"ll":626,"Ġthey":627,"Ġìĭ":628,"ìĤ¬":629,"íĸ":630,"ru":631,"ìĭľ":632,"ations":633,"Ŀ¼":634,"Ġmy":635,"ëł":636,"fe":637,"Ġì§":638,"ire":639,"ace":640,"ile":641,"ach":642,"ìĬ¤":643,"ary":644,"ub":645,"Ġint":646,"Ġwork":647,"ë³":648,"Ġqu":649,"Ġif":650,"Ġper":651,"Ġman":652,"ber":653,"ë©":654,"ence":655,"Ġte":656,"ree":657,"ike":658,"ĥģ":659,"ical":660,"Ġ4":661,").":662,"Ġdis":663,"**":664,"ĠìĦ":665,"reat":666,"ĠK":667,"ia":668,"âĢĿ":669,"form":670,"Ġ\\":671,"ition":672,"ìŀ¥":673,"----":674,"av":675,"Ġev":676,"£¼":677,"erv":678,"Ġabout":679,"Ġê³":680,"Ġalso":681,"Ġun":682,"au":683,"Ġfe":684,"ëĿ¼":685,"Ġany":686,"Ġother":687,"vel":688,"port":689,"int":690,"Ġtime":691,"ĠY":692,"ount":693,"Ġpart":694,"Ġ5":695,"ĠSt":696,"ord":697,"ck":698,"ĠìĿ´":699,"ose":700,"ìľ¼ë¡ľ":701,"ents":702,"Ġoff":703,"ress":704,"Ġar":705,"ens":706,"ep":707,"ĠV":708,"ë¬":709,"ìĺ":710,"ick":711,"Ġhis":712,"ond":713,"ìĽĲ":714,"Ġìĺ":715,"ark":716,"Ġ201":717,"Ġnew":718,"ĠâĢľ":719,"own":720,"ì²":721,"ove":722,"Ġget":723,"Ġwho":724,"íĻ":725,"ĠIt":726,"ors":727,"Ġsome":728,"Ġsp":729,"ild":730,"Ġthere":731,"ĠëĤ":732,"ings":733,"ath":734,"Ġyear":735,"Ġwere":736,"Ġwhen":737,"ory":738,"==":739,"ays":740,"ĠëĮĢ":741,"Ġëĭ":742,"Ġlike":743,"Ġsc":744,"Ġ0":745,"Ġrec":746,"íĺ":747,"ph":748,"nder":749,"Ġspe":750,"ne":751,"ìłķ":752,"ang":753,"ëĮĢ":754,"ì¹":755,"Ġpre":756,"Ġtra":757,"ê³¼":758,"Ġag":759,"Ġover":760,"Ġro":761,"Ġthem":762,"Ġbeen":763,"ìĹĲìĦľ":764,"low":765,"ìĿ¼":766,"ound":767,"Ġë³":768,");":769,"Ġtr":770,"ren":771,"ëħ":772,"Ġneed":773,"xt":774,"ft":775,"Ġwould":776,"ĠìĤ¬":777,"ĠCh":778,"ĠìĪĺ":779,"·¸":780,"Ġ{":781,"ìĸ´":782,"ëĭĪëĭ¤":783,"ink":784,"ëŀ":785,"urn":786,"ob":787,"Ġ'":788,"Ġhad":789,"lic":790,"ĠWe":791,"Ġthan":792,"),":793,"Ġêµ":794,"clud":795,"Ġë¶":796,"Ġê¸°":797,"Ġam":798,"Ġ19":799,"Ġacc":800,"ough":801,"Ġkn":802,"ject":803,"Ġdes":804,"Ġpe":805,"Ġcomm":806,"ëĲ":807,"ëĵ¤":808,"ish":809,"irst":810,"Ġwhat":811,"ìĨ":812,"ĠThis":813,"vers":814,"ë¶Ģ":815,"ater":816,"ëŁ":817,"ov":818,"Ġsa":819,"Ġprov":820,"Ġ+":821,"ĠìŀĪ":822,"ëį":823,"ood":824,"wn":825,"ĊĊ":826,"Ġbec":827,"old":828,"Ġ*":829,"oy":830,"Ġìľ":831,"Ġinto":832,"Ġits":833,"¹Ħ":834,"rent":835,"{\\":836,"end":837,"ces":838,"Ġhow":839,"ric":840,"ìĻ":841,"ê²Į":842,"ëª":843,"íĬ":844,"Ġ6":845,"fter":846,"ìĥģ":847,"Ġjust":848,"ram":849,"Ġadd":850,"ĠìłĦ":851,"//":852,"Ġëĵ":853,"Ġno":854,"rough":855,"Ġuse":856,"ates":857,"ê¸":858,"ments":859,"ple":860,"Ġtw":861,"Ġmay":862,"Ġì§Ģ":863,"ëĤĺ":864,"ë§Į":865,"Ġ<":866,"ìłľ":867,"Ġind":868,"ual":869,"Ġher":870,"ļĮ":871,"Ġem":872,"ons":873,"ìķĦ":874,"ìłĦ":875,"Ġëª":876,"itt":877,"êµŃ":878,"Ġonly":879,"Ġcol":880,"tern":881,"ific":882,"Ġ&":883,"Ġco":884,"ert":885,"Ġunder":886,"lp":887,"ë©´":888,"¤ĳ":889,"we":890,"Ġbet":891,"¡°":892,"ìłģ":893,"Ġ[":894,"ì°":895,"ople":896,"Ġcons":897,"ks":898,"get":899,"ious":900,"ful":901,"Ġfirst":902,"hed":903,"iew":904,"ause":905,"ont":906,"ì£¼":907,"ë²":908,"Ġbu":909,"´Ģ":910,"Ġíķ":911,"Ġê°Ģ":912,"Ġmake":913,"íĬ¸":914,"lect":915,"ìļĶ":916,"ìĦ±":917,"com":918,"ning":919,"Ġë¬":920,"Ġhelp":921,"ian":922,"Ġsy":923,"Ġbl":924,"Ġinclud":925,"erm":926,"cial":927,"ty":928,"Ġserv":929,"Ġdif":930,"Ġprodu":931,"Ġê²ĥ":932,"ise":933,"Ġass":934,"Ġact":935,"ĠHe":936,"Ġph":937,"round":938,"ating":939,"cess":940,"Ġmost":941,"Ġ7":942,"Ġwell":943,"Ġthese":944,"Ġknow":945,"ced":946,"Ġthrough":947,"iss":948,"Ġra":949,"Ġpo":950,"ata":951,"ec":952,"Ġlook":953,"ef":954,"Ġrel":955,"Ġpeople":956,"ìĪĺ":957,"Ġtwo":958,"Ġreg":959,"ied":960,"row":961,"eth":962,"=\"":963,"ities":964,"Ġê·¸":965,"Ġsupp":966,"oth":967,"ĥĿ":968,"hat":969,"Ġ}":970,"Ġëı":971,"ys":972,"íķĺëĬĶ":973,"ange":974,"Ġsee":975,"ring":976,"Ġ8":977,"sel":978,"ade":979,"Ġíķľ":980,"Ġìĭľ":981,"Ġret":982,"Ġset":983,"hen":984,"ock":985,"bs":986,"ìĹħ":987,"Ġevery":988,"ìļ©":989,"ative":990,"ility":991,"Ġfl":992,"Ġwhere":993,"Ġpos":994,"Ġback":995,"pect":996,"ê±":997,"Ġinv":998,"íĻĶ":999,"ë³´":1000,"Ġpr":1001,"Ġwant":1002,"les":1003,"'t":1004,"In":1005,"Ġ10":1006,"ĠâĢĵ":1007,"ëıĻ":1008,"rib":1009,"Ġstud":1010,"ible":1011,"stem":1012,"íļĮ":1013,"mer":1014,"Ġinc":1015,"ular":1016,"íĦ":1017,"íĸĪëĭ¤":1018,"ĠíĻ":1019,"Ġrem":1020,"¯¸":1021,"ener":1022,"ased":1023,"Ġthen":1024,"als":1025,"aw":1026,"ss":1027,"Ġmod":1028,"Ġshe":1029,"Ġexper":1030,"Ġrequ":1031,"fore":1032,"...":1033,"Ġvery":1034,"Ġafter":1035,"ĠìķĦ":1036,"êµ¬":1037,"Ġshould":1038,"Ġsuch":1039,"ily":1040,"ool":1041,"ract":1042,"Ġsm":1043,"ient":1044,"ìĻĢ":1045,"Ġinst":1046,"ew":1047,"Ġent":1048,"Ġke":1049,"Ġíĺ":1050,"ures":1051,"Ġcould":1052,"Ġìłķ":1053,"ices":1054,"ps":1055,"Ġì°":1056,"Ġìļ":1057,"ĠYou":1058,"Ġmany":1059,"ì¶":1060,"iness":1061,"Ġeff":1062,"_{":1063,"Ġac":1064,"Ĩµ":1065,"ax":1066,"ict":1067,"Ġ9":1068,"Ġìĸ":1069,"Ġway":1070,"Ĥ°":1071,"uch":1072,"rit":1073,"olog":1074,"Ġsec":1075,"ble":1076,"--------":1077,"Ġfind":1078,"Ġloc":1079,"ëħĦ":1080,"any":1081,"its":1082,"Ġdec":1083,"íı":1084,"ational":1085,"Ġfin":1086,"Ġgood":1087,"Ġdiffe":1088,"Ġcour":1089,"Ġëĵ±":1090,"ife":1091,"erson":1092,"Ġval":1093,"Ġyears":1094,"pro":1095,"ë¬¸":1096,"Ġìłľ":1097,"Ġgreat":1098,"ull":1099,"Ġbus":1100,"ize":1101,"íĦ°":1102,"Ġ200":1103,"Ġeven":1104,"ex":1105,"ting":1106,"uring":1107,"Ġright":1108,"íķĺê³ł":1109,"Ġatt":1110,"ĠUn":1111,"day":1112,"Ġsub":1113,"Ġins":1114,"ward":1115,"ts":1116,"íĥ":1117,"aking":1118,"ix":1119,"Ġhigh":1120,"}}":1121,"Ġtrans":1122,"Ġown":1123,"Ġshow":1124,"velop":1125,"ĠìĨ":1126,"ìĬµ":1127,"ident":1128,"Ġinform":1129,"ited":1130,"Ġsim":1131,"ĠRe":1132,"Ġpres":1133,"Th":1134,"19":1135,"Ġdet":1136,"ìŀ¬":1137,"Ġë³´":1138,"ption":1139,"ĠìŀĪëĭ¤":1140,"der":1141,"Ġbecause":1142,"ĠâĢĺ":1143,"Ġì¶":1144,"hes":1145,"Ġstart":1146,"cy":1147,"Ġfun":1148,"ĠIf":1149,"Ġnow":1150,"ë¹Ħ":1151,"ics":1152,"Ġinte":1153,"ork":1154,"ience":1155,"io":1156,"ìĭł":1157,"Ġused":1158,"Ġinter":1159,"air":1160,"Ġcar":1161,"Ġnum":1162,"ì§Ħ":1163,"Ġì£¼":1164,"arch":1165,"ode":1166,"ĠCom":1167,"ê¹":1168,"up":1169,"Ġmin":1170,"10":1171,"ìĨĮ":1172,"line":1173,"ĠìŀĲ":1174,"Ġgu":1175,"Ġclass":1176,"Ġform":1177,"Ġsystem":1178,"Ġdid":1179,"Ġ$\\":1180,"Ġdown":1181,"riv":1182,"Ġplay":1183,"ues":1184,"ê³Ħ":1185,"ution":1186,"Ġbest":1187,"Ġlong":1188,"ower":1189,"Ġê²½":1190,"ng":1191,"Ġdoes":1192,"hip":1193,"====":1194,"Ġì¤ĳ":1195,"000":1196,"Ġsaid":1197,"Ġmuch":1198,"Ġ.":1199,"Ġend":1200,"ollow":1201,"Ġdisc":1202,"ublic":1203,"Ġdesign":1204,"íĶ":1205,"Ġav":1206,"Ġdef":1207,"Ġread":1208,"Ġche":1209,"ìĤ°":1210,"gan":1211,"ëĭĪ":1212,"ëĵľ":1213,"Ġsur":1214,"Ġday":1215,"other":1216,"íķł":1217,"ĠìĿ¸":1218,"Ġíķĺ":1219,"Ġhome":1220,"íĮ":1221,"Ġdon":1222,"Ġëĭ¤":1223,"Ġmon":1224,"ĠìĿ´ë":1225,"iel":1226,"Ġê³µ":1227,"ank":1228,"Ġob":1229,"und":1230,"ì¹ĺ":1231,"ever":1232,"Ġmade":1233,"ĠPro":1234,"Ġbefore":1235,"ute":1236,"de":1237,"Ġeach":1238,"ë©°":1239,"Ġtoo":1240,"Ġbusiness":1241,"alth":1242,"Ġtake":1243,"Ġcre":1244,"Ġprovid":1245,"Ġcall":1246,"ash":1247,"Ġdevelop":1248,"Ġhere":1249,"ee":1250,"Ġperson":1251,"Ġinformation":1252,"Ġmark":1253,"ner":1254,"Ġvar":1255,"</":1256,"Ġcur":1257,"Ġprog":1258,"ëĭ¨":1259,"rest":1260,"Ġexp":1261,"ĠìľĦ":1262,"ìĦ¸":1263,"Ġchar":1264,"ween":1265,"Ġcomple":1266,"ëªħ":1267,"ê³µ":1268,"Ġthose":1269,"ê°Ħ":1270,"Ġagain":1271,"Ġresult":1272,"íĸī":1273,"ìĬµëĭĪëĭ¤":1274,"led":1275,"Ġdifferent":1276,"ages":1277,"Ġop":1278,"Ġty":1279,"Ġfam":1280,"Ġë¶Ģ":1281,"20":1282,"Ġbeing":1283,"ìĹ¬":1284,"oad":1285,"aint":1286,"chn":1287,"ven":1288,"ality":1289,"ì°¨":1290,"ìĿ´ëĭ¤":1291,"Ġusing":1292,"con":1293,"imes":1294,"ìļ°":1295,"ason":1296,"Ġreturn":1297,"Ġbetween":1298,"Ġmem":1299,"ually":1300,"Ġê±":1301,"Ġvis":1302,"Ġfollow":1303,"Ġsign":1304,"ëį°":1305,"Ġproduct":1306,"Ġhand":1307,"ince":1308,"ĽĦ":1309,"Ġfact":1310,"Ġthink":1311,"ì¡°":1312,"read":1313,"Ġì²":1314,"irect":1315,"ins":1316,"Ġaut":1317,"Ġi":1318,"self":1319,"ustom":1320,"Ġsupport":1321,"ê¸Ī":1322,"Ġcor":1323,"atch":1324,"ĠĊ":1325,"ines":1326,"ëŁ¬":1327,"chool":1328,"Ġmed":1329,"ĠëĤĺ":1330,"ale":1331,"ë£":1332,"Ġdist":1333,"ìľĦ":1334,"Ġgra":1335,"ield":1336,"ms":1337,"Ġdata":1338,"ctions":1339,"pr":1340,"math":1341,"ĠAnd":1342,"ìķĪ":1343,"Ġprocess":1344,"Ġwhile":1345,"Ġìĥģ":1346,"ave":1347,"ets":1348,"ĠAl":1349,"ìĦł":1350,"Ġsame":1351,"oun":1352,"ĠìĿ¼":1353,"Ġpol":1354,"Ġëª¨":1355,"way":1356,"\",":1357,"¯¼":1358,"Ġê¸":1359,"ized":1360,"ìķ¼":1361,"ier":1362,"tt":1363,"ĠFor":1364,"Ġgener":1365,"Ġbo":1366,"ê²½":1367,"ER":1368,"ature":1369,"Ġhim":1370,"ma":1371,"Ġ20":1372,"Ġboth":1373,"view":1374,"Ġser":1375,"}$":1376,"ouse":1377,"ĠAs":1378,"ê´Ģ":1379,"Ġart":1380,"Ġconst":1381,"Ġworld":1382,"ness":1383,"Ġwee":1384,"ug":1385,"Ġpat":1386,"co":1387,"ê·":1388,"Ġcle":1389,"ather":1390,"Ġpur":1391,"land":1392,"Ġlife":1393,"ined":1394,"ë§Ī":1395,"Ġsol":1396,"ruct":1397,"Ġchild":1398,"Ġeas":1399,"12":1400,"Ġext":1401,"pos":1402,"Ġed":1403,"ives":1404,"ants":1405,"Ġ12":1406,"ĠDe":1407,"ĠëĲ":1408,"Ġtri":1409,"Ġfound":1410,"Ġë²":1411,"µľ":1412,"ìĽĶ":1413,"Ġappro":1414,"Ġadv":1415,"ired":1416,"St":1417,"arn":1418,"ê¹Į":1419,"Ġìĺ¤":1420,"Ġpoint":1421,"Ġlar":1422,"the":1423,"ìŀħ":1424,"alk":1425,"amp":1426,"Ġsk":1427,"Ġstate":1428,"Ġlist":1429,"ê°ľ":1430,"Ġcase":1431,"Ġpost":1432,"We":1433,"akes":1434,"Ġimport":1435,".,":1436,"ars":1437,"ger":1438,"Ġtest":1439,"Ġlead":1440,"Ġfil":1441,"Ġstr":1442,"Ġaround":1443,"Ġrep":1444,"ateg":1445,".\"":1446,"Ġlast":1447,"Ġcare":1448,"ëĭ¹":1449,"Ġíı":1450,"ĠíĮ":1451,"roup":1452,"ĠAn":1453,"iet":1454,"Ġcount":1455,"__":1456,"Ġgl":1457,"Ġprogram":1458,"lease":1459,"ivers":1460,"Ġ/":1461,"Ġplace":1462,"ense":1463,"right":1464,"Ġcommun":1465,"ator":1466,"ĠêµŃ":1467,"cept":1468,"ì²´":1469,"els":1470,"Ġpartic":1471,"Ġnumber":1472,"to":1473,"ëĦ":1474,"ëĲĺ":1475,"be":1476,"ĠìĬ":1477,"Ġsom":1478,"Ġê´Ģ":1479,"Ġprof":1480,"ĠQ":1481,"Ġreally":1482,"Ġeffect":1483,"Ġdel":1484,"Ġcustom":1485,"iqu":1486,"Ġavail":1487,"me":1488,"Ġinf":1489,"less":1490,"Ġproper":1491,"Ġ:":1492,"Ġposs":1493,"ê±°":1494,"ways":1495,"ining":1496,"Ġref":1497,"50":1498,"ional":1499,"11":1500,"Ġsmall":1501,"This":1502,"Ġrun":1503,"Ġfree":1504,"ton":1505,"ters":1506,"^{":1507,"az":1508,"Ġbook":1509,"ĠCl":1510,"ĠSh":1511,"Ġspec":1512,"Ġtechn":1513,"arm":1514,"Ġiss":1515,"ĠNew":1516,"Ġstill":1517,"ĠAr":1518,"IN":1519,"Ġpublic":1520,"Ġexam":1521,"Ġì¹":1522,"Ġì¡°":1523,"ìĭĿ":1524,"¶Į":1525,"Ġwithout":1526,"Ġmust":1527,"Ġlove":1528,"Ġorder":1529,"Ġëį":1530,"Ġplan":1531,"Ġconf":1532,"Ġìľł":1533,"Ġthough":1534,"uc":1535,"Ġtop":1536,"ĳľ":1537,"ë¶Ħ":1538,"Ġê³ł":1539,"Ġresp":1540,"ĠìĨĮ":1541,"ìĺģ":1542,"ients":1543,"Ġteam":1544,"ved":1545,"íı¬":1546,"Ġë¹Ħ":1547,"ĠëĶ":1548,"ëĲľ":1549,"Ġallow":1550,"ving":1551,"ìĹ°":1552,"íŀ":1553,"ĠThere":1554,"ically":1555,"ody":1556,"pend":1557,"ern":1558,"íķ©":1559,"Ġíĸ":1560,"erg":1561,"ìĺ¤":1562,"Ġproject":1563,"Ġthree":1564,"ëł¥":1565,"Â·":1566,"ross":1567,"ology":1568,"Ġduring":1569,"íģ":1570,"riend":1571,"ìľł":1572,"Ġ18":1573,"ploy":1574,"()":1575,"ider":1576,"gg":1577,"ĠìĽ":1578,"Ġavailable":1579,"Ġequ":1580,"err":1581,"Ġbuild":1582,"vent":1583,"Ġrece":1584,"ë¬´":1585,"Ġfew":1586,"gin":1587,"over":1588,"ì¦":1589,"Ġcent":1590,"Ġreal":1591,"íķĻ":1592,"ital":1593,"arly":1594,"ĠThey":1595,"ware":1596,"ì¶ľ":1597,"app":1598,"nect":1599,"iving":1600,"Ġinterest":1601,"ĠBut":1602,"Ġgoing":1603,"rol":1604,"Ġlot":1605,"ON":1606,"ĠìĦľ":1607,"íĨµ":1608,"Ġopen":1609,"ĠHow":1610,"par":1611,"Ġperform":1612,"Ġide":1613,"ĠíĶ":1614,"Ġsecond":1615,"ah":1616,"Ġstand":1617,"man":1618,"Ġname":1619,"ittle":1620,"rence":1621,"ĠìŀĪëĬĶ":1622,"Ġrest":1623,"Ġê°ľ":1624,"ision":1625,"Ġquest":1626,"Ġìĭł":1627,"Ġincre":1628,"ared":1629,"ĠWh":1630,"ists":1631,"ìĭ¤":1632,"ural":1633,"30":1634,"Ġservice":1635,"sc":1636,"Ġel":1637,"ëł¤":1638,"Ġmonth":1639,"ĠìĿĺ":1640,"It":1641,"Ġhealth":1642,"ìŀĦ":1643,"Ġwr":1644,"ĠAd":1645,"Ġest":1646,"bers":1647,"ĠìĹ°":1648,"ified":1649,"Ġmarket":1650,"Ġcompany":1651,"ĠìĹ¬":1652,"ished":1653,"íħ":1654,"201":1655,"Ġlevel":1656,"ķĮ":1657,"Ġkeep":1658,"\">":1659,"Ġincluding":1660,"Ġë§Ī":1661,"eng":1662,"Ġhapp":1663,"Ġproble":1664,"ë¯¼":1665,"íĴ":1666,"Ġpay":1667,"Ġwater":1668,"stand":1669,"ential":1670,"Ġêµ¬":1671,"ases":1672,"Ġcontin":1673,"Ġlet":1674,"ames":1675,"Ġve":1676,"Ġ11":1677,"Ġmat":1678,"ien":1679,"aut":1680,"Ġ15":1681,"Ġìµľ":1682,"Ġorgan":1683,"Ġoper":1684,"uss":1685,"put":1686,"****":1687,"ĠìķĬ":1688,"Ġpass":1689,"ĠPl":1690,"ik":1691,"Ġtry":1692,"Ġbel":1693,"ĠìĹĨ":1694,"Ġdirect":1695,"Ġterm":1696,"Ġexperience":1697,"íŀĪ":1698,"Ġë¯¸":1699,"Ġfeel":1700,"ìĪ":1701,"ë¯¸":1702,"Ġalways":1703,"ral":1704,"Ġwithin":1705,"êµĲ":1706,"ify":1707,"ĠìĦł":1708,"rid":1709,"thing":1710,"Ġprovide":1711,"ĠìĻ":1712,"sh":1713,"ret":1714,"Ġë¬´":1715,"Ġpresent":1716,"ately":1717,"reen":1718,"ê¶Į":1719,"ìĥĿ":1720,"bo":1721,"dition":1722,"Ġfamily":1723,"Ġimportant":1724,"Ġíķ´":1725,"Ġthings":1726,"ĠOn":1727,"ìĹŃ":1728,"ething":1729,"ê·¸":1730,"¢ħ":1731,"ĠSo":1732,"inal":1733,"ccess":1734,"Ġnext":1735,"ì¤ĳ":1736,"Ġexpl":1737,"Ġvalue":1738,"oid":1739,"Ġbetter":1740,"Ġschool":1741,"Ġsure":1742,"ivid":1743,"ìĿ´ëĿ¼":1744,"Ġsay":1745,"Ġlittle":1746,"Ġcost":1747,"Ġreport":1748,"ray":1749,"Ġcurrent":1750,"ì¡":1751,"Ġoffer":1752,"ote":1753,"ëħ¸":1754,"ability":1755,"Ġapplic":1756,"ott":1757,"Ġsl":1758,"of":1759,"ration":1760,"oint":1761,"ĠEx":1762,"Ġcert":1763,"part":1764,"ìŀĳ":1765,"ron":1766,"meric":1767,"Ġsince":1768,"ior":1769,"ëĤľ":1770,"ery":1771,"Ġë°ľ":1772,"Ġanother":1773,"ES":1774,"Ġ|":1775,"Ġcome":1776,"ĠìķĪ":1777,"Ġlight":1778,"cent":1779,"oot":1780,"ead":1781,"Ġcourt":1782,"ethod":1783,"ization":1784,"Ġë§Ĳ":1785,"Ġ//":1786,"Ġë°©":1787,"Ġ@":1788,"Ġgive":1789,"Ġable":1790,"AT":1791,"Ġaff":1792,"Ġaddition":1793,"ĠíĨµ":1794,"Ġmight":1795,"aj":1796,"Ġlaw":1797,"Ġsomething":1798,"ves":1799,"ìļ¸":1800,"Ġput":1801,"íĳľ":1802,"Ġarea":1803,"min":1804,"Ġëħ":1805,"Ġë§Į":1806,"Ġbre":1807,"Ġë°Ķ":1808,"AR":1809,"Ġservices":1810,"}\\":1811,"Ġopp":1812,"aim":1813,"->":1814,"íĺ¸":1815,"ains":1816,"Ġprot":1817,"Ġfull":1818,"Ġcr":1819,"Ġinvest":1820,"Ġpower":1821,"Ġhead":1822,"atic":1823,"ĠInd":1824,"sp":1825,"ury":1826,"Ġfriend":1827,"iven":1828,"ium":1829,"ission":1830,"Ġbra":1831,"Ġmet":1832,"ĠSe":1833,"Ġaccess":1834,"iver":1835,"ĳĲ":1836,"Ġ30":1837,"íĴĪ":1838,"Ġfunction":1839,"ĠSc":1840,"tend":1841,"íİ":1842,"Ġspecial":1843,"15":1844,"ìļ´":1845,"16":1846,"orn":1847,"ëŀĺ":1848,"Ġbig":1849,"ìĿĮ":1850,"If":1851,"ann":1852,"Ġì°¨":1853,"Ġless":1854,"Ĩł":1855,"ë°©":1856,"Ġpar":1857,"ered":1858,"ì§Ģë§Į":1859,"Ġview":1860,"ĠCon":1861,"ling":1862,"Ġopt":1863,"work":1864,"Ġele":1865,"Ġmus":1866,"ì²ľ":1867,"What":1868,"ī´":1869,"ĠZ":1870,"por":1871,"Ġsoc":1872,"ards":1873,"íĹ":1874,"ĠAll":1875,"Ġgrow":1876,"ĠìĥĿ":1877,"ource":1878,"omm":1879,"Ġeng":1880,"ird":1881,"itions":1882,"ems":1883,"Ġimp":1884,"Ġx":1885,"íķľëĭ¤":1886,"Ġca":1887,"íĥĢ":1888,"ism":1889,"ë°Ķ":1890,"Ġlocal":1891,"ww":1892,"ently":1893,"text":1894,"ran":1895,"½Ķ":1896,"Ġì´":1897,"¤Ģ":1898,"Ġold":1899,"Ġíĥ":1900,"Ġlarge":1901,"ĠAmeric":1902,"Ġline":1903,"ĠShe":1904,"Ġê¹":1905,"Ġhard":1906,"oney":1907,"ĠLet":1908,"Ġrese":1909,"Ġonline":1910,"ĠìĬ¤":1911,"ì¹´":1912,"Ġben":1913,"Ġphot":1914,"Ġdays":1915,"Ġbro":1916,"Ġnon":1917,"ĠPh":1918,"rac":1919,"Ġ16":1920,"Ġactiv":1921,"med":1922,"Ġsit":1923,"ortun":1924,"val":1925,"Ġemploy":1926,"ĠApp":1927,"OR":1928,"ĠëķĮ":1929,"Ġë°ı":1930,"Ġìŀ¬":1931,"))":1932,"ìħ":1933,"Ġbas":1934,"Ġmov":1935,"ok":1936,"here":1937,"raph":1938,"Ġ14":1939,"ained":1940,"Ġìļ°":1941,"Ġnever":1942,"ìĸĳ":1943,"itive":1944,"ĠIs":1945,"ĠWhat":1946,"iversity":1947,"Ġwebs":1948,"ĠCol":1949,"Ġturn":1950,"mon":1951,"Ġunt":1952,"ised":1953,"arent":1954,"Ġcheck":1955,"ĠìĺĪ":1956,"iron":1957,"idence":1958,"ĠëĤ´":1959,"ĠBl":1960,"ĠëıĻ":1961,"ination":1962,"ten":1963,"Ġchang":1964,"ëª¨":1965,"18":1966,"ours":1967,"ĠìĦ¸":1968,"Ġroom":1969,"14":1970,"ìĨį":1971,"oci":1972,"irc":1973,"ĠëıĦ":1974,"ĠíĬ":1975,"rist":1976,"ë°ľ":1977,"Ġ13":1978,"\":":1979,"25":1980,"cing":1981,"ĠLe":1982,"elf":1983,"----------------":1984,"\\]":1985,"ë²ķ":1986,"Ġchange":1987,"Ġpop":1988,"ĠSp":1989,"Ġë¬¸":1990,"joy":1991,"Ġsing":1992,"ĠíĺĦ":1993,"!!":1994,"Ġworking":1995,"ream":1996,"Ġmult":1997,"ention":1998,"Ġz":1999,"Ġask":2000,"Ġrecord":2001,"ê¹Įì§Ģ":2002,"Ġgroup":2003,"rict":2004,"]{":2005,"ëĬ¥":2006,"ĠBe":2007,"ope":2008,"Ġprom":2009,"Ġimpro":2010,"13":2011,"Ġlim":2012,"let":2013,"Ġfac":2014,"Ġconnect":2015,"Ġbased":2016,"Ġagainst":2017,"mm":2018,"Ġpract":2019,"íĽĦ":2020,"Ġweek":2021,"Ġevent":2022,"íĸĪ":2023,"ë¡Ŀ":2024,")$":2025,"ãĢ":2026,"Ġê°ķ":2027,"ëĤ´":2028,"Ġcap":2029,"Ġtype":2030,"Ġintern":2031,"íģ¬":2032,"ably":2033,"ived":2034,"Ġ199":2035,"ots":2036,"hor":2037,"Ġanal":2038,"oss":2039,"EN":2040,"Ġdev":2041,"Ġchildren":2042,"Ġtreat":2043,"ê°ģ":2044,"set":2045,"Ġìĺģ":2046,"oh":2047,"Ġsite":2048,"ë§¤":2049,"ats":2050,"Ġprofess":2051,"Ġgame":2052,"ump":2053,"ieve":2054,"Ġmeet":2055,"ê±´":2056,"Ġleg":2057,"fect":2058,"ta":2059,"ged":2060,"aterial":2061,"íĶĦ":2062,"AN":2063,"ency":2064,"Ġmaking":2065,"Ġunderstand":2066,"Ġbeh":2067,"Ġvisit":2068,"Ġpa":2069,"load":2070,"ique":2071,"(\\":2072,"utes":2073,"Ġcomplete":2074,"agement":2075,"Ġquality":2076,"Ġìĭ¤":2077,"yn":2078,"::":2079,"Ġfood":2080,"Ġexpect":2081,"IT":2082,"upp":2083,"Ġê·":2084,"vious":2085,"Ġpossible":2086,"yle":2087,"Ġsuccess":2088,"ush":2089,"Ġì§Ħ":2090,"oor":2091,"ëłĪ":2092,"lish":2093,"Ġtem":2094,"icle":2095,"Ġmethod":2096,"ë°°":2097,"ember":2098,"ìĭ¬":2099,"Ġsal":2100,"att":2101,"ĠìĦ±":2102,"outh":2103,"Ġstudents":2104,"Ġspecific":2105,"ĠX":2106,"ê²©":2107,"ëįĺ":2108,"ĠëĦ":2109,"ST":2110,"========":2111,"ë¬¼":2112,"ĠTo":2113,"Ġjob":2114,"lection":2115,"âĸ":2116,"aster":2117,"Ġfour":2118,"Ġgot":2119,"Ġê¸Ī":2120,"not":2121,"Ġelect":2122,"Ġlooking":2123,"ured":2124,"ëĶ":2125,"Ġalong":2126,"ĠíĻķ":2127,"200":2128,"Ġuntil":2129,"Ġproducts":2130,"Re":2131,"Ġcourse":2132,"ĠTe":2133,"fer":2134,"ĠRes":2135,"Ġdi":2136,"by":2137,"Ġcreate":2138,"Ġocc":2139,"Ġwin":2140,"ocus":2141,"Ġfield":2142,"Ġìŀ¥":2143,"Ġconc":2144,"Ġgover":2145,"Ġ17":2146,"ĠUS":2147,"Ġcontrol":2148,"Ġtoday":2149,"room":2150,"ë°ĺ":2151,"Ġneeds":2152,"mb":2153,"Ġgr":2154,"Ī¬":2155,"ìłĢ":2156,"Ġê±°":2157,"Ġ,":2158,"cri":2159,"17":2160,"indow":2161,"urther":2162,"ëĵ¤ìĿ´":2163,"Ġcreat":2164,"Ġpot":2165,"ither":2166,"Ġhist":2167,"ĠWhen":2168,"Ġ#":2169,"ividual":2170,"Ġconsider":2171,"Ġclaim":2172,"24":2173,"âĢľ":2174,"illion":2175,"ë¥´":2176,"ĠWith":2177,"Ġenjoy":2178,"Ġaccount":2179,"ìĸ´ë":2180,"Ġindust":2181,"You":2182,"ĠìĽĲ":2183,"Ġhum":2184,"Ġdetail":2185,"aring":2186,"Ġreview":2187,"Ġvers":2188,"ries":2189,"Ġrequire":2190,"ĠëĨ":2191,"iety":2192,"Ġmot":2193,"ipp":2194,"íĭ":2195,"Ġë¶Ħ":2196,"',":2197,"for":2198,"ê¸ī":2199,"ED":2200,"ering":2201,"rop":2202,"ì²Ń":2203,"ìłĲ":2204,"Ġdra":2205,"ffic":2206,"Ġsw":2207,"ney":2208,"AL":2209,"Ġtimes":2210,"ument":2211,"ĠCo":2212,"ĠêµĲ":2213,"Ġ100":2214,"Ġì¶Ķ":2215,"]{}":2216,"Ġann":2217,"ìĦĿ":2218,"amb":2219,"ories":2220,"ĠTr":2221,"ĠëĶ°":2222,"duct":2223,"cal":2224,"Ġaway":2225,"gether":2226,"Ġtogether":2227,"Ġleft":2228,"ĠOr":2229,"Ġwrit":2230,"Ġdri":2231,"Ġoften":2232,"orth":2233,"ĠAt":2234,"Ġlearn":2235,"Ġbuy":2236,"Ġeasy":2237,"Ġsever":2238,"32":2239,"Ġhouse":2240,"Ġê³Ħ":2241,"Ġlow":2242,"Ġwebsite":2243,"ising":2244,"nment":2245,"side":2246,"_{\\":2247,"rap":2248,"Ġpriv":2249,"Ġhaving":2250,"Ġfollowing":2251,"ina":2252,"new":2253,"Ġbenef":2254,"Ġgiven":2255,"Ġreason":2256,"Ġresults":2257,"viron":2258,"Ġkey":2259,"ì´":2260,"Ġinclude":2261,"ift":2262,"Ġmaterial":2263,"Ġident":2264,"ë£Į":2265,"ills":2266,"ĠìĤ":2267,"://":2268,"Ġprotect":2269,"Ġside":2270,"Ġmoney":2271,"ë¥¸":2272,"ding":2273,"ulation":2274,"resent":2275,"ĠíĽĦ":2276,"Ġindividual":2277,"iff":2278,"ference":2279,"ì¢ħ":2280,"vert":2281,"íĨł":2282,"ĠÂ":2283,"ìĹĲê²Į":2284,"Ġwhy":2285,"Ġexample":2286,"ĠMan":2287,"Ġtyp":2288,"ley":2289,"atures":2290,"Ġnet":2291,"As":2292,"Ġet":2293,"Ġredu":2294,"son":2295,"fend":2296,"Ġshort":2297,"Ġstudy":2298,"ready":2299,"ëŁī":2300,"ì¸":2301,"opy":2302,"ë©´ìĦľ":2303,"rm":2304,"Ġíģ":2305,"ĺĲ":2306,"ĠNo":2307,"Ġword":2308,"Ġspace":2309,"Ġë§¤":2310,"Ġsoft":2311,"ìĹĪëĭ¤":2312,"Ġì¶ľ":2313,"Ġself":2314,"Ġmeans":2315,"Ġ24":2316,"ìłģìĿ¸":2317,"ajor":2318,"Ġhig":2319,"ìĹĪ":2320,"ĠThat":2321,"omen":2322,"íĺķ":2323,"ĠëįĶ":2324,"íĤ":2325,"ane":2326,"ìĦ¤":2327,"Ġes":2328,"Ġhold":2329,"Ġseveral":2330,"frac":2331,"ìķ½":2332,"ances":2333,"Ġ25":2334,"ì¤Ģ":2335,"ĠComm":2336,"Ġdeterm":2337,"Ġresearch":2338,"Ġdone":2339,"ĠThese":2340,"Ġparticular":2341,"Ġmain":2342,"iting":2343,"Ġorig":2344,"Ġmean":2345,"Ġair":2346,"Ġcommunity":2347,"pecial":2348,"use":2349,"ront":2350,"Ġpersonal":2351,"Ġê²°":2352,"ording":2353,"ë¶ĢíĦ°":2354,"±ħ":2355,"roll":2356,"Ġpast":2357,"Ġfocus":2358,"Ġvide":2359,"Ġmove":2360,"urs":2361,"ids":2362,"ĠHowever":2363,"Ġtre":2364,"Ġcou":2365,"80":2366,"Ġkind":2367,",âĢĿ":2368,"Ġexce":2369,"Ġinvol":2370,"Ġcertain":2371,"Ġwhether":2372,"uck":2373,"ĠChrist":2374,"ĠCent":2375,"Ġperfect":2376,"ê²ł":2377,"ule":2378,"Ġë¶Ī":2379,"Ġcommon":2380,"Ġdevelopment":2381,"Ġprob":2382,"Ġmodel":2383,"Ġlink":2384,"íĺĦ":2385,"Ġpage":2386,"Ġerr":2387,"Ġbeaut":2388,"utions":2389,"lab":2390,"Ġproblem":2391,"ĠCan":2392,"oice":2393,"uro":2394,"iod":2395,"ĠëĮĢíķľ":2396,"Ġfile":2397,"Ġë°Ľ":2398,"ë³¸":2399,"Ġalready":2400,"Ġcharact":2401,"Ġcell":2402,"Ġbecome":2403,"ĠëĲĺ":2404,"Ġbody":2405,"ãģ":2406,"aining":2407,"Ġabove":2408,"ored":2409,"Ġcontact":2410,"Ġmembers":2411,"li":2412,"IC":2413,"ëł¨":2414,"ë¦°":2415,"aff":2416,"Ġmakes":2417,"Ġê¹Ģ":2418,"Ġì¢":2419,"Ġland":2420,"ively":2421,"Ġthing":2422,"Ġcal":2423,"uture":2424,"Ġìĸ´ë":2425,"60":2426,"ape":2427,"uff":2428,"ì§ģ":2429,"Ġrange":2430,"ìĹĲëĬĶ":2431,"ìĪł":2432,"AS":2433,"(\"":2434,"agn":2435,"Ġfore":2436,"'m":2437,"ler":2438,"vironment":2439,"Ex":2440,"Ġopportun":2441,"ìłģìľ¼ë¡ľ":2442,",\"":2443,"Ġenough":2444,"Ġë§İ":2445,"(-":2446,"Ġobject":2447,"Ġsize":2448,"inc":2449,"ĠUniversity":2450,"Ġmar":2451,"Ġproperty":2452,"´ĳ":2453,"ategory":2454,"40":2455,"ëŀĮ":2456,"Ġstat":2457,"Ġstruct":2458,"Ġcalled":2459,"ograph":2460,"Ġmajor":2461,"Ġfav":2462,"âĢĶ":2463,"play":2464,"Ġ2018":2465,"Ġpack":2466,"Ġfund":2467,"Ġmeas":2468,"Let":2469,"¸Į":2470,"##":2471,"Ġleast":2472,"ê°Ĳ":2473,"Ġì¦":2474,"sw":2475,"Ġcomb":2476,"Ġsuper":2477,"ĠíļĮ":2478,"Ġnight":2479,"Ġê¸°ìŀĲ":2480,"alf":2481,"Ġfar":2482,"For":2483,"crib":2484,"22":2485,"Ġenerg":2486,"Ġëĭ¹":2487,"Ġëħ¸":2488,"osp":2489,"ìķĺ":2490,"âĢĵ":2491,"ĠEng":2492,"aces":2493,"ĠGod":2494,"Ġë°ĺ":2495,"ë¡ł":2496,"Ġbit":2497,"aps":2498,"Ġothers":2499,"Ġoffic":2500,"Ġeduc":2501,"Ġì§ĢëĤľ":2502,"ì§Ģëħ¸":2503,"ĠState":2504,"Pro":2505,"urity":2506,"ĠMar":2507,"osed":2508,"unt":2509,"ìĸµ":2510,"ĠMy":2511,"Ġfail":2512,"ĠOur":2513,"RE":2514,"ask":2515,"Ġìłģ":2516,"Ġport":2517,"Ġstep":2518,"cer":2519,"Ġsocial":2520,"Ġtot":2521,"Ġ50":2522,"Ġê°Ļ":2523,"oose":2524,"Ġamount":2525,"Ġacross":2526,"0000":2527,"ges":2528,"Ġdue":2529,"íķĺê²Į":2530,"face":2531,"place":2532,"che":2533,"Ġbelow":2534,"Ġdiscuss":2535,"Ġla":2536,"Ġcomes":2537,"Ķëĭ¤":2538,"$.":2539,"Ġce":2540,"ĠâĢĶ":2541,"yl":2542,"'re":2543,"enn":2544,"Ġvol":2545,"str":2546,"Ġtool":2547,"ype":2548,"AC":2549,"lished":2550,"Ġant":2551,"itted":2552,"tr":2553,"Ġens":2554,"Ġrequired":2555,"wards":2556,"Ġquick":2557,"Ġê°Ĳ":2558,"ëĭ¬":2559,"Ġaddress":2560,"Ġelse":2561,"isk":2562,"$,":2563,"ĠUnited":2564,"He":2565,"ides":2566,"Ġcover":2567,"ches":2568,"íĮĮ":2569,"Ġsingle":2570,"$\\":2571,"ĠìķĮ":2572,"dd":2573,"íĹĺ":2574,"ëī´":2575,"Ġsignific":2576,"ĥĪ":2577,"anks":2578,"ëĭ¤ëĬĶ":2579,"augh":2580,"Ġpurch":2581,"Ġrele":2582,"Ġquestion":2583,"igned":2584,"ources":2585,"íķĺê¸°":2586,"Ġever":2587,"ault":2588,"ëĤ¨":2589,"Ġwa":2590,"Ġgetting":2591,"ox":2592,"conom":2593,"ene":2594,"ĠFl":2595,"ilt":2596,"ister":2597,"Ġstrong":2598,"Ġpri":2599,"eral":2600,"Ġmusic":2601,"Ġinit":2602,"Ġappear":2603,"Ġfuture":2604,"Ġdoc":2605,"ê·¼":2606,"Ġdoing":2607,"uf":2608,"Ġinstall":2609,"Ġmind":2610,"Ġhot":2611,"ĠìłĢ":2612,"icy":2613,"ĠíĬ¹":2614,"Ġdeal":2615,"ental":2616,"Ġperiod":2617,"ibility":2618,"ĠCour":2619,"iful":2620,"ilities":2621,"Ġtrue":2622,"Ġknown":2623,"ume":2624,"Ġprice":2625,"Ġë©":2626,"Ġenergy":2627,"Ġcontent":2628,"Ġarg":2629,"mber":2630,"ĠCal":2631,"Ġcompan":2632,"Ġclean":2633,".âĢĿ":2634,"Ch":2635,"ìĿ´íĬ¸":2636,"Ġenc":2637,"ctor":2638,"ification":2639,"Ġcompl":2640,"Con":2641,"Ġcompet":2642,"Ġlive":2643,"ĠCar":2644,"idd":2645,"Ġcountry":2646,"itor":2647,"ì²ĺ":2648,"Ġbreak":2649,"Ġactually":2650,"ì¦Ŀ":2651,"ìŀħëĭĪëĭ¤":2652,"Ġìĺ¬":2653,"ino":2654,"23":2655,"To":2656,"íĥľ":2657,"Ġeither":2658,"ID":2659,"Ġíİ":2660,"back":2661,"eb":2662,"99":2663,"Ġtell":2664,"IS":2665,"arget":2666,"cul":2667,"Ġshare":2668,"ĠMay":2669,"Ġfurther":2670,"Ġcity":2671,"ĠSy":2672,"Ġonce":2673,"aken":2674,"Ġclose":2675,"ìĶ":2676,"ml":2677,"Ġpick":2678,"Ġchall":2679,"though":2680,"An":2681,"ĠìĦ¤":2682,"Ġlater":2683,"Ġrequest":2684,"opp":2685,"Ġìŀħ":2686,"most":2687,"left":2688,"name":2689,"ones":2690,"'ve":2691,"ai":2692,"arning":2693,"ilar":2694,"une":2695,"Ġtext":2696,"....":2697,"ëł¹":2698,"gle":2699,"ples":2700,"70":2701,"Ġseason":2702,"ruction":2703,"Ġaction":2704,"ê»":2705,"eter":2706,"}{":2707,"ĠìľĦíķ´":2708,"Ġrespons":2709,"Ġprovides":2710,"Ġphys":2711,"ê°ķ":2712,"Ġmom":2713,"Ġë°°":2714,"Ġhy":2715,"Cl":2716,"irm":2717,"Ġselect":2718,"Ġcorre":2719,"ĠAss":2720,"ohn":2721,"ply":2722,"urance":2723,"Ġrecomm":2724,"Ġess":2725,"ched":2726,"Ġmaint":2727,"ued":2728,"Ġbr":2729,"Ġrepresent":2730,"Ġíı¬":2731,"Ġmonths":2732,"Ġminutes":2733,"Ġrecommend":2734,"Ġbring":2735,"ression":2736,"Wh":2737,"Ġpatients":2738,"Ġtax":2739,"ĠëĺĲ":2740,"Ġ*/":2741,"64":2742,"Ġsugg":2743,"ìĺĢ":2744,"Ġlog":2745,"Ġsuggest":2746,"Ġhours":2747,"ëĦ¤":2748,"ĠíķľêµŃ":2749,"ì»":2750,"asing":2751,"Ġsimple":2752,"Ġgovernment":2753,"On":2754,"Ġfeatures":2755,"Ġdoesn":2756,"Ġstarted":2757,"Ġrespect":2758,"ony":2759,"Ġcomput":2760,"ledge":2761,"Ġfre":2762,"Ġauthor":2763,"Ġsearch":2764,"Ġê²ĥìľ¼ë¡ľ":2765,"Ġcond":2766,"Ġissue":2767,"Ġsignificant":2768,"Ġtalk":2769,"Ġdidn":2770,"ê²°":2771,"Ġmil":2772,"Ġmen":2773,"icro":2774,"ì§Ī":2775,"Ġcut":2776,"Ġmess":2777,"ners":2778,"atural":2779,"Ġbar":2780,"iple":2781,"Ġstory":2782,"();":2783,"Ġworks":2784,"Ġpotential":2785,"Ġbegin":2786,"Ġearly":2787,"Ġê²Į":2788,"Ġenvironment":2789,"Ġjud":2790,"Ġexist":2791,"bb":2792,"ogn":2793,"Ġindustry":2794,"Ġtable":2795,"íĻĺ":2796,"ĠëĬ":2797,"Ġcode":2798,"angu":2799,"ables":2800,"Ġdr":2801,"Ġëĭ¨":2802,"clus":2803,"Ġíķł":2804,"Ġevidence":2805,"ĠOne":2806,"reg":2807,"ication":2808,"EC":2809,"ole":2810,"Ġissues":2811,",\\":2812,"Ġlo":2813,"Ġdiff":2814,"Ġcompanies":2815,"Ġnecess":2816,"book":2817,"Ġdig":2818,"Ġbed":2819,"Ġstore":2820,"Ġ</":2821,"Ġbuilding":2822,"resh":2823,"Ġoffers":2824,"How":2825,"ëĬĶëį°":2826,"Ġvarious":2827,"Ġë°Ŀ":2828,"ĠInst":2829,"Ġpress":2830,"Ġpie":2831,"Ġdem":2832,"oll":2833,"Ġobs":2834,"ĠIntern":2835,"ster":2836,"ëĶĶ":2837,"ëĳĲ":2838,"íĭ°":2839,"Ġsent":2840,"Ġwalk":2841,"Ġupd":2842,"ians":2843,"ĠDo":2844,"Ġ--":2845,"Ġrelations":2846,"ĠTra":2847,"acy":2848,"Ġprovided":2849,"Ġassoci":2850,"ĠCourt":2851,"Ġcred":2852,"Ġëĵ¤":2853,"ttp":2854,"action":2855,"ĠEn":2856,"Ġcoun":2857,"Ġey":2858,"itle":2859,"Ġtook":2860,"eta":2861,"eal":2862,"Ġdepend":2863,"Ġapplication":2864,"gs":2865,"Ġcirc":2866,"Ġyoung":2867,"ips":2868,"Ġ2017":2869,"Ġthought":2870,"ancial":2871,"Ġfinal":2872,"Ġimprove":2873,"Ġcamp":2874,"ĠStates":2875,"imate":2876,"Ġë¹":2877,"Ġvideo":2878,"ë¦½":2879,"Ġprivate":2880,"ëĭ¤ê³ł":2881,"There":2882,"íļ":2883,"Ġagree":2884,"Ġyet":2885,"Ġcame":2886,"Ġì°¸":2887,"Ġtrial":2888,"ators":2889,"Ġfriends":2890,"Ġsound":2891,"arr":2892,"ì½Ķ":2893,"ted":2894,"Ġheart":2895,"Ġage":2896,"Ġwon":2897,"Ġemail":2898,"fig":2899,"ĠAmerican":2900,"fully":2901,"Ġcolor":2902,"Ġìŀĳ":2903,"Ġstay":2904,"now":2905,"Ġdou":2906,"ìĻ¸":2907,"Ġhowever":2908,"´ë©":2909,"Ġdefend":2910,"Ġperformance":2911,"Ġthird":2912,"Ġtraining":2913,"AM":2914,"Ġlab":2915,"ĠCount":2916,"unch":2917,"Ġestab":2918,"Ġdam":2919,"Ġeverything":2920,"ga":2921,"ĠServ":2922,"ĠMed":2923,"gr":2924,"da":2925,"fort":2926,"pecially":2927,"Ġpict":2928,"Ġabs":2929,"Ġbeautiful":2930,"ĠëĤ¨":2931,"icated":2932,"Ġposition":2933,"].":2934,"Ġamong":2935,"pha":2936,"Ġ40":2937,"Ġsat":2938,"Ġmanagement":2939,"Ġcard":2940,"ĠCont":2941,"Ġquestions":2942,"Ġhuman":2943,"Ġgeneral":2944,"Ġbrand":2945,"Ġjo":2946,"go":2947,"Ġcustomers":2948,"uation":2949,"35":2950,"Ġweb":2951,"Ġtechnology":2952,"Ġmillion":2953,"Ġparent":2954,"sy":2955,"obal":2956,"Ġwhole":2957,"irt":2958,"ief":2959,"cle":2960,"ibr":2961,"Ġseen":2962,"28":2963,"ë²Ħ":2964,"Ġcult":2965,"Ġblog":2966,"ê»ĺ":2967,"ET":2968,"br":2969,"27":2970,"'ll":2971,"íĮĲ":2972,"Ġuser":2973,"used":2974,"illed":2975,"ux":2976,"ength":2977,"Ġhappen":2978,"ysis":2979,"Ġprevious":2980,"Ġsubject":2981,"21":2982,"ëĵł":2983,"ìĺ¨":2984,"ires":2985,"ison":2986,"Ġeconom":2987,"Ġclear":2988,"Ġpub":2989,"ĠíĶĦ":2990,"ights":2991,"Ġobt":2992,"Ġexc":2993,"********":2994,"Ġunique":2995,"Ġwond":2996,"Ġ2019":2997,"Ġmanag":2998,"Ġparticip":2999,"Ġcharacter":3000,"ì¼":3001,"OU":3002,"Ġfive":3003,"íĤ¤":3004,"af":3005,"alse":3006,"Ġprint":3007,"hers":3008,"Ġprofessional":3009,"ĠAfter":3010,"Ġversion":3011,"ĠWor":3012,"Ġtaking":3013,"ĠíĮĲ":3014,"Ġsimilar":3015,"Ġareas":3016,"def":3017,"ĠComp":3018,"Ġsays":3019,"Ġnear":3020,"Ġplease":3021,"hib":3022,"Ġê³¼":3023,"\\[":3024,"ĠPr":3025,"ë°ķ":3026,"Ġtreatment":3027,"Ġìļ´":3028,"Ġterms":3029,"Ġtravel":3030,"time":3031,"gest":3032,"iate":3033,"gra":3034,"ĠChe":3035,"ĠíĨµíķ´":3036,"icult":3037,"ĠEuro":3038,"Ġbase":3039,"ĠíĮĮ":3040,"Ġidea":3041,"Ġste":3042,"ĠSte":3043,"Ġentire":3044,"Ġcontract":3045,"onse":3046,"Ġstrateg":3047,"Ġpain":3048,"astic":3049,"ĢìĿ´":3050,"Ġcrit":3051,"Ġcra":3052,"ĠìĪ":3053,"Ġdistrib":3054,"26":3055,"omes":3056,"Ġsystems":3057,"ober":3058,"Ġflow":3059,"Ġpercent":3060,"olution":3061,"Ġear":3062,"ë£¨":3063,"Ġach":3064,"45":3065,"íĿ":3066,"Ġtrack":3067,"Ġupon":3068,"Ġseries":3069,"ĠJohn":3070,"Ġrad":3071,"Ġsell":3072,"Ġpaper":3073,"IL":3074,"Ġëĭ¬":3075,"Ġwent":3076,"Ġ...":3077,"Ġë¨":3078,"urch":3079,"Ġhost":3080,"atter":3081,"ĠCity":3082,"Ġhope":3083,"Ġfront":3084,"ĠìļĶ":3085,"ided":3086,"Ġneeded":3087,"Ġregard":3088,"ites":3089,"Ġred":3090,"ises":3091,"Ġhistory":3092,"ëįĶ":3093,"],":3094,"ops":3095,"ging":3096,"Ġwomen":3097,"ival":3098,"hing":3099,"lege":3100,"ground":3101,"reet":3102,"Ġaud":3103,"êµ°":3104,"head":3105,"Ġmatter":3106,"rodu":3107,"ands":3108,"Ġsoftware":3109,"ìĥ":3110,"33":3111,"empt":3112,"Ġbelieve":3113,"Ġsimply":3114,"íĶ¼":3115,"ëĵ±":3116,"Ġneg":3117,"Ġansw":3118,"ë²Ī":3119,"Ġnorm":3120,"Ġtotal":3121,"Ġliving":3122,"lex":3123,"ĠDes":3124,"itch":3125,"75":3126,"key":3127,"29":3128,"Ġsomeone":3129,"imum":3130,"org":3131,"Ġstyle":3132,"Ġdefin":3133,"ĠNe":3134,"Ġassist":3135,"bl":3136,"ìĿ´ëĿ¼ê³ł":3137,"OT":3138,"Ġ2016":3139,"reme":3140,"ules":3141,"imal":3142,"ĠGu":3143,"Ġ>":3144,"Ġfavor":3145,"Ġadded":3146,"Ġoptions":3147,"obile":3148,"Ġchanges":3149,"Ġì¢ĭ":3150,"Ġexperien":3151,"Ġrate":3152,"aving":3153,"ensive":3154,"iol":3155,"rew":3156,"Ġsection":3157,"Ġdownload":3158,"Ġì§ģ":3159,"ufact":3160,"oved":3161,"Ã©":3162,"Ġdeb":3163,"sec":3164,"Ġmedia":3165,"iable":3166,"Ġevents":3167,"ection":3168,"Ġíĸī":3169,"add":3170,"Ġdescrib":3171,"mp":3172,"Ġcannot":3173,"oon":3174,"my":3175,"íĥĿ":3176,"ìľ¡":3177,"Ġhigher":3178,"iction":3179,"Ġtaken":3180,"Ġquite":3181,"Ġíıī":3182,"Ġlay":3183,"±Ħ":3184,"Ġparty":3185,"ĠSec":3186,"come":3187,"Ġìĸ´":3188,"ëĵ¤ìĿĺ":3189,"ĠíĶ¼":3190,"ĠTH":3191,"Ġface":3192,"When":3193,"gment":3194,"Ġmach":3195,"Ġden":3196,"Ġpoints":3197,"Ġë¬¼":3198,"ëĲĲ":3199,"fl":3200,"Ġcases":3201,"Ġdesigned":3202,"Ġoffice":3203,"Ġmor":3204,"Ġê²½ìļ°":3205,"Ġheld":3206,"Ġ198":3207,"íķŃ":3208,"ĠMe":3209,"Ġpan":3210,"Ġprior":3211,"íĸ¥":3212,"ball":3213,"Ġextra":3214,"Ġmass":3215,"Ġwriting":3216,"Ġë°Ŀíĺ":3217,"selves":3218,"ĠìĹŃ":3219,"Ġcreated":3220,"mathcal":3221,"irl":3222,"Ġespecially":3223,"mit":3224,"ension":3225,"aur":3226,"Ġdifficult":3227,"ìĬ¹":3228,"ĠìĤ¬ëŀĮ":3229,"wh":3230,"Ġì¹´":3231,"Ġwide":3232,"Ġrather":3233,"ees":3234,"Ġaccept":3235,"ëī´ìĬ¤":3236,"Ġrisk":3237,"Ġincludes":3238,"Ġstandard":3239,"Ġoption":3240,"Ġknowledge":3241,"ìħĺ":3242,"Ġfall":3243,"Ġnatural":3244,"ĠëĪ":3245,"Ġdate":3246,"Ġhalf":3247,"ung":3248,"atory":3249,"ì±ħ":3250,"OM":3251,"Category":3252,")/":3253,"Ġdeg":3254,"Ġproblems":3255,"íķ¨":3256,"Ġstaff":3257,"Ġpath":3258,"Ġrelationship":3259,"Ġincrease":3260,"Ġengine":3261,"Ġmiss":3262,"aching":3263,"Ġnetwork":3264,"Ġanything":3265,"Ġinfl":3266,"Ġlikely":3267,"Ġalmost":3268,"anguage":3269,"Ġeffort":3270,"Ġimage":3271,"Al":3272,"ourn":3273,"Ġcontrib":3274,"rec":3275,"Ġreceived":3276,"ze":3277,"Ġ21":3278,"Ġwall":3279,"Ġautom":3280,"Ġblack":3281,"ĠEurope":3282,"Ġsum":3283,"):":3284,"Ġinj":3285,"Ġrole":3286,"´ëĵ":3287,"itten":3288,"Ġì¦Ŀ":3289,"ĠìĦľìļ¸":3290,"nding":3291,"ser":3292,"minist":3293,"Ġíķ¨":3294,"Ġchoose":3295,"Ġë¬´ëĭ¨":3296,"anced":3297,"Ġetc":3298,"ref":3299,"ë³µ":3300,"¤Ħ":3301,"Ġadditional":3302,"ĠMin":3303,"·¨":3304,"Ġfinancial":3305,"Ġground":3306,"cription":3307,"ĠìĹ´":3308,"ë³Ħ":3309,"ĠíķĦ":3310,"inary":3311,"Ġseem":3312,"Ġfoot":3313,"90":3314,"ams":3315,"where":3316,"Ġdom":3317,"ë§Ŀ":3318,"ëĵ¤ìĿĢ":3319,"ille":3320,"alpha":3321,"ĠSee":3322,"Ġ23":3323,"ĠìĻ¸":3324,"rown":3325,"Ġensure":3326,"kr":3327,"Ġoriginal":3328,"65":3329,"pose":3330,"ĠëķĮë¬¸":3331,"Ġoil":3332,"Ġapply":3333,"Ġì»":3334,"('":3335,"ĠìŀĪìĬµëĭĪëĭ¤":3336,"Ġë¦":3337,"íİ¸":3338,"ĠNot":3339,"indows":3340,"Ġveh":3341,"Ġcook":3342,"Ġtarget":3343,"Ġ[@":3344,"Ġshows":3345,"Ġshall":3346,"verage":3347,"Ġimpact":3348,"ĠYour":3349,"ĠAust":3350,"Ġful":3351,"Ġ28":3352,"ried":3353,"ĠNational":3354,"Ġtrying":3355,"plement":3356,"nov":3357,"itc":3358,"Ġdetails":3359,"____":3360,"itting":3361,"Ġstra":3362,"Ġconditions":3363,"Ġ2015":3364,"bf":3365,"ession":3366,"ĠSouth":3367,"Ġcause":3368,"íĻ©":3369,"Ġfeature":3370,"iation":3371,"Ġwhite":3372,"erc":3373,"OS":3374,"}(":3375,"ĠìĥĪ":3376,"ë¶ģ":3377,"iter":3378,"Ġì´Ŀ":3379,"Ġways":3380,"ĠíĪ¬":3381,"rt":3382,"Ġsource":3383,"Ġut":3384,"Ġbox":3385,"ION":3386,"ĠíķĺëĬĶ":3387,"So":3388,"And":3389,"EL":3390,"íķ©ëĭĪëĭ¤":3391,"Ġrecogn":3392,"ĠAct":3393,"áĦ":3394,"But":3395,"Ġmultiple":3396,"ì¹´ì§Ģëħ¸":3397,"ports":3398,"Ġ_":3399,"Ġeveryone":3400,"Ġgames":3401,"Ġloss":3402,")\\":3403,"´ë©´":3404,"atform":3405,"¸Ķ":3406,"ety":3407,"ivity":3408,"Ġcomfort":3409,"lt":3410,"overed":3411,"ë°°íı¬":3412,"Ġíķ©":3413,"AP":3414,"Ġsepar":3415,"Ġinde":3416,"ĠBy":3417,"Ġyourself":3418,"Ġ!":3419,"ĠëĳĲ":3420,"ì¦Ī":3421,"Ġâĸ":3422,"Ġapproach":3423,"Ġdecision":3424,"ĠBo":3425,"ĠSchool":3426,"Ġprim":3427,"ëĭ´":3428,"ĠInc":3429,"Ġê°ĢëĬ¥":3430,"Ġê±´":3431,"roups":3432,"Ġlearning":3433,"rences":3434,"Ġvia":3435,"ë¥ĺ":3436,"ĠJan":3437,"ëŀĢ":3438,"Ġíĺ¸":3439,"ological":3440,"Ġlower":3441,"Ġregular":3442,"ĠNorth":3443,"Ġfit":3444,"Ġconsum":3445,"Ġsecurity":3446,"aced":3447,"Ġrelated":3448,"Ġgen":3449,"ĠCor":3450,"oogle":3451,"ĠMr":3452,"izing":3453,"Ġpopular":3454,"ĠíĿ":3455,"ditional":3456,"Ġforward":3457,"oper":3458,"ĠìķĦëĭĪ":3459,"Ġclick":3460,"ĠYork":3461,"aintiff":3462,"oud":3463,"Ġcontinue":3464,"Ġsolution":3465,"Ġcustomer":3466,"Ġsoon":3467,"Ġinsurance":3468,"Ġmax":3469,"Ġincluded":3470,"cont":3471,"Ġerror":3472,"Ġfram":3473,"Ġoutside":3474,"Ġprobably":3475,"Ġroad":3476,"ë¨":3477,"uild":3478,"Ġinside":3479,"ĠQu":3480,"Ġopportunity":3481,"bar":3482,"Ġtru":3483,"ĠëĮĢíķ´":3484,"Ġsens":3485,"ĠDr":3486,"lement":3487,"ìĽĮ":3488,"Ġfire":3489,"Ġì½Ķ":3490,"Ġlocated":3491,"Ġbad":3492,"Ġreceive":3493,"Ġtakes":3494,"ties":3495,"Ġaccording":3496,"uted":3497,"Ġìļ°ë¦¬":3498,"Ġideas":3499,"Ġcy":3500,"umn":3501,"ĠëĨĴ":3502,"Ġmember":3503,"ĠìĤ¬ìļ©":3504,"idth":3505,"ĠAg":3506,"ming":3507,"Ġsix":3508,"Ġíķľëĭ¤":3509,"Ġexact":3510,"etimes":3511,"ĠìłĲ":3512,"ache":3513,"ĠíĻľ":3514,"44":3515,"ì°°":3516,"Name":3517,"Ġeffic":3518,"olid":3519,"Ġintrodu":3520,"Ġcollect":3521,"Ġmanufact":3522,"Ġthroughout":3523,"elta":3524,"Ġclients":3525,"ey":3526,"Ġwatch":3527,"Ġ`":3528,"Ġusually":3529,"Ġusers":3530,"Ġrunning":3531,"era":3532,"col":3533,"Ġsafe":3534,"pper":3535,"ĠDep":3536,"Ġë°ķ":3537,"Ġpret":3538,"clude":3539,"ĠPart":3540,"ĠCounty":3541,"pri":3542,"Ġê²Ģ":3543,"ë¹ĦìĬ¤":3544,"Ġanalysis":3545,"Ġnecessary":3546,"ìĨ¡":3547,"Ġphone":3548,"Ġnews":3549,"With":3550,"ì§ĳ":3551,"ì¡±":3552,"Com":3553,"ë¦Ħ":3554,"ĠGl":3555,"Ġtold":3556,"íķĺìĹ¬":3557,"ĠíĹ":3558,"Ġpolit":3559,"Ġago":3560,"ìĸ¸":3561,"Ġpractice":3562,"ëª©":3563,"istic":3564,"Ġgrowth":3565,"ĠPark":3566,"Ġë¦¬":3567,"aily":3568,"íħĶ":3569,"ë¸Į":3570,"Ġactivities":3571,"Ġpolicy":3572,"isc":3573,"Ġitems":3574,"38":3575,"Ġpric":3576,"Ġëª»":3577,"enc":3578,"off":3579,"ĠSu":3580,"Ġ26":3581,"ĠPe":3582,"Ġaffect":3583,"erved":3584,"Ġwords":3585,"Ġeducation":3586,"Ġlonger":3587,"´ëĿ¼":3588,"Ġbott":3589,"Ġê¸Īì§Ģ":3590,"Ġ27":3591,"Ġver":3592,"oph":3593,"pm":3594,"íļį":3595,"Ġprep":3596,"Ġ2014":3597,"Ġwanted":3598,"Ġfast":3599,"ĠìĹħ":3600,"ached":3601,"elt":3602,"Ġpark":3603,"ĠWorld":3604,"div":3605,"ĠHis":3606,"ĠíķĻ":3607,"Ġdisplay":3608,"ari":3609,"airs":3610,"Ġproduction":3611,"Ġamaz":3612,"Ġì§ĳ":3613,"ĠSm":3614,"Ġfamil":3615,"ê´ĳ":3616,"Ġfix":3617,"label":3618,"AD":3619,"Ġple":3620,"ipment":3621,"ĠApr":3622,"icense":3623,"Ġbuilt":3624,"umb":3625,"Ġpred":3626,"Ġdiv":3627,"Ġill":3628,"ìĺĪ":3629,"Ġpositive":3630,"data":3631,"Ġlat":3632,"uge":3633,"aging":3634,"Ġcoming":3635,"ceed":3636,"ouch":3637,"Ġcurrently":3638,"Ġcondition":3639,"apt":3640,"type":3641,"Ġê²ĥìĿ´":3642,"Ġmedical":3643,"osing":3644,"ĠGe":3645,"36":3646,"Ġ22":3647,"LE":3648,"Ġpers":3649,"Ġeffective":3650,"34":3651,"ĠíĻĶ":3652,"oring":3653,"Ġallows":3654,"Ġlevels":3655,"Ġ60":3656,"ambda":3657,"nds":3658,"ht":3659,"Type":3660,"pi":3661,"Ġimplement":3662,"Ġskin":3663,"íķĺì§Ģ":3664,"based":3665,"itchen":3666,"Ġcorrect":3667,"ĠReg":3668,"ĠGra":3669,"ĠMc":3670,"Ġwonder":3671,"ĠIN":3672,"ĠSupp":3673,"Ġsubst":3674,"Ġattend":3675,"Ġofficial":3676,"Ġconduct":3677,"Ġì²Ń":3678,"Ġisn":3679,"Ġsales":3680,"ĠJust":3681,"Ġdocument":3682,"Ġ$$\\":3683,"Ġìķŀ":3684,"Ġconcern":3685,"www":3686,"Ġeasily":3687,"Ġweight":3688,"Ġappl":3689,"Ph":3690,"Ġë³Ģ":3691,"95":3692,"Ġë°ĿíĺĶëĭ¤":3693,"Ġëªħ":3694,"Ġready":3695,"idered":3696,"oman":3697,"Ġimm":3698,"ëĭĺ":3699,"Ġmix":3700,"oura":3701,"Ġsett":3702,"ĠPer":3703,"Ġsche":3704,"Ġsam":3705,"Ġë³¸":3706,"ext":3707,"ĠAm":3708,"Ġì´Ī":3709,"Ġsle":3710,"ëŁ¼":3711,"ëŀĳ":3712,"íķĺëĭ¤":3713,"atur":3714,"Ġrecent":3715,"78":3716,"Ġchoice":3717,"Ġlocation":3718,"amma":3719,"ude":3720,"erve":3721,"Is":3722,"Ġemb":3723,"^{\\":3724,"ĠTw":3725,"Ġexec":3726,"\".":3727,"td":3728,"Ġder":3729,"Ġdest":3730,"ìĶ¨":3731,"ese":3732,"Ġinstead":3733,"Ġvalues":3734,"Ġleave":3735,"wise":3736,"ada":3737,"ìľ¼ë©°":3738,"Ġcomplex":3739,"Ġseems":3740,"ana":3741,"Id":3742,"ĠSome":3743,"Ġbi":3744,"igation":3745,"Sh":3746,"oes":3747,"Ġwrite":3748,"rel":3749,"Ġìĸĳ":3750,"Ġstop":3751,"Ġbal":3752,"Ġpretty":3753,"Ġdep":3754,"Ġnice":3755,"Ġviol":3756,"ING":3757,"isf":3758,"Ġmoment":3759,"Ġskills":3760,"sequ":3761,"like":3762,"ĠìĥĿê°ģ":3763,"Ġprevent":3764,"Ġë¬¸ìłľ":3765,"Ġfig":3766,"ĠWill":3767,"Ġdrive":3768,"hold":3769,"íİĺ":3770,"Ġbehind":3771,"ĠBar":3772,"Ġasked":3773,"Ġtypes":3774,"Ġwood":3775,"na":3776,"ë¦¬ê³ł":3777,"span":3778,"ĠInt":3779,"su":3780,"Ġweeks":3781,"Ġnothing":3782,"Ġ%":3783,"Ġinitial":3784,"ĠAN":3785,"Ġmatch":3786,"ĠThen":3787,"ìĤ":3788,"unction":3789,"just":3790,"Ġarticle":3791,"EM":3792,"ê°Ŀ":3793,"$$":3794,"Ġdeath":3795,"48":3796,"Ġinvolved":3797,"ì¡Į":3798,"Ġprojects":3799,"ì´Ī":3800,"Ġsqu":3801,"Ġdise":3802,"angle":3803,"Ġíķ¨ê»ĺ":3804,"ags":3805,"Ġinsp":3806,"word":3807,"Ġwritten":3808,"Ġê´Ģëł¨":3809,"Ġfilm":3810,"Res":3811,"Ġscreen":3812,"pre":3813,"íĪ¬":3814,"Ġcopy":3815,"mitted":3816,"77":3817,"ìĹĲëıĦ":3818,"Ġcam":3819,"ĠëĤ´ë":3820,"ĠStud":3821,"ĠìĤ°":3822,"Ġvariety":3823,"100":3824,"orage":3825,"Ġgroups":3826,"íĺĳ":3827,"Ġkids":3828,"ê·ľ":3829,"Ġitself":3830,"55":3831,"Ġdraw":3832,"Ġtown":3833,"Ġcross":3834,"App":3835,"etic":3836,"roid":3837,"iddle":3838,"ãĤ":3839,"Ġhappy":3840,"ĠMark":3841,"icles":3842,"Ġ)":3843,"import":3844,"uary":3845,"box":3846,"Ġability":3847,"itation":3848,"ëĿ¼ê³ł":3849,"Ġconsist":3850,"iring":3851,"Ġconsidered":3852,"ĠJu":3853,"Ġcredit":3854,"Ġcompon":3855,"Ġrights":3856,"Ġreading":3857,"Ġresponse":3858,"ìĹĲìĦľëĬĶ":3859,"All":3860,"Ġworth":3861,"Ġ==":3862,"Ġê°ģ":3863,"Ġlanguage":3864,"Ġë§ĲíĸĪëĭ¤":3865,"ìŀĲëĬĶ":3866,"Ġ2013":3867,"resp":3868,"year":3869,"ìĿ´ëĤĺ":3870,"ĠPar":3871,"inter":3872,"39":3873,"Ġcosts":3874,"Ġround":3875,"Ġhon":3876,"ĠPres":3877,"iles":3878,"ĠApril":3879,"Ġtour":3880,"Ġworked":3881,"ìŀ¥ìĿĢ":3882,"mark":3883,"Ġëģ":3884,"ĠAf":3885,"Ġdevice":3886,"Ġë§ŀ":3887,"Ġboard":3888,"mission":3889,"Ġannoun":3890,"Ġexcell":3891,"Ġì²ĺ":3892,"ĠWhile":3893,"Ġpropos":3894,"ëĥ":3895,"class":3896,"Ġparam":3897,"chan":3898,"Ġcomputer":3899,"ĠOct":3900,"Ġë¯¸êµŃ":3901,"ĠMarch":3902,"ì¸ł":3903,"ìľ¨":3904,"ê¸°ë¥¼":3905,"Ġspeak":3906,"des":3907,"bor":3908,"Ġchalleng":3909,"ĠBra":3910,"Ġdriv":3911,"ĠVal":3912,"ressed":3913,"IG":3914,"icate":3915,"Ġpet":3916,"ĠìĿ´ë²":3917,"../":3918,"},":3919,"ests":3920,"Cont":3921,"Ġrecently":3922,"ëŁ°":3923,"Ġcool":3924,"Ġshown":3925,"ë³ĳ":3926,"order":3927,"earch":3928,"Ġfloor":3929,"Ġdirectly":3930,"ëĲĺëĬĶ":3931,"aches":3932,"Ġanyone":3933,"ĠìĿ´ìĥģ":3934,"ror":3935,"\")":3936,"string":3937,"Ġmodern":3938,"ederal":3939,"ĠNow":3940,"Ġur":3941,"Ġblock":3942,"Ġgives":3943,"igma":3944,"US":3945,"mat":3946,"Ġquickly":3947,"isions":3948,"íĨµëł¹":3949,"Ġlooks":3950,"Ġfeed":3951,"mu":3952,"ĠFin":3953,"ĠëĮĢíĳľ":3954,"Ŀ½":3955,"Ġproviding":3956,"Ġëª©":3957,"aves":3958,"Ġimmed":3959,"Ġsense":3960,"ĠëĶĶ":3961,"Ġ29":3962,"Ġtrust":3963,"ì¶ķ":3964,"ĠEd":3965,"irth":3966,"ĠIm":3967,"lier":3968,"Ġactivity":3969,"ĠìŀĦ":3970,"Ġsaf":3971,"ĠëĲľ":3972,"ë§Ĳ":3973,"Ġavoid":3974,"ĠGener":3975,"Ġexpected":3976,"Ġcouple":3977,"Ġheav":3978,"Ġìŀĺ":3979,"Ġplatform":3980,"light":3981,"ë¦¼":3982,"adem":3983,"37":3984,"Ġsong":3985,"Ġbenefits":3986,"Ġparts":3987,"05":3988,"ĠHigh":3989,"Ġì¢ħ":3990,"Ġlegal":3991,"Ġbank":3992,"68":3993,"Tr":3994,"Ġë¡":3995,"ë³´ëĭ¤":3996,"Ġ2012":3997,"vant":3998,"Ġdeep":3999,"Ġmarketing":4000,"ript":4001,"Ġaverage":4002,"Ġamazing":4003,"ĠíĻĺ":4004,"Ġsil":4005,"Ġid":4006,"ĠìľĦíķľ":4007,"ales":4008,"Ġsun":4009,"Ġdefendant":4010,"ĠMore":4011,"reng":4012,"ë¦¬ëĬĶ":4013,"Ġprograms":4014,"ë¹":4015,"ìłĪ":4016,"Ġmaterials":4017,"Ġê°Ħ":4018,"amed":4019,"Ġarch":4020,"ening":4021,"ëıĦë¡Ŀ":4022,"ĠCenter":4023,"IM":4024,"Ġbooks":4025,"Ġload":4026,"Ġpurchase":4027,"Ġinternational":4028,"Ġê°ĻìĿĢ":4029,"Ġswe":4030,"uration":4031,"Ġones":4032,"Ġstri":4033,"Ġspeed":4034,"=\\":4035,"Ġ\\[":4036,"Ġsave":4037,"ĠPol":4038,"ĠíĸĪëĭ¤":4039,"Ġleading":4040,"ëĲľëĭ¤":4041,"Ġassociated":4042,"Ġëį°":4043,"´ëĵľ":4044,"ridge":4045,"Ġë²ķ":4046,"imately":4047,"Ġ{\\":4048,"ĠTV":4049,"Ġanswer":4050,"Ġextend":4051,"Ġcand":4052,"this":4053,"rs":4054,"Ġgoal":4055,"ĠAustral":4056,"Ġë¯¼":4057,"ê¹Ģ":4058,"cast":4059,"ĠPa":4060,"asons":4061,"Ġglobal":4062,"_\\":4063,"ĠAcc":4064,"ĠHere":4065,"ĠWest":4066,"Ġfrequ":4067,"hood":4068,"Ġbehav":4069,"Ġdru":4070,"ellow":4071,"ĠëĶ°ëĿ¼":4072,"opt":4073,"ë³Ģ":4074,"Ġattempt":4075,"cript":4076,"OL":4077,"Ġhighly":4078,"Ġessential":4079,"Ġep":4080,"Ġtemper":4081,"itution":4082,"Ġmeasure":4083,"CC":4084,"Ġëĵľ":4085,"////":4086,"Ġqual":4087,"Ġìĭ¬":4088,"String":4089,"ev":4090,"Ġcollection":4091,"bit":4092,"ì£":4093,"equ":4094,"ìµľ":4095,"mod":4096,"aged":4097,"ils":4098,"ëĿ½":4099,"Ġlives":4100,"ê¸Ģ":4101,"Ġsolutions":4102,"Ġleaders":4103,"íħĮ":4104,"66":4105,"Ġcenter":4106,"Ġëī´":4107,"Ġcele":4108,"hern":4109,"ĠAut":4110,"oke":4111,"ĠAb":4112,"miss":4113,"Ġassess":4114,"mas":4115,"ĠJune":4116,"ä¸":4117,"ager":4118,"ĠOff":4119,"board":4120,"Ġclient":4121,"ĠDist":4122,"ĠSept":4123,"Ġlate":4124,"Ġreplace":4125,"Ġdoor":4126,"Ġeval":4127,"íĶĮ":4128,"Ġstudent":4129,"Ġlatest":4130,"UL":4131,"II":4132,"My":4133,"Un":4134,"Ġregion":4135,"field":4136,"PS":4137,"see":4138,"Ġequipment":4139,"Ġstructure":4140,"Ġeffects":4141,"ĠArt":4142,"88":4143,"sq":4144,"Ġstates":4145,"Ġbasis":4146,"´ë³":4147,"ĠAug":4148,"Ġmention":4149,"Ġmeeting":4150,"Ġoccur":4151,"Ġproced":4152,"Ġtools":4153,"ha":4154,"uments":4155,"Our":4156,"Ġenter":4157,"Ġnational":4158,"ĠEl":4159,"Ġsatisf":4160,"Ġplant":4161,"Ġge":4162,"artment":4163,"ocal":4164,"ĠìĹĲ":4165,"Ġplayers":4166,"ë§ĮìĽĲ":4167,"ê²¬":4168,"íıī":4169,"ĠDon":4170,"ĠSw":4171,"Val":4172,"AB":4173,"ĠRep":4174,"sum":4175,"ications":4176,"Ġcas":4177,"Ġvoid":4178,"ĠFrom":4179,"Ġadminist":4180,"Ġìłķë¶Ģ":4181,"ëĿ¼ìĿ¸":4182,"Ġphysical":4183,"Ġexpert":4184,"ìľĦìĽĲ":4185,"Ġíģ¬":4186,"Ġsaw":4187,"ì½":4188,"Ġlimited":4189,"pped":4190,"Ġsn":4191,"irit":4192,"ĠSoc":4193,"ê²ĥ":4194,"illing":4195,"OD":4196,"At":4197,"Ġfactors":4198,"Ġì§Ħíĸī":4199,"ĠÐ":4200,"ìł¸":4201,"31":4202,"Ġì§ĢìĹŃ":4203,"oe":4204,"Ġìķ½":4205,"Ġimages":4206,"Ġpattern":4207,"Ġregist":4208,"Ġsuit":4209,"Ġsummer":4210,"Ġsale":4211,"ì¶Ķ":4212,"Ġpurpose":4213,"Łģ":4214,"Ġball":4215,"Ġmessage":4216,"pendent":4217,"ĠSystem":4218,"Ġdemon":4219,"uses":4220,"Ġcommit":4221,"Ġnormal":4222,"izes":4223,"Ġdeveloped":4224,"ĠëĴ":4225,"ĠìĤ¬ìĹħ":4226,"List":4227,"Ġbath":4228,"Ġsubs":4229,"vey":4230,"ĠUK":4231,"Ġanaly":4232,"umber":4233,"ĠPre":4234,"Ġresources":4235,"Ġrelease":4236,"Ġattack":4237,"ishing":4238,"Ġaw":4239,"><":4240,"Ġbecame":4241,"Col":4242,"Ġsafety":4243,"atives":4244,"eters":4245,".)":4246,"Ġìĸ´ëĸ":4247,"Ġthemselves":4248,"04":4249,"Ġslow":4250,"Ġdifference":4251,"Ġappropri":4252,"ttps":4253,"Ġfully":4254,"Ġgiving":4255,"gy":4256,"ìĤ¬ë¥¼":4257,"erous":4258,"Ġcommer":4259,"cil":4260,"Ġblood":4261,"ham":4262,"Ġfresh":4263,"Ġcareer":4264,"ought":4265,"Ġnature":4266,"Ġchance":4267,"Ġinstru":4268,"Ġencoura":4269,"--------------------------------":4270,"Ġattention":4271,"Ġded":4272,"================":4273,"ception":4274,"ìĥī":4275,"Ġrequirements":4276,"iment":4277,"íĻľ":4278,"ero":4279,"Ġstreng":4280,"iding":4281,"itely":4282,"Ġsend":4283,"Ġdecided":4284,"ĠëĮĢíĨµëł¹":4285,"Ġmount":4286,"Ġhair":4287,"var":4288,"lim":4289,"arter":4290,"ĠRec":4291,"Ġê·ľ":4292,"Ġnote":4293,"ìĺĢëĭ¤":4294,"Ġmobile":4295,"Ġcells":4296,"ëŀľ":4297,"íķĺë©´":4298,"ĠPlease":4299,"Ġbud":4300,"^{-":4301,"Ġrev":4302,"ĠFr":4303,"ìŀ¥ìĿĦ":4304,"Ġdire":4305,"Ġstring":4306,"FF":4307,"ëĮĢë¡ľ":4308,"odes":4309,"mathbb":4310,"ecause":4311,"Ġcat":4312,"Ġfra":4313,"uk":4314,"Ġinteresting":4315,"ìŀĪ":4316,"Ġclos":4317,"Ġplans":4318,"Ġcompletely":4319,"Ġlost":4320,"Ġ2010":4321,"Ġì²´":4322,"Ġgirl":4323,"Ġcountries":4324,"aligned":4325,"Ġkitchen":4326,"fo":4327,"AG":4328,"CH":4329,"ternal":4330,"ìĬ¤íĬ¸":4331,"ibrary":4332,"ìĿµ":4333,"Ġmorning":4334,"Ġlength":4335,"ĠíķĦìļĶ":4336,"arily":4337,"ì¶ľìŀ¥":4338,"Ġinflu":4339,"Ġprec":4340,"phi":4341,"Ġtitle":4342,"Ġparents":4343,"Ġwrong":4344,"ìķĺëĭ¤":4345,"ipe":4346,"Ġì§ĢìĽĲ":4347,"Ġcontain":4348,"Ġlimit":4349,"IP":4350,"uth":4351,"Ġdat":4352,"Ġâ":4353,"ynam":4354,"UR":4355,"Ġdigital":4356,"Ġteac":4357,"Ġíĺĳ":4358,"Ġmotion":4359,"ìĸµìĽĲ":4360,"Ġremain":4361,"ky":4362,"Ġconstruction":4363,"ĠJanuary":4364,"Ġdecl":4365,"ament":4366,"rial":4367,"Ġfair":4368,"ulations":4369,"Ġmodels":4370,"Ġexcellent":4371,"Ġbegan":4372,"Ġsus":4373,"Ġì·¨":4374,"Ġaward":4375,"ĠHealth":4376,")(":4377,"49":4378,"ìŁģ":4379,"Ġimpl":4380,"CT":4381,"hest":4382,"ĠDav":4383,"Pl":4384,"Ġsurface":4385,"02":4386,"ĠÂ§":4387,"Ġdaily":4388,"rast":4389,"itute":4390,"ĠíĴ":4391,"ĠFeb":4392,"Ġfavorite":4393,"Ġformer":4394,"ëĵ¤ìĿĦ":4395,"lying":4396,"ĠAmerica":4397,"Ġachieve":4398,"Ġextreme":4399,"Ġvac":4400,"html":4401,"Ġhelps":4402,"ĠSim":4403,"Ġ2011":4404,"Ġì¤ĳêµŃ":4405,"ĠInternational":4406,"zy":4407,"Ġpiece":4408,"Ġdouble":4409,"Ar":4410,"Ġnotice":4411,"arrow":4412,"enge":4413,"aign":4414,"Ġaltern":4415,"ëıħ":4416,"į¼":4417,"Ġremember":4418,"íķ´ìķ¼":4419,"aste":4420,"Ġapplications":4421,"Ġwel":4422,"ĠìĿ´ìļ©":4423,"}_":4424,"pen":4425,"Ġreach":4426,"ĠJuly":4427,"Ġfiles":4428,"Ġrent":4429,"ë´":4430,"ĠSer":4431,"ëĦĪ":4432,"Ġrepl":4433,"Ġmag":4434,"ëĲĲëĭ¤":4435,"Ġê¸°ìĹħ":4436,"Ġroll":4437,"iam":4438,"Ġconcept":4439,"Ġserious":4440,"Ġappeal":4441,"aby":4442,"Ġìĭľìŀĳ":4443,"enty":4444,"cember":4445,"Ġfine":4446,"Ġhuge":4447,"ĠìĤ´":4448,"gram":4449,"haps":4450,"ava":4451,"Ġmachine":4452,"íķĺë©°":4453,"ography":4454,"Ġsort":4455,"Ġexerc":4456,"sub":4457,"aries":4458,"ĠAssoci":4459,"Ġspect":4460,"TM":4461,"Ġten":4462,"Ġseek":4463,"ãĥ":4464,"Ġ/*":4465,"></":4466,"âĢĿ.":4467,"formation":4468,"Ġê°Ģìŀ¥":4469,"rought":4470,"Ġhands":4471,"wood":4472,"ì§ĢëĬĶ":4473,"OP":4474,"Ġgreen":4475,"arden":4476,"Ġbound":4477,"Ġlif":4478,"ĠGoogle":4479,"Ġorganization":4480,"Ġëĭ¤ë¥¸":4481,"Ġgoes":4482,"aly":4483,"ê¸¸":4484,"Ġìłľê³µ":4485,"Ġincreased":4486,"fficient":4487,"AA":4488,"ondon":4489,"Ġtraditional":4490,"ocol":4491,"Ġsites":4492,"Ġì¹ĺ":4493,"ĠAc":4494,"ĠUs":4495,"dom":4496,"lambda":4497,"Ġemployees":4498,"ĠHouse":4499,"Ġëĵ¤ìĸ´":4500,"Ġtouch":4501,"Ġì¶©":4502,"yond":4503,"Ġ=>":4504,"Ġstock":4505,"ĠMon":4506,"lin":4507,"Ġcharge":4508,"Ġmother":4509,"uel":4510,"??":4511,"ĠEnglish":4512,"oom":4513,"state":4514,"79":4515,"Ġtowards":4516,"Ġprem":4517,"Ġcreating":4518,"ĠAfric":4519,"Ġtransfer":4520,"ĠDis":4521,"ĠSeptember":4522,"iance":4523,"Ġplanning":4524,"Ġbur":4525,"ovember":4526,"ooth":4527,"ica":4528,"ëĿ¼ëĬĶ":4529,"oration":4530,"Ġmyself":4531,"ìķ¡":4532,"Ġaware":4533,"ington":4534,"Ġê´Ģê³Ħ":4535,"olve":4536,"Ġvehicle":4537,"Ġalle":4538,"Ġdegree":4539,"Ġë¶ģ":4540,"ences":4541,"olute":4542,"BC":4543,"ĠOctober":4544,"Ġund":4545,"Ġê²ĮìŀĦ":4546,"Ġlines":4547,"ĠTHE":4548,"Ġdepart":4549,"ĠDay":4550,"Ġbroad":4551,"Ġrestaur":4552,"Ġunit":4553,"ŀĺ":4554,"ĠHer":4555,"Ġsuff":4556,"Ġcommercial":4557,"ĠFirst":4558,"ama":4559,"Ġrespond":4560,"ĠíĥĢ":4561,"ĠíĶĦë¡ľ":4562,"ĠHar":4563,"ĠCoun":4564,"Ġê²ĥìĿ´ëĭ¤":4565,"ĠDepartment":4566,"ENT":4567,"Ġaim":4568,"Ġcompared":4569,"ournal":4570,"band":4571,"Ġhor":4572,"Ġlack":4573,"raw":4574,"Ġfurn":4575,"Ġhit":4576,"Ġplaces":4577,"ospital":4578,"file":4579,"Ġsuccessful":4580,"Ġsituation":4581,"Ġplaying":4582,"Ġclin":4583,"Ġconfig":4584,"ì³":4585,"'d":4586,"Ġenh":4587,"ĠBro":4588,"Ġíİ¸":4589,"ĠìĨį":4590,"Ġdrink":4591,"Ġmethods":4592,"Ġpublished":4593,"ëĤł":4594,"Ġtherefore":4595,"Ġ35":4596,"Ġfalse":4597,"ĠRed":4598,"ades":4599,"Ġhear":4600,"ìłĦìŀ¬":4601,"ĠGerm":4602,"code":4603,"Ġuses":4604,"ł¤":4605,"Ġreported":4606,"ĠPat":4607,"Ġsold":4608,"ĠìĦľë¹ĦìĬ¤":4609,"Ġacqu":4610,"Ġgradu":4611,"69":4612,"Ġtried":4613,"BS":4614,"}_{":4615,"ĠGet":4616,"vis":4617,"ores":4618,"Ġindividuals":4619,"Ġpromot":4620,"Ġsurpr":4621,"Ġquant":4622,"Ġtele":4623,"opping":4624,"ĠSan":4625,"No":4626,"Ġstudies":4627,"IR":4628,"change":4629,"Ġinnov":4630,"Ġmechan":4631,"Ġì±Ħ":4632,"Ġwar":4633,"Ġstarting":4634,"Ġmagn":4635,"iture":4636,"Ġunderstanding":4637,"ij":4638,"ĠDirect":4639,"Ġ${\\":4640,"Ġbackground":4641,"ĠBrit":4642,"Ġreve":4643,"Ġintegr":4644,"74":4645,"Ġentry":4646,"begin":4647,"ĠìķĦìĿ´":4648,"ìĸ´ëĤ":4649,"Ġê´ĳ":4650,"ĠWar":4651,"Ġëĸ":4652,"range":4653,"Ġë¬´ëĭ¨ìłĦìŀ¬":4654,"Ġopin":4655,"Ġmicro":4656,"Ġapprox":4657,"ibly":4658,"ìĭľìĬ¤":4659,"ĠOf":4660,"Ġprinc":4661,"list":4662,"gen":4663,"log":4664,"Ġcapt":4665,"apan":4666,"Ġfactor":4667,"Ġpartners":4668,"ague":4669,"ĠIS":4670,"ĠíķĺëĤĺ":4671,"Ġìĺ¨":4672,"orks":4673,"rim":4674,"ronic":4675,"ĠAir":4676,"Ġgas":4677,"Ġcontinu":4678,"Ġcho":4679,"oles":4680,"ĠDecember":4681,"iant":4682,"ĠAugust":4683,"Ġneigh":4684,"Ġactive":4685,"Ġconvers":4686,"Ġemerg":4687,"ì¹´ëĿ¼":4688,"edding":4689,"Ġtrip":4690,"ferences":4691,"more":4692,"Ġparties":4693,"Ġdisease":4694,"bject":4695,"ìĦľìļ¸":4696,"Ġconsult":4697,"Ġuseful":4698,"Ġled":4699,"idents":4700,"Ġbirth":4701,"ĠìĨĲ":4702,"ares":4703,"Ġadvant":4704,"ìĭľê°Ħ":4705,"Ġdark":4706,"Ġdetermine":4707,"Ġinterested":4708,"Ġê²ĥìĿĢ":4709,"Ġgrant":4710,"iforn":4711,"ken":4712,"top":4713,"Ġcarry":4714,"Ġconv":4715,"ĠChar":4716,"itect":4717,"plate":4718,"Ġheat":4719,"Ġfirm":4720,"íĮħ":4721,"Ġincreasing":4722,"Ġphotos":4723,"PR":4724,"Ġsometimes":4725,"lation":4726,"gl":4727,"Ġgold":4728,"Ġpressure":4729,"Ġplaintiff":4730,"ëłĪìĿ´":4731,"comp":4732,"One":4733,"08":4734,"ett":4735,"ì»¤":4736,"Ġconstant":4737,"}$$":4738,"ëĦ¤ìļĶ":4739,"Ġdeliver":4740,"Ġpicture":4741,"Ġexactly":4742,"Ġq":4743,"Ġmid":4744,"Ġstorage":4745,"Ġdistrict":4746,"ĠCons":4747,"Ġíĳľ":4748,"ho":4749,"uit":4750,"inding":4751,"Ġthinking":4752,"ìŀĲê°Ģ":4753,"Ġglass":4754,"Ġwarm":4755,"ĠìĤ¼":4756,"ĠOF":4757,"nes":4758,"Ġpaid":4759,"wide":4760,"raft":4761,"ìĤ¬ìĿ´íĬ¸":4762,"mbol":4763,"ĠìĿ´ë²Ī":4764,"Ġelements":4765,"Ġëĵ±ìĿĦ":4766,"Ġbenefit":4767,"Ġaccom":4768,"ĠìĦ¸ê³Ħ":4769,"ĠNovember":4770,"ĠIndia":4771,"ĠNet":4772,"Ġmap":4773,"Ġsetting":4774,"}^":4775,"ĠLondon":4776,"aker":4777,"arant":4778,"ĠPresident":4779,"67":4780,"Ġdemonstr":4781,"ivery":4782,"ìŀĳê¶Į":4783,"ĠTrans":4784,"down":4785,"Ġë²Ī":4786,"ë¡Ģ":4787,"199":4788,"Ġê·¼":4789,"ifornia":4790,"ĠChina":4791,"Ġpatient":4792,"Ġrates":4793,"ĠëıĮ":4794,"ĠAlso":4795,"Ġearn":4796,"pec":4797,"zz":4798,"Ġ31":4799,"ĠMich":4800,"Ġappropriate":4801,"Ġmoving":4802,"ìĦ¸ìļĶ":4803,"rapy":4804,"After":4805,"usiness":4806,"MS":4807,"By":4808,"ĠMod":4809,"Ġgave":4810,"EO":4811,"Ġstage":4812,"ë¦¬ë¥¼":4813,"respond":4814,"verse":4815,"ocks":4816,"ĠêµŃëĤ´":4817,"atively":4818,"Ġì°¾":4819,"Ġpresented":4820,"Ġíļ":4821,"ĠEm":4822,"Ġprices":4823,"itude":4824,"ª½":4825,"ìłĳ":4826,"UT":4827,"Ġhour":4828,"ek":4829,"ĠMus":4830,"Ġitem":4831,"Ġgets":4832,"Ġband":4833,"View":4834,"Ġdry":4835,"Ġpull":4836,"ancy":4837,"Ġregarding":4838,"Ð¾":4839,"Ġestablished":4840,"ĠSince":4841,"Ġhous":4842,"ĠìŀĪìĸ´":4843,"ym":4844,"\\_":4845,"asc":4846,"ĠìĿ´ìĸ´":4847,"ida":4848,"body":4849,"Ġproperties":4850,"85":4851,"Ġoffe":4852,"Ġclaims":4853,"ĠBr":4854,"annel":4855,"})":4856,"ald":4857,"rief":4858,"ĠìĿ´ëŁ":4859,"Ġwish":4860,"Ġtal":4861,"oly":4862,"Ġsequ":4863,"ëģ":4864,"enses":4865,"Ġmeaning":4866,"Ġvalid":4867,"Ġê¸Ģ":4868,"value":4869,"Ġhealthy":4870,"Ġcampaign":4871,"De":4872,"ì°½":4873,"\");":4874,"pite":4875,"ĠBlack":4876,"Ġaccur":4877,"Ġrock":4878,"Ġanim":4879,"Ġdamage":4880,"ĠService":4881,"ruary":4882,"ĠëĿ¼":4883,"Ġcorpor":4884,"Ġreleased":4885,"Ġgraph":4886,"ê¸°ìĹħ":4887,"ĠHome":4888,"Ġcelebr":4889,"03":4890,"ĠGroup":4891,"Ġord":4892,"ĠìĻĦ":4893,"using":4894,"ĠìĪľ":4895,"ê²Ģ":4896,"ê²½ìłľ":4897,"istics":4898,"ì¡´":4899,"ertain":4900,"}^{":4901,"Ġ},":4902,"ĠPC":4903,"ĠëķĮë¬¸ìĹĲ":4904,"Ġsleep":4905,"rix":4906,"ĠëĴ¤":4907,"Data":4908,"Supp":4909,"kend":4910,"ĠAP":4911,"Ġfelt":4912,"Ġbeyond":4913,"bur":4914,"ìķħ":4915,"gar":4916,"Ġpaint":4917,"ously":4918,"tee":4919,"Ġgrowing":4920,"47":4921,"Get":4922,"Ġmis":4923,"Ġbusinesses":4924,"íĿ¬":4925,"Ġexisting":4926,"Ġbasic":4927,"Ġgreater":4928,"inate":4929,"Ġstatement":4930,"Ġrequires":4931,"la":4932,"Ġaspect":4933,"het":4934,"Ġtransport":4935,"que":4936,"];":4937,"nown":4938,"Ġarriv":4939,"ĠFace":4940,"Ġëł":4941,"ë°±":4942,"inated":4943,"ĠIT":4944,"ĠAre":4945,"Ġorganiz":4946,"Ġcomment":4947,"utive":4948,"ë²Į":4949,"Ġbrought":4950,"Ġapart":4951,"iately":4952,"attle":4953,"ĠSch":4954,"Ġtick":4955,"ìĦ¼":4956,"´ëį":4957,"ĠìĿ´íĽĦ":4958,"ë¶Ī":4959,"Ġspend":4960,"Ġíķĺê³ł":4961,"Ġìĸ¸":4962,"ĠKing":4963,"ìĪľ":4964,"cell":4965,"Ġopportunities":4966,"Ġnumbers":4967,"ube":4968,"Ġadult":4969,"urrent":4970,"sych":4971,"date":4972,"Ġsumm":4973,"culate":4974,"Ġreduce":4975,"ivil":4976,"Ġri":4977,"En":4978,"ĠLa":4979,"acity":4980,"Ġì°½":4981,"Ġoverall":4982,"eq":4983,"orge":4984,"Ġgar":4985,"ëĲł":4986,"Ġhighest":4987,"point":4988,"Ġelement":4989,"ny":4990,"Ġdefinitely":4991,"Ġ2008":4992,"Ġwait":4993,"Ġë¸Į":4994,"Ġconnection":4995,"ì²ł":4996,"Ġëıħ":4997,"Ġì°¨ëŁī":4998,"Ð°":4999,"ĠLaw":5000,"sqrt":5001,"ford":5002,"unk":5003,"ville":5004,"ĠST":5005,"Ġinput":5006,"Ġwonderful":5007,"cd":5008,"Ġvict":5009,"ĠCalifornia":5010,"áħ":5011,"Ġreflect":5012,"Ġadjust":5013,"reed":5014,"ëĬĺ":5015,"Ġprofession":5016,"force":5017,"ĠBoard":5018,"ffee":5019,")*":5020,"ded":5021,"Ġ2009":5022,"char":5023,"istry":5024,"Ġwindow":5025,"Ġalthough":5026,"Ġfinding":5027,"Ġë©Ķ":5028,"ê¸°ëıĦ":5029,"Ġdefined":5030,"Ġpolitical":5031,"Ġhttp":5032,"no":5033,"Ġ?":5034,"Ġë§Įëĵ¤":5035,"Ġì¤Ħ":5036,"Ġìĭľìŀ¥":5037,"Ġserver":5038,"ying":5039,"ĠEvery":5040,"oul":5041,"ruit":5042,"Ġprote":5043,"ĠMost":5044,"Ġhistor":5045,"Ġfab":5046,"SS":5047,"hel":5048,"osis":5049,"ĠGeneral":5050,"ĠíĮĲë§¤":5051,"ĠCompany":5052,"Ġserve":5053,"Ġjudgment":5054,"size":5055,"Ġreasons":5056,"OC":5057,"Ġcoll":5058,"itary":5059,"riday":5060,"rench":5061,"Ġdevices":5062,"ê·¹":5063,"Ġallowed":5064,"Ġstress":5065,"Ġê±¸":5066,"urt":5067,"Ġcontext":5068,"Ġagreement":5069,"09":5070,"Ġrefer":5071,"{{\\":5072,"ĠFree":5073,"ĠJapan":5074,"bum":5075,"Ġlarger":5076,"ĠCommun":5077,"Ġproceed":5078,"Ðµ":5079,"itter":5080,"arc":5081,"sigma":5082,"mathbf":5083,"Ġclub":5084,"Ġbudget":5085,"Ġeyes":5086,"Ġdim":5087,"Ġinvestment":5088,"icon":5089,"Ġoffered":5090,"Ġfamilies":5091,"Ġheard":5092,"íķ´ìĦľ":5093,"Ġinvestig":5094,"ĠChristmas":5095,"Ġnull":5096,"Ġowners":5097,"http":5098,"ilon":5099,"Ġmer":5100,"Ġplayed":5101,"Ġìŀ¬ë°°íı¬":5102,"ned":5103,"Ġguide":5104,"Ġgoals":5105,"ìľµ":5106,"ìĦ±ìĿĦ":5107,"íļĮìĿĺ":5108,"reate":5109,"anc":5110,"ë°Ľ":5111,"Ġstru":5112,"ìĭľìķĦ":5113,"net":5114,"Ġprogress":5115,"Ġwasn":5116,"Ġmulti":5117,"Ġdream":5118,"Ġcontains":5119,"Ġdemand":5120,"06":5121,"Ġrules":5122,"Ġìº":5123,"NA":5124,"beta":5125,"Ġsurround":5126,"Ġfa":5127,"Ġinterview":5128,"ĠAng":5129,"07":5130,"Ġproduce":5131,"46":5132,"Ġblue":5133,"Ġrat":5134,"Ġchanged":5135,"Ġassum":5136,"overy":5137,"Ġphoto":5138,"apter":5139,"Ġult":5140,"inner":5141,"ì§Ģë¥¼":5142,"ĠFebruary":5143,"Ġë§İìĿĢ":5144,"Ġholid":5145,"Ġestablish":5146,"That":5147,"Ġthus":5148,"rupt":5149,"Ġstuff":5150,"Ġê²½ìłľ":5151,"Ġchem":5152,"ellant":5153,"with":5154,"ĠíĬ¸":5155,"aling":5156,"Ġstatus":5157,"omet":5158,"Ġcorrespond":5159,"ĠëĦĺ":5160,"bt":5161,"Ġbeginning":5162,"Ġprimary":5163,"icip":5164,"term":5165,"ulated":5166,"Ġparticularly":5167,"ê¸°ìĹĲ":5168,"Ġpayment":5169,"Ġculture":5170,"Ġimmediately":5171,"ëĨ":5172,"Ġabsolute":5173,"Ġfunctions":5174,"Be":5175,"Ġpages":5176,"Ġ45":5177,"Ġspent":5178,"Ġbottom":5179,"ĠTechn":5180,"Ġidentify":5181,"ĠId":5182,"Ġfeet":5183,"param":5184,"Ġdefault":5185,"Ġstar":5186,"ĠíĸĪ":5187,"nded":5188,"Ġcompleted":5189,"hy":5190,"ĠSund":5191,"ipped":5192,"Ġeasier":5193,"ĠìĥģíĻ©":5194,"Ġapprec":5195,"ĠTex":5196,"Ġplayer":5197,"Ġsav":5198,"ìĹĶ":5199,"Ġprefer":5200,"Ġactual":5201,"ìĿ´ê³ł":5202,"Ġëª¨ëĳĲ":5203,"aled":5204,"ĠEven":5205,"Ġpool":5206,"ipping":5207,"Ġimag":5208,"encies":5209,"-\\":5210,"undred":5211,"Ġter":5212,"urb":5213,"test":5214,"Ġson":5215,"Ġexhib":5216,"Ġexpress":5217,"Ġcertainly":5218,"Ġresponsible":5219,"ĠGreat":5220,"ĠJes":5221,"Ġnut":5222,"actions":5223,"Ġeat":5224,"Ġpolice":5225,"Ġknew":5226,"Ġappoint":5227,"Ġafford":5228,"Ġeye":5229,"Ġtrade":5230,"Ġnames":5231,"Ġthous":5232,"ëıĻì°¨":5233,"Im":5234,"Ġëĭ¤ìĸĳ":5235,"eed":5236,"Ġrelevant":5237,"eria":5238,"Ġdescribed":5239,"ĠìłķëıĦ":5240,"76":5241,"Ġê¸°ìĪł":5242,"bon":5243,"ĠìŀĲìĭł":5244,"Ġliter":5245,"Ġassert":5246,"Ġserved":5247,"orney":5248,"ula":5249,"ì§Ģê³ł":5250,"SE":5251,"print":5252,"Ġìĵ":5253,"Ġdro":5254,"Ġhotel":5255,"ensity":5256,"Ġschools":5257,"Ġchallenge":5258,"Ġcandid":5259,"42":5260,"ë¡¯":5261,"zon":5262,"iated":5263,"Ġsust":5264,"ĠìĿĮ":5265,"quest":5266,"Ġcontroll":5267,"Ġvot":5268,"Ġcancer":5269,"Ġeconomic":5270,"Ġdead":5271,"Ġfinally":5272,"ëĪ":5273,"Ġsmart":5274,"ê±°ëĤĺ":5275,"####":5276,"Ġforce":5277,"duc":5278,"Ġíģ°":5279,"Ġselection":5280,"Ġborn":5281,"ê²¨":5282,"Ġobtain":5283,"tra":5284,"Ġoffering":5285,"Ġ80":5286,"Ġfeeling":5287,"ĠWindows":5288,"oday":5289,"abase":5290,"ĠThanks":5291,"Ġvirt":5292,"Ġfollowed":5293,"iques":5294,"ĠOut":5295,"vest":5296,"Ġpoly":5297,"Ġbelie":5298,"ë¥ł":5299,"Ġsupply":5300,"Ġgift":5301,"Ġgenerally":5302,"Ġcash":5303,"Ġdog":5304,"porary":5305,"ìĹ°íķ©":5306,"Ġupdate":5307,"efore":5308,"Ġê³Ħíļį":5309,"iling":5310,"Ġê°ľë°ľ":5311,"aught":5312,"ìķł":5313,"Ġpopulation":5314,"Ġlargest":5315,"ë¸Ķ":5316,"ĠFacebook":5317,"IV":5318,"ara":5319,"Ġoutput":5320,"estern":5321,"ĠêµŃë¯¼":5322,"Ġpictures":5323,"ker":5324,"Ġincome":5325,"Ġadvice":5326,"ĠFriday":5327,"Ġlik":5328,"Ġrule":5329,"Ġemot":5330,"ì´Ŀ":5331,"Ġmoved":5332,"Ġdelivery":5333,"Ġjoin":5334,"ĠDistrict":5335,"ester":5336,"Ġëħ¼":5337,"Ġmemory":5338,"Ġflu":5339,"ĠPort":5340,"Ġstrategy":5341,"Ġtemperature":5342,"OW":5343,"Ġinternet":5344,"Ġposted":5345,"´ëĤ":5346,"ĠìĺĪìłķ":5347,"Ad":5348,"Ġing":5349,"oms":5350,"Ġthrow":5351,"house":5352,"Ġestim":5353,"Ġturned":5354,"const":5355,"ĠíĨł":5356,"Ġboy":5357,"ĠCollege":5358,"Ġguarant":5359,"Ġsteps":5360,"Ġloved":5361,"Ġble":5362,"useum":5363,"Ġstraight":5364,"Int":5365,"ëł¥ìĿĦ":5366,"Ġfat":5367,"ris":5368,"Ġprotection":5369,"ashion":5370,"Ġsurv":5371,"ĠUp":5372,"Ġfarm":5373,"Ġìłĳ":5374,"elling":5375,"Ġir":5376,"Ġdistribution":5377,"Ġremove":5378,"Ġapplied":5379,"ened":5380,"Ġalone":5381,"Ġìĭľê°Ħ":5382,"Ġwhose":5383,"lor":5384,"coming":5385,"iency":5386,"Ġíħ":5387,"ìĿ´ëĿ¼ëĬĶ":5388,"86":5389,"Ġì§Ī":5390,"Ġexperienced":5391,"ë¨¸":5392,"Ġutil":5393,"rive":5394,"ĠDesign":5395,"ĠBook":5396,"ĠìĿ¼ë³¸":5397,"Ġcritical":5398,"Ġshop":5399,"gamma":5400,"ĠWash":5401,"Ġtim":5402,"olf":5403,"¨ìĸ´":5404,"vision":5405,"Ġfight":5406,"Ġpow":5407,"ìĺ¬":5408,"ros":5409,"Ġcapital":5410,"ĠìĿĺìĽĲ":5411,"ì¹¨":5412,"')":5413,"89":5414,"Ġlots":5415,"ìŀĳê¶ĮìŀĲ":5416,"ĠServices":5417,"ĠStreet":5418,"soft":5419,"ĠëĬĺ":5420,"mathrm":5421,"ĠEuropean":5422,"Ġbutton":5423,"alt":5424,"ìĹ´":5425,"Ġ70":5426,"Ġefficient":5427,"Ġë³µ":5428,"semb":5429,"ĠIndian":5430,"ĠíķŃ":5431,"Ġtruly":5432,"atically":5433,"Ġfather":5434,"ĠInter":5435,"Ġideal":5436,"ĠëĪĦ":5437,"59":5438,"TH":5439,"Ġadvert":5440,"****************":5441,"ĠëĲł":5442,"ìĦ±ìĿ´":5443,"Ġexcept":5444,"Ġlinks":5445,"ëĵĿ":5446,"ĠAny":5447,"Ġhref":5448,"Ġearlier":5449,"clusion":5450,"Ġì¤Ģ":5451,"NS":5452,"Ġcru":5453,"500":5454,"ĠìĿ´ëĤ":5455,"ĠEast":5456,"43":5457,"ĠíĺĦìŀ¬":5458,"eps":5459,"perty":5460,"Ind":5461,"idential":5462,"Ġê²ĥìĿĦ":5463,"Ġstories":5464,"ĠWell":5465,"Ġstream":5466,"ĠOR":5467,"Ġdecre":5468,"ìŀ¥ìĿ´":5469,"Ġcollege":5470,"Ġspirit":5471,"Ġelectric":5472,"dule":5473,"but":5474,"Se":5475,"hens":5476,"Ġì¹´ì§Ģëħ¸":5477,"ë²Ķ":5478,"ĠGover":5479,"Ġstrength":5480,"Ġletter":5481,"Ġmanufacture":5482,"ìĤ¬ìĹħ":5483,"hol":5484,"ĠKe":5485,"ĠRet":5486,"ë°Ķì¹´ëĿ¼":5487,"Ġ90":5488,"Ġë¬´ë":5489,"Ġvolunt":5490,"Ġexpand":5491,"ustr":5492,"aturday":5493,"Ġperformed":5494,"Ġindic":5495,"aughter":5496,"Ġtask":5497,"ì¡Įëĭ¤":5498,"Ġdetect":5499,"ounds":5500,"ĠíĻķìĿ¸":5501,"Ġsmaller":5502,"enior":5503,"Ġbrow":5504,"íĸĪìĬµëĭĪëĭ¤":5505,"Ġdynam":5506,"ĠMany":5507,"Ġestate":5508,"iny":5509,"atever":5510,"Ġspot":5511,"Ġnearly":5512,"Ġplus":5513,"agram":5514,"Ġì±ħ":5515,"Ġê°Ģê²©":5516,"Ġselected":5517,"Ġcold":5518,"Ġthank":5519,"ervation":5520,"Ġproduced":5521,"Ġattract":5522,"include":5523,"iability":5524,"Ġinstance":5525,"rie":5526,"Ġcollab":5527,"ìĿĳ":5528,"Ġrelax":5529,"itness":5530,"Ġhundred":5531,"ĠRem":5532,"ë¥´ë©´":5533,"Ġ(-":5534,"Ġpen":5535,"Ġhearing":5536,"Ġhop":5537,"Ġdirection":5538,"Ġharm":5539,"ĠìĭĿ":5540,"Ġmill":5541,"xy":5542,"ancing":5543,"âĹ":5544,"Ġ$(":5545,"ĠGr":5546,"ĠSuper":5547,"Ġfederal":5548,"Ġindependent":5549,"inst":5550,"Ġannual":5551,"Ġgrand":5552,"Ġmaybe":5553,"TR":5554,"Ġë´":5555,"Ġlooked":5556,"ĠëĦ¤":5557,"ĠGreen":5558,"ĠRuss":5559,"Ġextremely":5560,"Ġtrain":5561,"ĠìłľíĴĪ":5562,"41":5563,"Ġcry":5564,"Ġcircum":5565,"ilde":5566,"Now":5567,"Ġmiddle":5568,"ĠëĪĪ":5569,"pective":5570,"ĠBank":5571,"ologies":5572,"CL":5573,"ĠBusiness":5574,"Ġreports":5575,"Ġ2007":5576,"ĠID":5577,"Ġcomfortable":5578,"Ġindex":5579,"Ġoutd":5580,"íĬ¹":5581,"ĠPR":5582,"Ġdecor":5583,"Ġslight":5584,"ê¸°ê°Ģ":5585,"ĠCanada":5586,"eds":5587,"ĠEach":5588,"Ġhandle":5589,"Ġincor":5590,"$-":5591,"ìĥģìĿĦ":5592,"Ġcab":5593,"sm":5594,"Ed":5595,"Ġcompar":5596,"ĠëĤł":5597,"aper":5598,"Ġchurch":5599,"íħľ":5600,"ëı¼":5601,"EX":5602,"active":5603,"ĠìĤ¬íļĮ":5604,"Ġë¡ľ":5605,"Ġhimself":5606,"ĠìĤ¬ìĭ¤":5607,"Ġìļ´ìĺģ":5608,"Not":5609,"Ġ2000":5610,"Ġshowed":5611,"ses":5612,"ĠFound":5613,"Ġresist":5614,"Ġseparate":5615,"rc":5616,"Ġfiled":5617,"ĠAlthough":5618,"ourney":5619,"Ġevalu":5620,"ìĦľëĬĶ":5621,"Ġconcent":5622,"Ġfinish":5623,"osure":5624,"%)":5625,"Ġnamed":5626,"ëŀµ":5627,"Ġsaying":5628,"ĠJesus":5629,"ĠSunday":5630,"Ġobtained":5631,"ĠWhe":5632,"anging":5633,"Ġorigin":5634,"eff":5635,"cm":5636,"ows":5637,"ĠìĦ¤ëªħ":5638,"enance":5639,"Ġbaby":5640,"ios":5641,"utor":5642,"yp":5643,"free":5644,"72":5645,"ëĲĺê³ł":5646,"Ġweather":5647,"Value":5648,"den":5649,"Ġalbum":5650,"Ġremov":5651,"gu":5652,"Ġê²°ê³¼":5653,"ë¡ľìļ´":5654,"Ġdiagn":5655,"Ġscient":5656,"iar":5657,"Ġoccas":5658,"Ġteams":5659,"Ġvill":5660,"ê¸°ìŀĲ":5661,"ĠPal":5662,"Ġwind":5663,"ĠFig":5664,"lock":5665,"rite":5666,"Ġê·¸ëŁ¬":5667,"ìĿ´ëĬĶ":5668,"ĠìĹĨëĬĶ":5669,"Ġsolid":5670,"Ġpresence":5671,"Ġweekend":5672,"lean":5673,"Ġonto":5674,"Ġcounter":5675,"ĠAssociation":5676,"Ġhomes":5677,"íį¼":5678,"Ġthanks":5679,"Ġotherwise":5680,"Ġì½":5681,"Ġcounsel":5682,"PL":5683,"ĠSub":5684,"Des":5685,"ìĽĢ":5686,"Ġstatic":5687,"Ġowner":5688,"Ġopinion":5689,"venue":5690,"Ġpredict":5691,"íķĺë©´ìĦľ":5692,"ĠDel":5693,"Ġtree":5694,"Ġclasses":5695,"ĠProgram":5696,"ëĦ·":5697,"ĠCouncil":5698,"Ġguid":5699,"icious":5700,"ĠìłĦë¬¸":5701,"ails":5702,"Ġhom":5703,"acing":5704,"Ġcentral":5705,"Ġmovie":5706,"ael":5707,"Ġë¨¸":5708,"ìĹĨ":5709,"width":5710,"ranch":5711,"ndom":5712,"56":5713,"Ġforms":5714,"ĠPhil":5715,"iber":5716,"âĺ":5717,"Ġíĺķ":5718,"ico":5719,"Ġinjury":5720,"phone":5721,"amm":5722,"Ġthreat":5723,"rees":5724,"ë¦¬ê°Ģ":5725,"Ġscience":5726,"ĠOther":5727,"ĠMac":5728,"MA":5729,"Ġflex":5730,"Ġhelping":5731,"lands":5732,"Ġpowerful":5733,"ì§¸":5734,"ê³³":5735,"Ġscale":5736,"));":5737,"Ġarray":5738,"Ġcommunication":5739,"ĠPublic":5740,"ĠSaturday":5741,"}{\\":5742,"Ġíľ":5743,"Ġwedding":5744,"Ġconven":5745,"Ġplaced":5746,"Ġshape":5747,"Ġnation":5748,"\";":5749,"Ġexception":5750,"Ġì»¤":5751,"Ġmaximum":5752,"ii":5753,"Ġflo":5754,"rote":5755,"Ġbul":5756,"Ġformat":5757,"Ġreference":5758,"Ġdoll":5759,"Add":5760,"rig":5761,"íı°":5762,"Ġwoman":5763,"Ġëª¨ëĵł":5764,"Ġê¶Į":5765,"Ġcreative":5766,"Ġrace":5767,"ĠMor":5768,"pping":5769,"ëĳ":5770,"ĠÂ£":5771,"Ġwild":5772,"Ġmonitor":5773,"Ġë§İìĿ´":5774,"unc":5775,"Ġsmooth":5776,"ĠJud":5777,"Ġconstruct":5778,"ĠII":5779,"leg":5780,"Ġcoffee":5781,"Ġdriving":5782,"Ġpieces":5783,"Ġpackage":5784,"Ġmaster":5785,"ixt":5786,"ĠFlor":5787,"ĠAustralia":5788,"íķľêµŃ":5789,"ĠClass":5790,"ĠPhys":5791,"Ġadvantage":5792,"Ġtheory":5793,"ĠìĹĨëĭ¤":5794,"ĠíĪ¬ìŀĲ":5795,"Ġëĭ¤ìĸĳíķľ":5796,"ĠGold":5797,"Ġspread":5798,"ĠLicense":5799,"Ġìłķë³´":5800,"Ġstick":5801,"Ġbatter":5802,"oming":5803,"Ġcompos":5804,"ĠDavid":5805,"Ġhelped":5806,"73":5807,"Ġwife":5808,"Ġarchitect":5809,"Ġsession":5810,"ech":5811,"Ġrout":5812,"ĠOver":5813,"Ġannounced":5814,"Ġoperation":5815,"ĠInternet":5816,"Ġsty":5817,"ĠìĹ°êµ¬":5818,"nu":5819,"+\\":5820,"Ġstation":5821,"Ġíŀĺ":5822,"ìª½":5823,"cel":5824,"../../":5825,"Ġcaused":5826,"oma":5827,"ì³Ĳ":5828,"Ð¸":5829,"ĠAdd":5830,"Ġcovered":5831,"ĠMicro":5832,"ìĤ¬ëĬĶ":5833,"Ġsecure":5834,"ĠíĶĮ":5835,"ĠìłĪ":5836,"Ġdistance":5837,"ĠBecause":5838,"Ġbehavior":5839,"ë²ł":5840,"usion":5841,"ì²ĺëŁ¼":5842,"lig":5843,"mpt":5844,"Ġdrug":5845,"58":5846,"ĠìĬ¹":5847,"Ġshared":5848,"ĠProf":5849,"Ġ32":5850,"ĠIns":5851,"ocation":5852,"works":5853,"Ġstated":5854,"Ġtesting":5855,"ĠTexas":5856,"Ġdetermined":5857,"ĠëłĪ":5858,"´ëį°":5859,"Ġcamera":5860,"Ġmaintain":5861,"New":5862,"Sc":5863,"UN":5864,"Ġreasonable":5865,"bra":5866,"Ġcit":5867,"Ġíĥľ":5868,"define":5869,"Ġfailed":5870,"SP":5871,"Ġëĭ´":5872,"ëŀľëĵľ":5873,"abled":5874,"ĠWeb":5875,"rror":5876,"Ġdress":5877,"Ġflav":5878,"Ġsem":5879,"Ġunits":5880,"](":5881,"ëĬĲ":5882,"Ġcommand":5883,"Ġclearly":5884,"ìľ¼ë©´":5885,"cles":5886,"ius":5887,"Ġefforts":5888,"ĠOnce":5889,"Ġbecomes":5890,"ucle":5891,"Ġmanage":5892,"ĠRead":5893,"ulate":5894,"Ġcards":5895,"Ġviews":5896,"rho":5897,"opyright":5898,"ĠWhite":5899,"Le":5900,"Ġexercise":5901,"ĠCommission":5902,"Ġbiggest":5903,"ĠGood":5904,"ĠAnt":5905,"Ġsets":5906,"Ġoperations":5907,"Ġfill":5908,"uty":5909,"pan":5910,"iverse":5911,"ìłķìĿĦ":5912,"Ġë²Ħ":5913,"Ġtraffic":5914,"Ġbedroom":5915,"ìĤ¬ê°Ģ":5916,"big":5917,"Ġrepe":5918,"vere":5919,"delta":5920,"Ġfinished":5921,"Do":5922,"âĢĺ":5923,"Mod":5924,"++":5925,"Ġcapacity":5926,"rey":5927,"Ġfigure":5928,"ĠSur":5929,"Ġíļ¨":5930,"Ġrou":5931,"Ġwants":5932,"âĢĿ,":5933,"standing":5934,"ĠHot":5935,"Ġshoot":5936,"Ġstandards":5937,"ĠMond":5938,"Ġeight":5939,"Ġchallenges":5940,"ĠBel":5941,"hips":5942,"Ġfant":5943,"Ġë°ľìĥĿ":5944,"Ġsharing":5945,"omb":5946,"íĻĶë¥¼":5947,"ĠHall":5948,"ban":5949,"Ġtechnical":5950,"ipl":5951,"usband":5952,"Object":5953,"Ġsweet":5954,"Ġtransform":5955,"ira":5956,"Ġfurniture":5957,"sl":5958,"Ġpoor":5959,"Ġpair":5960,"Ġheavy":5961,"ĠPost":5962,"Set":5963,"ìķĻ":5964,"ìłĢìŀĳê¶ĮìŀĲ":5965,"error":5966,"ctors":5967,"Ġseven":5968,"[@":5969,"Ġdrop":5970,"Ġbalance":5971,"Ġcast":5972,"km":5973,"Ġahead":5974,"partial":5975,"Ġphase":5976,"iced":5977,"63":5978,"Ġbrain":5979,"Ġì§ĢëĤľíķ´":5980,"Ġìķł":5981,"From":5982,"ëĵ¤ìĹĲê²Į":5983,"DA":5984,"inct":5985,"care":5986,"ĠDevelop":5987,"Ġmiles":5988,"Ġìµľê·¼":5989,"Qu":5990,"ì¸µ":5991,"Ġperhaps":5992,"IF":5993,"ĠOffice":5994,"ĠíĺĦëĮĢ":5995,"ë¦¬ìķĦ":5996,"ëķĮ":5997,"Ġmode":5998,"essage":5999,"Ġopening":6000,"Ġ500":6001,"Ġcore":6002,"path":6003,"Ġconnected":6004,"ì°©":6005,"Ġê°ĸ":6006,"Ġdriver":6007,"Ġimpos":6008,"Ġpeace":6009,"¿ł":6010,"Ġëĭ¤ìĭľ":6011,"Ġswitch":6012,"ĠWashington":6013,"Ġshowing":6014,"ĠBritish":6015,"ĠWork":6016,"Ġprocesses":6017,"ëħĢ":6018,"Ġexpression":6019,"ĠBest":6020,"Ġjourney":6021,"ĠMem":6022,"struct":6023,"Ġanti":6024,"Ġsignificantly":6025,"Ġcircumst":6026,"pack":6027,"Ġspl":6028,"omega":6029,"Ġoptim":6030,"Ġobvious":6031,"ĠLab":6032,"Ġfaith":6033,"Ġscen":6034,"rem":6035,"Ġ!=":6036,"Ġactions":6037,"Ġpros":6038,"Ġcomponents":6039,"PC":6040,"Ġpreviously":6041,"ĠPlan":6042,"isation":6043,"Ġproperly":6044,"ĠResearch":6045,"ĠFrench":6046,"ressive":6047,"df":6048,"Ġtechniques":6049,"Ġsources":6050,"Ġmotor":6051,"Ġrob":6052,"Ġpassed":6053,"Ġcombination":6054,"Ġrepair":6055,"Ġrow":6056,"Ġpartner":6057,"arrant":6058,"Ġgarden":6059,"Ġfem":6060,"Ġdeveloping":6061,"orrow":6062,"ĠìķĦëĭĪëĿ¼":6063,"Ġbow":6064,"ëŀ¨":6065,"ae":6066,"Ġì¡":6067,"ë·":6068,"Ġì¹ľ":6069,"Ġorganizations":6070,"clusive":6071,"Ġjobs":6072,"ĠêµĲìľ¡":6073,"Ġìĺ¬íķ´":6074,"ĠSk":6075,"Ġê³łê°Ŀ":6076,"theta":6077,"fra":6078,"Ġstrugg":6079,"Ġexperiences":6080,"Ġê³³":6081,"Ġdang":6082,"Ġaren":6083,"Ġbrief":6084,"ëŁ½":6085,"Ġsitu":6086,"Ġsports":6087,"ĠEduc":6088,"tes":6089,"Ġfailure":6090,"ĠëĤ´ìļ©":6091,"Ġtend":6092,"Ġvisual":6093,"Ġìµľê³ł":6094,"Ġcomments":6095,"ĽĪ":6096,"hand":6097,"Ġcalcul":6098,"itors":6099,"ĠìķĬëĬĶ":6100,"Ġincred":6101,"ĠJack":6102,"tau":6103,"ago":6104,"File":6105,"fty":6106,"ê±¸":6107,"atus":6108,"Ġ2006":6109,"Ġmovement":6110,"ìŀĲìĿĺ":6111,"Ġappears":6112,"Ġdu":6113,"While":6114,"ĠCong":6115,"ĠDec":6116,"Ġfollows":6117,"ĠPaul":6118,"othing":6119,"Ġvoice":6120,"Ġfold":6121,"Ġfear":6122,"mail":6123,"Ġexplore":6124,"ĠëĬĲ":6125,"íķĻêµĲ":6126,"Ġpsych":6127,"Ġmetal":6128,"Ġadvanced":6129,"ĠGo":6130,"Ġrecords":6131,"Ġmajority":6132,"Ġappe":6133,"]{},":6134,"Ġunf":6135,"ĠêµŃê°Ģ":6136,"71":6137,"Ġfees":6138,"ì±Ħ":6139,"ocket":6140,"Ġadding":6141,"ë§ī":6142,"Ġretail":6143,"^\\":6144,"Ġsand":6145,"pret":6146,"ribute":6147,"Ġfields":6148,"Ġbag":6149,"Ġacadem":6150,"?\"":6151,"Ġcontinued":6152,"Ġbreat":6153,"Ġframe":6154,"These":6155,"Ġcentury":6156,"ĠAND":6157,"Ġinternal":6158,"Ġremains":6159,"Ġwear":6160,"ë©Ķ":6161,"rad":6162,"ado":6163,"ê²łëĭ¤":6164,"Ġprepared":6165,"áĦı":6166,"Â®":6167,"Ġclosed":6168,"54":6169,"Ġobserved":6170,"ĠëĮĢìĥģ":6171,"PA":6172,"za":6173,"Ġsupported":6174,"Ġshot":6175,"Ġsample":6176,"ĠMat":6177,"Ġlisted":6178,"ĠAM":6179,"ĠPlay":6180,"Ġdivid":6181,"lete":6182,"Ġíĸ¥":6183,"Ġminimum":6184,"Ġmentioned":6185,"Ġcatch":6186,"Ġprepar":6187,"inese":6188,"oyal":6189,"abilities":6190,"84":6191,"Ġbillion":6192,"uy":6193,"Ġvari":6194,"times":6195,"Ġtips":6196,"Ġang":6197,"Ġìļ©":6198,"Ġreviews":6199,"ĠíĮ¨":6200,"Ġcolumn":6201,"~~":6202,"Ġcolle":6203,"Ġcoverage":6204,"void":6205,"Ġtrou":6206,"rd":6207,"eline":6208,"estival":6209,"Ġlearned":6210,"Ġsubstant":6211,"Ġrestrict":6212,"ìĭľìŀ¥":6213,"Ġì§Ģê¸Ī":6214,"Ġtalking":6215,"Ġë²ł":6216,"sim":6217,"Ġfixed":6218,"Ġrandom":6219,"ê¸°ëĬĶ":6220,"ĠëĶ°ë¥´ë©´":6221,"ĠDet":6222,"men":6223,"ĠíĽĦë³´":6224,"âĨ":6225,"ĠChurch":6226,"ì£ł":6227,"53":6228,"Ġderiv":6229,"Ġë¨¹":6230,"Ġë¸Ķ":6231,"SC":6232,"Ġpush":6233,"Ġcouldn":6234,"Ġcharacters":6235,"Ġachie":6236,"look":6237,"Ġteaching":6238,"Ġgain":6239,"ÑĤ":6240,"ìĭľëĬĶ":6241,"Ġcolors":6242,"Ġseeing":6243,"Ġbathroom":6244,"ĠìŀĪìĿĦ":6245,"ë¡ľëĤĺ":6246,"Ġìĭ¶":6247,"Ġedge":6248,"Ġê·¸ë¦¬ê³ł":6249,"Ġscore":6250,"Ġrelig":6251,"Ġloan":6252,"Ġschedule":6253,"ĠClub":6254,"cks":6255,"Ġargument":6256,"ĠString":6257,"Ġwine":6258,"Ġì¸":6259,"olic":6260,"Ġcraft":6261,"Ġpanel":6262,"ommod":6263,"ĵ¤":6264,"known":6265,"iled":6266,"fast":6267,"ëį¸":6268,"Ġalternative":6269,"ĠThus":6270,"ĠFlorida":6271,"ĠCD":6272,"ota":6273,"Ġfunds":6274,"Ġhusband":6275,"Ġreplacement":6276,"ĠSl":6277,"Ġfacilities":6278,"ĠíĻį":6279,"Ġnovel":6280,"rael":6281,"ĠMonday":6282,"pid":6283,"gal":6284,"Ġcloud":6285,"52":6286,"ì¹ľ":6287,"gor":6288,"ĠRiver":6289,"Ġunless":6290,"osen":6291,"ĠíıŃ":6292,"ê°ĢëĬĶ":6293,"Ġkept":6294,"Ġhar":6295,"inger":6296,"Ġnegative":6297,"ëłĩ":6298,"ĠëĨį":6299,"apers":6300,"57":6301,"ĠìĤ¬ì§Ħ":6302,"Ġolder":6303,"gery":6304,"________":6305,"ìĦ¼íĦ°":6306,"ĠManagement":6307,"Ġdedicated":6308,"ĠSuppose":6309,"ĠSam":6310,"ĠAnn":6311,"ĠData":6312,"Ġapproximately":6313,"Ġhospital":6314,"Ġdiet":6315,"ishes":6316,"ìĿ´ì§Ģ":6317,"esome":6318,"ervice":6319,"Ġjury":6320,"Ġfabric":6321,"62":6322,"Man":6323,"Ġê·¸ëŁ°":6324,"ì¸¡":6325,"Ġë°±":6326,"icine":6327,"poses":6328,"ups":6329,"íĻķ":6330,"Ġdocuments":6331,"ĠìĿ´ëŁ°":6332,"Ġadvance":6333,"Ġfee":6334,"Ġlov":6335,"Ġhyd":6336,"ait":6337,"Ġspecies":6338,"Ġingred":6339,"ĠëĲľëĭ¤":6340,"ĠDem":6341,"``":6342,"ifying":6343,"Ġflat":6344,"Ġquarter":6345,"Ġwire":6346,"Ġìĺ¤íĽĦ":6347,"($":6348,"Ġë°ľíĳľ":6349,"61":6350,"going":6351,"Ġrank":6352,"CE":6353,"¿Ĳ":6354,"flow":6355,"Ġêµ°":6356,"ĠList":6357,"oto":6358,"ê·ł":6359,"uled":6360,"Ġmission":6361,"pace":6362,"Ġsufficient":6363,"Ġsteel":6364,"Ġmedium":6365,"Ġkeeping":6366,"Ġoperating":6367,"ortunately":6368,"sey":6369,"ĠThank":6370,"ĠMet":6371,"Ġlic":6372,"iers":6373,"ĠíĹĪ":6374,"arth":6375,"Ġfashion":6376,"Ġìī":6377,"Ġ&&":6378,"Ġworkers":6379,"gn":6380,"íĨ":6381,"íĥĦ":6382,"Here":6383,"Ġrich":6384,"Ġfish":6385,"asure":6386,"Ġmist":6387,"Ġcalls":6388,"Ġdecide":6389,"Ġshopping":6390,"ĠRoad":6391,"ĠìĿ´ëĤł":6392,"}$,":6393,"ĠYear":6394,"rier":6395,"Ġê¸°ë¡Ŀ":6396,"ĠìµľëĮĢ":6397,"´ë³´":6398,"link":6399,"Ġmilitary":6400,"ston":6401,"https":6402,"pon":6403,"98":6404,"Ġ///":6405,"Ġreturned":6406,"Ġhaven":6407,"Ġmaintenance":6408,"from":6409,"Ġdirector":6410,"ĠInstitute":6411,"©ëĭĪëĭ¤":6412,"Ġprofessionals":6413,"Ġpray":6414,"íĥģ":6415,"ĠBay":6416,"Ġproof":6417,"Ġbright":6418,"Ġjoint":6419,"Ġplants":6420,"Ġwaste":6421,"rum":6422,"Ġrare":6423,"Ġwinter":6424,"Ġdiscover":6425,"Ġnumerous":6426,"vention":6427,"Ġ2005":6428,"Ġclinical":6429,"DF":6430,"ĠWhy":6431,"sk":6432,"Ġtag":6433,"ĠFe":6434,"Ġluck":6435,"enture":6436,"Ġspring":6437,"Ġdatabase":6438,"Ġcompetition":6439,"Ġfriendly":6440,"ĠBen":6441,"Ġgone":6442,"They":6443,"Ġwat":6444,"icial":6445,"ĠMal":6446,"Ġpassion":6447,"Ġevening":6448,"ĠDan":6449,"Ġì¦Ŀê°Ģ":6450,"Ġwrote":6451,"Ġcoord":6452,"Ġproposed":6453,"Ġcommunities":6454,"Ġmort":6455,"ellig":6456,"TS":6457,"%,":6458,"ĠEv":6459,"amily":6460,"ework":6461,"Ġ**":6462,"Ġì¶Ķê°Ģ":6463,"Ġopened":6464,"Ġchanging":6465,"Ġraised":6466,"Ġprocessing":6467,"Ġpolic":6468,"Ġheight":6469,"fit":6470,"ensions":6471,"Ġaudience":6472,"position":6473,"LC":6474,"Delta":6475,"ëĥĲ":6476,"rehens":6477,"Ġholiday":6478,"ĠTherefore":6479,"met":6480,"Ġtruth":6481,"icit":6482,"Ġruns":6483,"ĠìķĦëĭ":6484,"ë¦´":6485,"ĠFran":6486,"ĠAtt":6487,"She":6488,"itled":6489,"ĠMarket":6490,"Ġrot":6491,"Ġer":6492,"Ġ$$":6493,"Ġwelcome":6494,"ĠìĿ´ìľł":6495,"Ġroot":6496,"Ġë³´ê³ł":6497,"well":6498,"Ġrooms":6499,"rete":6500,"ĠFoundation":6501,"Ġsector":6502,"Ġì°¸ìĹ¬":6503,"íĦ°ëĦ·":6504,"py":6505,"¶Ģ":6506,"Ġvolume":6507,"Ġìĸ¼":6508,"!!!":6509,"ocr":6510,"Ġdecisions":6511,"phas":6512,"Ġaccommod":6513,"EF":6514,"Ġbill":6515,"inder":6516,"ship":6517,"Ġmanager":6518,"ĠPeople":6519,"ĠOpen":6520,"ĠìĹ¬ëŁ¬":6521,"Ġì²«":6522,"ë£¹":6523,"leq":6524,"ìŀ¬ë°°íı¬":6525,"Ġtoward":6526,"83":6527,"Ġhappens":6528,"akers":6529,"ĠëĤĺíĥĢ":6530,"Ġhelpful":6531,"Ġíĺ¸íħĶ":6532,"Ġdiscount":6533,"Ġice":6534,"}$.":6535,"íľ":6536,"Ġdisp":6537,"Ġpurposes":6538,"ĠJames":6539,"ĠRich":6540,"Ġexperts":6541,"msg":6542,"Ġhappened":6543,"Ġlock":6544,"51":6545,"Ġburn":6546,"Over":6547,"Ġpractices":6548,"Ġign":6549,"ì£¼ìĿĺ":6550,"Ġagency":6551,"âĶ":6552,"/>":6553,"Ġfacts":6554,"ëĦĲ":6555,"Ð½":6556,"\\\\":6557,"ĠëĦĪ":6558,"Ġspecifically":6559,"Ġlegis":6560,"Ġroof":6561,"Ġconference":6562,"Ġprotein":6563,"Ġê¸°ì¤Ģ":6564,"Ġmanner":6565,"Ġwitness":6566,"Ġdisapp":6567,"Ġuns":6568,"ĠSet":6569,"Ġë³¼":6570,"ë·°":6571,"ĠMag":6572,"ĠCir":6573,"ĠCheck":6574,"Ġreduced":6575,"px":6576,"ìļ´ëį°":6577,"Ġunc":6578,"news":6579,"ìĹĲìĦľëıĦ":6580,"ially":6581,"ĠSol":6582,"Ġplenty":6583,"Text":6584,"Ġcars":6585,"Ġbeg":6586,"ĠìķĮëł¤":6587,"Ġvan":6588,"Ġdebt":6589,"Ġsociety":6590,"uries":6591,"ka":6592,"Ġrespectively":6593,"RA":6594,"ĠCode":6595,"ildren":6596,"function":6597,"ìĹ¼":6598,"Ġìĥ":6599,"Ġdied":6600,"ê·¸ëŀ¨":6601,"ĠMary":6602,"Ġ2020":6603,"rical":6604,"Ġequal":6605,"Ġprime":6606,"Ġlabel":6607,"unning":6608,"Ġsustain":6609,"Ġguests":6610,"Ġíı¬íķ¨":6611,"ĠAL":6612,"Ġëĭ¤ìĿĮ":6613,"roud":6614,"ĠMake":6615,"87":6616,"Ġhab":6617,"alle":6618,"Ġinteg":6619,"Ġparameters":6620,"mes":6621,"lo":6622,"imb":6623,"ëĲĺìĸ´":6624,"Ġforeign":6625,"ì¼Ģ":6626,"aming":6627,"trans":6628,"js":6629,"asks":6630,"Ġlaunch":6631,"Ġê¸ī":6632,"ĠAma":6633,"Ġwaiting":6634,"Ġcasino":6635,"ĠDown":6636,"infty":6637,"ĠUse":6638,"ĠAccording":6639,"ĠPM":6640,"Ġsched":6641,"Ġwhatever":6642,"PE":6643,")}":6644,"nel":6645,"Ġthousands":6646,"ìļ±":6647,"Ġreality":6648,"Ġsecret":6649,"ULL":6650,"Ġsuppl":6651,"Ġwarrant":6652,"Ġsquare":6653,"Ġbrother":6654,"Ġ300":6655,"Ġadapt":6656,"map":6657,"ĠUnder":6658,"level":6659,"ĠChinese":6660,"ĠHol":6661,"Ġprocedure":6662,"ĠVis":6663,"omin":6664,"gorith":6665,"Ġcircumstances":6666,"ĠIll":6667,"ĠMart":6668,"Suppose":6669,"Ġmenu":6670,"ìĹ°íķ©ëī´ìĬ¤":6671,"ĠJer":6672,"Ġìĵ°":6673,"Ġplug":6674,"rate":6675,"ê°Ļ":6676,"ersion":6677,"ĠSum":6678,"ĠSing":6679,"Please":6680,"ls":6681,"Ġstreet":6682,"ĠIsrael":6683,"roy":6684,"Ġmeant":6685,"which":6686,"Ġfootball":6687,"Ġquot":6688,"Ġcivil":6689,"ĠHam":6690,"Ġsimpl":6691,"inn":6692,"Ġë¹ł":6693,"Ġcomponent":6694,"amin":6695,"Key":6696,"dis":6697,"Ġemployee":6698,"CD":6699,"och":6700,"ĠDef":6701,"Ġì¢ĭìĿĢ":6702,"ĠFore":6703,"ĠThom":6704,"Ġleads":6705,"asy":6706,"Ġíķĺì§Ģë§Į":6707,"Ġfol":6708,"Ġleader":6709,"umin":6710,"Ġbuying":6711,"Ġeconomy":6712,"Ġrecip":6713,"Ġassign":6714,"Ġsouth":6715,"Ġlibrary":6716,"Ġassistance":6717,"Ġincorpor":6718,"Ġrestaurant":6719,"Ġforget":6720,"Ġfan":6721,"Ġallowing":6722,"Ġvision":6723,"Ġpicked":6724,"Ġcombined":6725,"íģ¼":6726,"SA":6727,"Ġë°©ë²ķ":6728,"Ġdiscussion":6729,"Ġê°ľìĿ¸":6730,"Ġnor":6731,"Ġeth":6732,"Ġfocused":6733,"Ġ($":6734,"ìĿ´ìĬ¤":6735,"âĻ":6736,"ĠScience":6737,"Ġidentified":6738,"Cal":6739,"CA":6740,"ĠProject":6741,"Ķ¨":6742,"BA":6743,"idden":6744,"Ġì¸¡":6745,"ĠíħĮ":6746,"Class":6747,"Ġjur":6748,"otic":6749,"ĠWed":6750,"alls":6751,"ampions":6752,"Ġinfo":6753,"ĠForm":6754,"à¤":6755,"Ġfamous":6756,"Ġbecoming":6757,"Ġanimals":6758,"ĠAfrica":6759,"}}\\":6760,"ĠĊĊ":6761,"Ġguess":6762,"ĠOh":6763,"Ġaccident":6764,"Ġcrim":6765,"ĠDirector":6766,"aser":6767,"ìľĦìĽĲíļĮ":6768,"Ġìķ¼":6769,"Ġdivided":6770,"ê°Ī":6771,"Ġbeach":6772,"Ġcleaning":6773,"ented":6774,"Ġmut":6775,"outhern":6776,"Ġearth":6777,"ATE":6778,"ĠNOT":6779,"Ġtheme":6780,"Ġdetailed":6781,"ĠCr":6782,"Ġì¤ĳìļĶ":6783,"Ġletters":6784,"Ġresidents":6785,"IA":6786,"itz":6787,"Ġdaughter":6788,"ëł¸":6789,"ë§ĪíĬ¸":6790,"ĠRel":6791,"Ġcheap":6792,"Ġnav":6793,"osh":6794,"Ġslightly":6795,"Ġì¶Ķì§Ħ":6796,"ĠëĺĲëĬĶ":6797,"Ġthick":6798,"press":6799,"ì¢":6800,"Ġmail":6801,"Ġfans":6802,"ìĤ¬ìĿĺ":6803,"ĠIP":6804,"´ëĮĢ":6805,"Ġauto":6806,"ĠChristian":6807,"ĠArch":6808,"ĠRev":6809,"ĠLord":6810,"Ġexcited":6811,"Sim":6812,"ĠVol":6813,"Of":6814,"ns":6815,"ĠPower":6816,"dev":6817,"Ġsnow":6818,"hent":6819,"Ġlit":6820,"ĠìķĪìłĦ":6821,"íĮĢ":6822,"Ġdesigns":6823,"ructure":6824,"ĠConst":6825,"Par":6826,"how":6827,"Ġscript":6828,"Ġpolicies":6829,"Ġinfluence":6830,"ĠEngine":6831,"ifts":6832,"Ġinstalled":6833,"ĠLake":6834,"íĹĪ":6835,"Ġnorth":6836,"íĮ¨":6837,"pected":6838,"ĠLife":6839,"cluded":6840,"Ġ\\\\":6841,"Ġintroduced":6842,"ìħĶ":6843,"Ġdoctor":6844,"Ġegg":6845,"ĠPet":6846,"Ġtests":6847,"Ġmanaged":6848,"ĠSection":6849,"ĠCare":6850,"Ġmental":6851,"Ġrecommended":6852,"Ġë²Į":6853,"Ġprofile":6854,"ĠUSA":6855,"Ġcategory":6856,"pload":6857,"iler":6858,"().":6859,"Ġexchange":6860,"ìŀĲìĿ¸":6861,"Ġâĸ²":6862,"ìłķë¶Ģ":6863,"Ġlandsc":6864,"Ġarrange":6865,"Ġobjects":6866,"Ġremoved":6867,"Ġcontem":6868,"Ġpresident":6869,"Ġsea":6870,"Ġëĵ±ìĿĺ":6871,"ĠRober":6872,"ê²ĮìŀĦ":6873,"Ġê¼":6874,"ì§ķ":6875,"ĠìĤ¬ìĿ´":6876,"Ġtypically":6877,"Ġessay":6878,"Ġcream":6879,"comm":6880,"Ġcommitted":6881,"ĠìĤ¼ìĦ±":6882,"Ġexpensive":6883,"ÑĢ":6884,"Time":6885,"ĠApple":6886,"Ġtherapy":6887,"Ġ2004":6888,"Ġradio":6889,"do":6890,"ĠMount":6891,"ëħĲ":6892,"ads":6893,"ĠTest":6894,"çļ":6895,"ĠDuring":6896,"ystem":6897,"anta":6898,"Ġgeneration":6899,"othes":6900,"Ġlicense":6901,"Ġreached":6902,"Ġvolunte":6903,"Ġvisitors":6904,"ursday":6905,"Thanks":6906,"Ġcolour":6907,"Ġartist":6908,"Ġbeauty":6909,"Ġintended":6910,"Ġlayer":6911,"¿½":6912,"Ġenhance":6913,"ê²łìĬµëĭĪëĭ¤":6914,"Ġcorner":6915,"night":6916,"Ġsch":6917,"Ġtaste":6918,"Ġclassic":6919,"irmed":6920,"Ġ36":6921,"Ġleaving":6922,"Ġimportance":6923,"rian":6924,"Ġdepartment":6925,"ĠCommit":6926,"ĩ´":6927,"Ġnoted":6928,"ĠEducation":6929,"Ġcitiz":6930,"tered":6931,"inet":6932,"Ġinterface":6933,"Ġupgra":6934,"anged":6935,"ias":6936,"Ġchemical":6937,"pet":6938,"Ġattorney":6939,"Ġsympt":6940,"Ġ[*":6941,"opped":6942,"ĠSal":6943,"íĦ¸":6944,"mega":6945,"ĠSun":6946,"Ġencourage":6947,"Ġautomatically":6948,"Ġstarts":6949,"Ġrid":6950,"itable":6951,"Ġveget":6952,"Ġê°Ģìļ´ëį°":6953,"Ġsounds":6954,"win":6955,"Ġminute":6956,"itar":6957,"ĠSa":6958,"Ġprop":6959,"arest":6960,"Ġfacility":6961,"Ġwww":6962,"Acc":6963,"Ġrelationships":6964,"82":6965,"rome":6966,"Ġoccup":6967,"friend":6968,"ĠMot":6969,"ĠHel":6970,"ĠRepublic":6971,"illa":6972,"ESS":6973,"icians":6974,"ĠHist":6975,"ĠMo":6976,"////////":6977,"count":6978,"Ġlux":6979,"uman":6980,"Ġap":6981,"Ġdepending":6982,"Ġlabor":6983,"Ġleaves":6984,"Ġmo":6985,"Ġresource":6986,"Ġwouldn":6987,"ï¿½":6988,"uable":6989,"Ġconsequ":6990,"EE":6991,"essions":6992,"íĺģ":6993,"Can":6994,"ĠEngland":6995,"ìĭłë¬¸":6996,"Ġinterpret":6997,"Ġgall":6998,"Ġdump":6999,"Ġwindows":7000,"ĠWord":7001,"çļĦ":7002,"ini":7003,"Ġchair":7004,"Ġpetition":7005,"Ġcontinues":7006,"IB":7007,"ĠLou":7008,"OV":7009,"rangle":7010,"ĠGovernment":7011,"State":7012,"Ġlose":7013,"ëĺĲ":7014,"ĠìŀĪëıĦë¡Ŀ":7015,"Ġjudge":7016,"dy":7017,"ste":7018,"Ġdomain":7019,"Ġsurvey":7020,"iration":7021,"Ġinstallation":7022,"Ġlaws":7023,"Ġknows":7024,"ìĿĢíĸī":7025,"Ġíıīê°Ģ":7026,"ĠFurther":7027,"ĠWater":7028,"ogen":7029,"Ġenvironmental":7030,"íĺľ":7031,"ĠDiv":7032,"ĠMill":7033,"estic":7034,"Ġinstant":7035,"ëĭĪê¹Į":7036,"Ġíķ©ëĭĪëĭ¤":7037,"Or":7038,"ĠíĤ":7039,"table":7040,"Ġbought":7041,"Don":7042,"íĸĪëĭ¤ê³ł":7043,"Ġselling":7044,"ĠìĿ´ë¯¸":7045,"Ġcourses":7046,"ĠìĥĪë¡ľìļ´":7047,"antic":7048,"Ġtrees":7049,"êµĲìľ¡":7050,"Ġvideos":7051,"ĠBre":7052,"rag":7053,"ĠSom":7054,"Ġworksh":7055,"Ġvs":7056,"į¨":7057,"Ġproud":7058,"uesday":7059,"ëĵ¤ê³¼":7060,"oin":7061,"Ġcorporate":7062,"ê¸´":7063,"Ġì²ł":7064,"Test":7065,"Us":7066,"ĠIsland":7067,"Ġplastic":7068,"¾¸":7069,"Ġregistered":7070,"Ġmissing":7071,"berg":7072,"Ġscene":7073,"ĠìĥĿìĤ°":7074,"ĠNews":7075,"under":7076,"Ġelim":7077,"\\])":7078,"Ġsigned":7079,"Ġrecipe":7080,"Ġsequence":7081,"ĠìĿ´ìķ¼":7082,"ĠMichael":7083,"Ġupdated":7084,"index":7085,"Ġê²½ê¸°":7086,"Ġfilled":7087,"ĠëģĿ":7088,"Ġmarkets":7089,"Ġbird":7090,"Ġposts":7091,"Ġ;":7092,"Ġabsolutely":7093,"Che":7094,"Ġë¶ģíķľ":7095,"Ġneighbor":7096,"Ġdram":7097,"81":7098,"Ġtopic":7099,"Ġsuitable":7100,"ĠíĻķëĮĢ":7101,"Ġcomprehens":7102,"Ġtreated":7103,"user":7104,"icken":7105,"Ġìłģìļ©":7106,"Ġraise":7107,"ĠWood":7108,"Ġvictim":7109,"gage":7110,"Ġoutdoor":7111,"áħ²":7112,"ECT":7113,"lay":7114,"Ġsignal":7115,"Ġlocations":7116,"Ġarm":7117,"96":7118,"Error":7119,"Ġëª¨ìĬµ":7120,"Ġsettings":7121,"Ġexplain":7122,"ëªħìĿ´":7123,"Ġtow":7124,"ĠSil":7125,"Ġdesk":7126,"Ġchannel":7127,"Ġprotected":7128,"Ġoppos":7129,"ĠUN":7130,"Ġholding":7131,"Ġdefense":7132,"Ġtestim":7133,"Ġspin":7134,"bour":7135,"Ġmeasures":7136,"icks":7137,"Ġtransition":7138,"ĠCustom":7139,"Ġwalking":7140,"Ġexperim":7141,"Ġ/**":7142,"FL":7143,"Ġaspects":7144,"Ġê³µê°ľ":7145,"Ġshel":7146,"UM":7147,"Ġgun":7148,"ifications":7149,"reek":7150,"Ġleadership":7151,"Ġteachers":7152,"ĠMiss":7153,"Ġresolution":7154,"Ġìŀ¡":7155,"Ġdinner":7156,"ĠíĬ¹íŀĪ":7157,"Ġteacher":7158,"Ġartists":7159,"ĠLove":7160,"íĨµìĭł":7161,"dered":7162,"Ġ__":7163,"Ġnucle":7164,"ĠBig":7165,"Ġrain":7166,"Ġë§ī":7167,"Ġhyp":7168,"Ġresponsibility":7169,"Ġnotes":7170,"tilde":7171,"ĠRob":7172,"Ġworry":7173,"âĢ¢":7174,"ilit":7175,"Ġstrategies":7176,"Ġliqu":7177,"Ġê¸¸":7178,"Ġë¶Ģë¶Ħ":7179,"EST":7180,"arg":7181,"Ġenjoyed":7182,"ĠJew":7183,"cohol":7184,"ìĤ¼":7185,"Ġpal":7186,"Ġjoined":7187,"hab":7188,"ĠTime":7189,"Ġagreed":7190,"Ġbond":7191,"orthern":7192,"Ġê¸°ëĮĢ":7193,"pat":7194,"ĠLear":7195,"build":7196,"Ġ(\\[":7197,"Ġaccompl":7198,"usher":7199,"Ġstone":7200,"ìĩ":7201,"Ġderivative":7202,"Ġagent":7203,"ĠIts":7204,"base":7205,"ario":7206,"ĠTop":7207,"ì§ĢìĹŃ":7208,"mary":7209,"ì¶©":7210,"Ġtransl":7211,"Ġë§Īëł¨":7212,"Ġexciting":7213,"ìľ¼ëĤĺ":7214,"Ġwilling":7215,"cious":7216,"Ġmostly":7217,"Ġê°Ī":7218,"ĠMex":7219,"Your":7220,"Ġì§ģìłĳ":7221,"section":7222,"Ġconcerns":7223,"\"}":7224,"what":7225,"parent":7226,"Ġbrings":7227,"ìŀĲë¥¼":7228,"ìĤ´":7229,"Ġentered":7230,"ĠDevelopment":7231,"£Į":7232,"xi":7233,"Ġconflic":7234,"ĠCap":7235,"Ġship":7236,"ìĭŃ":7237,"Ġë³ĳ":7238,"ette":7239,"Ġexamples":7240,"Ġ2003":7241,"ìĹ°êµ¬":7242,"Ġ->":7243,"Exception":7244,"ì¹ĺë¥¼":7245,"ìłķë³´":7246,"Ġdescription":7247,"nesday":7248,"ë¬´ë":7249,"Ġdepos":7250,"ĠìłĦë§Ŀ":7251,"Ġrapid":7252,"Ġì²ĺìĿĮ":7253,"Ġspending":7254,"Ġbon":7255,"uster":7256,"ĠCH":7257,"Ġprovider":7258,"rame":7259,"Ġdespite":7260,"ĠThursday":7261,"Ġgreatest":7262,"Ġthoughts":7263,"Ġvote":7264,"style":7265,"elle":7266,"ĠTrump":7267,"Ġ);":7268,"Ġì¶ľìĭľ":7269,"Ġseat":7270,"Def":7271,"Ġâĸ³":7272,"Ġprove":7273,"Ġsymbol":7274,"ivered":7275,"Ġsyn":7276,"Ġì²ľ":7277,"Ġsugar":7278,"Ġminor":7279,"Ġfantastic":7280,"Ġthread":7281,"Ġton":7282,"Ġseconds":7283,"doc":7284,"Ġfr":7285,"Ġcop":7286,"ĠElect":7287,"host":7288,"ĠBer":7289,"Ġremaining":7290,"ĠOb":7291,"Ġëľ":7292,"íĽĪ":7293,"ëıĦë¥¼":7294,"Ġwidth":7295,"Ġsenior":7296,"['":7297,"Ġadministr":7298,"Some":7299,"Ġdiscussed":7300,"Form":7301,"\"><":7302,"ĠAngel":7303,"Ġrise":7304,"Ġmotiv":7305,"array":7306,"Ġenable":7307,"Ġhonest":7308,"ìĤ°ìĹħ":7309,"ĠìŀĪìĹĪ":7310,"ĠVir":7311,"Ġìĸ´ëĸ¤":7312,"Ġë°Ķë¡ľ":7313,"Ġregister":7314,"ĠTwo":7315,"97":7316,"Ġiniti":7317,"Ġcentre":7318,"water":7319,"Ġdoubt":7320,"ĠíĻľëıĻ":7321,"Ġstores":7322,"ĠìĹĶ":7323,"ĠAD":7324,"Ġsurgery":7325,"Ġkid":7326,"Ġvehicles":7327,"Ġingredients":7328,"Ġacid":7329,"cluding":7330,"ANT":7331,"CR":7332,"ĠÃ":7333,"Ġcup":7334,"Ġdining":7335,"ĠCentral":7336,"Ġauthority":7337,"Ñģ":7338,"íıŃ":7339,"long":7340,"etime":7341,"ĠìłĦìŀ¬":7342,"^^":7343,"ĠCamp":7344,"Ġtun":7345,"ĠToday":7346,"Ġjump":7347,"Ġë¶ĦìĦĿ":7348,"Ġë³Ħ":7349,"life":7350,"fol":7351,"ĠëĺĲíķľ":7352,"Ġfunding":7353,"ĠCommittee":7354,"Ġserving":7355,"van":7356,"rab":7357,"ĠTheir":7358,"Ġride":7359,"Ġweak":7360,"iary":7361,"Ġpractical":7362,"arp":7363,"Ġholds":7364,"])":7365,"Ġeating":7366,"ĠTO":7367,"Ġfilter":7368,"iences":7369,"Ġìłķì±ħ":7370,"item":7371,"elines":7372,"ĠìĿ´ë¥¼":7373,"Ġupper":7374,"Ġinterests":7375,"Ġfuel":7376,"Inst":7377,"SD":7378,"sembly":7379,"ifier":7380,"Ġimproved":7381,"ĠTuesday":7382,"Ġconsistent":7383,"Ġ33":7384,"ĠMicrosoft":7385,"ĠFire":7386,"Ĳëĭ¤":7387,"iner":7388,"ĠCirc":7389,"Ġê²°ìłķ":7390,"|\\":7391,"Ġì¶ķ":7392,"((":7393,"Ġanc":7394,"ĠìĤ°ìĹħ":7395,"Ġcrow":7396,"ìĿ´ìĸ´":7397,"ĠSmith":7398,"mar":7399,"Ġended":7400,"Ġgovern":7401,"Ġeventually":7402,"Ġchain":7403,"Ġphotograph":7404,"Ġ/>":7405,"Ġíİĺ":7406,"ĠìŀĪëĭ¤ëĬĶ":7407,"Ġdiss":7408,"isd":7409,"ĠVe":7410,"Ġputting":7411,"Ġwebsites":7412,"ĠBuild":7413,"Ġ[**":7414,"isco":7415,"ĠBoth":7416,"Ġjournal":7417,"ëĤ¬":7418,"atin":7419,"ĠMil":7420,"Ġreturns":7421,"Ġparticipants":7422,"Ġê¸Īìľµ":7423,"ìĿ´íĦ°":7424,"Ġagg":7425,"Ġdiscl":7426,"ìĬ¬":7427,"outs":7428,"ì·¨":7429,"ĠSoft":7430,"»ê²Į":7431,"azine":7432,"ĠëĤ®":7433,"Ġcart":7434,"Ġissued":7435,"Ġven":7436,"Ġìłķì¹ĺ":7437,"Ġëī´ìĬ¤":7438,"max":7439,"ĠStar":7440,"Path":7441,"olved":7442,"ëĭµ":7443,"Ġcities":7444,"Ġarticles":7445,"True":7446,"king":7447,"omy":7448,"ë´ī":7449,"related":7450,"Ġwhom":7451,"ĠCON":7452,"However":7453,"oses":7454,"ĠGrand":7455,"ĠìĪĺì¤Ģ":7456,"Ġdie":7457,"roph":7458,"Ġdial":7459,"ĠHy":7460,"Ġju":7461,"izer":7462,"prise":7463,"ds":7464,"Ġprepare":7465,"can":7466,"Ġpromote":7467,"unched":7468,"Ġfeedback":7469,"Ġ~":7470,"ìĥĪ":7471,"Ġvir":7472,"Ġzero":7473,"ĠProfess":7474,"TV":7475,"Ġsubsequ":7476,"Ã¡":7477,"00000000":7478,"cher":7479,"ìĿ¸ëį°":7480,"Ġaccounts":7481,"Ġconvert":7482,"ìº":7483,"ĠLook":7484,"ĠìĽĶ":7485,"ician":7486,"Ġawesome":7487,"ìĿ¸ìĿ´":7488,"ĠUnion":7489,"Ġadministration":7490,"Ġpossibly":7491,"Ġvirtual":7492,"Ġobserv":7493,"Ġbusy":7494,"ĠChic":7495,"iples":7496,"odies":7497,"cos":7498,"TP":7499,"Ġcharges":7500,"aid":7501,"ĠìŀĲëıĻì°¨":7502,"ĠFind":7503,"rect":7504,"gers":7505,"Tra":7506,"ĠQue":7507,"âĸ¶":7508,"ĠCongress":7509,"group":7510,"Ġëĳ":7511,"Ġchosen":7512,"cap":7513,"ëıĦë¡ľ":7514,"Ġorg":7515,"Ġring":7516,"ander":7517,"94":7518,"Read":7519,"ĠAv":7520,"Ġlisten":7521,"edy":7522,"Item":7523,"Ġlovely":7524,"apping":7525,"bre":7526,"Ġexternal":7527,"Ġcompens":7528,"Ġcauses":7529,"93":7530,"that":7531,"ditionally":7532,")=":7533,"Ġalgorith":7534,"Ġdensity":7535,"Ġemployment":7536,"Ġbelong":7537,"Ġvit":7538,"Ġstars":7539,"Ġresulting":7540,"etry":7541,"quad":7542,"ĠBur":7543,"íķĳ":7544,"}(\\":7545,"Ġ48":7546,"Ġê´Ģê³ĦìŀĲëĬĶ":7547,"ëĤĺëĿ¼":7548,"Ġ00":7549,"Ġmal":7550,"Ġrecovery":7551,"Ġpursu":7552,"ĠStr":7553,"äº":7554,"ĠWednesday":7555,"Ġremote":7556,"Ġconfidence":7557,"Ġvary":7558,"ĠBlue":7559,"ĠMer":7560,"Ġamend":7561,"Ġinstructions":7562,"ĠìŀĪëĭ¤ê³ł":7563,"ĠSociety":7564,"Ġshift":7565,"ĠìĹ´ë¦°":7566,"Ġnearest":7567,"ĠëıĻìķĪ":7568,"hors":7569,"Ġdelivered":7570,"âĢ²":7571,"First":7572,"Ġfaster":7573,"esh":7574,"iat":7575,"ë§ģ":7576,"ĠAmazon":7577,"Ġë°©ë¬¸":7578,"åı":7579,"oding":7580,"ĠClick":7581,"ĠíĶ¼íķ´":7582,"Ġdefinition":7583,"Ġalleged":7584,"Ġindu":7585,"rip":7586,"Ġportion":7587,"ya":7588,"Ð¾Ð":7589,"Ġillustr":7590,"amic":7591,"Ġofficer":7592,"ĠRock":7593,"Ġacademic":7594,"ìłľë¡ľ":7595,"ĠTem":7596,"Ġ:=":7597,"Ġdismiss":7598,"´ë°":7599,"ĠCall":7600,"Ġepis":7601,"ê°Ģì§Ģ":7602,"(),":7603,"ĠRE":7604,"Ġbattery":7605,"ì°¬":7606,")$.":7607,"stream":7608,"Sp":7609,"Ġcontrast":7610,"Me":7611,"road":7612,"Ġboost":7613,"ocolate":7614,"Up":7615,"ìĭĿìĿĦ":7616,"Ġfavour":7617,"ĠLike":7618,"Ġsole":7619,"Ġdefine":7620,"Ġëĵ±ìĿ´":7621,"cean":7622,"Ġë©´":7623,"ĠìĤ¬ê±´":7624,"ê¸°ë¡ľ":7625,"Ġintent":7626,"Ġë¶ĢìĤ°":7627,"Ġorders":7628,"non":7629,"Ġasking":7630,"bed":7631,"íĥĪ":7632,"Ġexists":7633,"Ġsport":7634,"ìĸ´ìļĶ":7635,"icity":7636,"Ġcris":7637,"áĦĴ":7638,"Ġaffected":7639,"Ġcarried":7640,"Ġguys":7641,"Ġgoods":7642,"ormal":7643,"Any":7644,"ĠStand":7645,"ĠNote":7646,"call":7647,"ĠGerman":7648,"ĠêµŃìłľ":7649,"ĠìĦłíĥĿ":7650,"Ġseeking":7651,"Ġadults":7652,"Ġìĥģíĥľ":7653,"ĠHill":7654,"Ġconsidering":7655,"Ġ2002":7656,"Ġindustrial":7657,"ĠSen":7658,"Out":7659,"Â°":7660,"Ġpure":7661,"CP":7662,"Ġparking":7663,"Ġsongs":7664,"Ġdiscovered":7665,"Ġrub":7666,"wo":7667,"ĠìķĬê³ł":7668,"Ġwatching":7669,"Ġfindings":7670,"script":7671,"Ġtiss":7672,"Ġapproved":7673,"Ġexcess":7674,"ĠíĻľìļ©":7675,"Ġcharged":7676,"ample":7677,"Ġfruit":7678,"ĠìłĦì²´":7679,"2018":7680,"Ġtrading":7681,"Ġì£":7682,"âĢĻ,":7683,"¶ģ":7684,"ĠColor":7685,"Ġeffectively":7686,"Ġarrest":7687,"Ġefficiency":7688,"ĠAlex":7689,"ĠSocial":7690,"Ġfamiliar":7691,"Ġìĸ´ëł¤":7692,"ĠPress":7693,"ìĺ¨ëĿ¼ìĿ¸":7694,"ĠìĿĢ":7695,"Ġë§ĪìĿĮ":7696,"ĠLight":7697,"Ġgenerated":7698,"Ġourselves":7699,"ê¸°ê´Ģ":7700,"Ġinterior":7701,"ride":7702,"Ġrelief":7703,"ua":7704,"ĠTor":7705,"ĠCommunity":7706,"Ġequival":7707,"AY":7708,"Ġê·ľëª¨":7709,"Ġaudio":7710,"Ġhttps":7711,"Ġtechnologies":7712,"íļĮë¥¼":7713,"iveness":7714,"Ġê°ķíĻĶ":7715,"Ġexpertise":7716,"ca":7717,"ĠOffic":7718,"ĠPay":7719,"}}$":7720,"Ġshut":7721,"ĠWhether":7722,"Ġchart":7723,"ìĿ´ë©°":7724,"Ġdistinct":7725,"exp":7726,"while":7727,"ĠAR":7728,"ĠìĿ¼ë¶Ģ":7729,"Ġaffordable":7730,"ĠTur":7731,"Ġêµ¬ë§¤":7732,"ĠSpecial":7733,"Ġswim":7734,"Ġê³ĦìĨį":7735,"ĠCopyright":7736,"Ġextensive":7737,"Ġdelicious":7738,"orough":7739,"fa":7740,"ĠíĦ":7741,"ĠCas":7742,"Ġcriminal":7743,"Ġreliable":7744,"aks":7745,"Ġgirls":7746,"orter":7747,"ê¸°ìĪł":7748,"riage":7749,"ĠOnline":7750,"ĠMaster":7751,"ĠìĨĮë¹Ħ":7752,"Ġcultural":7753,"Ġ34":7754,"ĠLG":7755,"Ġisland":7756,"Ġteach":7757,"ĠAcadem":7758,"arsh":7759,"ĠìłĦêµŃ":7760,"/*":7761,"Ġchoices":7762,"Ġnone":7763,"Info":7764,"Ġê·¸ëŀĺ":7765,"Ġëª¨ëį¸":7766,"Ġìĺ¤ëĬĺ":7767,"Ġtotally":7768,"Why":7769,"Ġextended":7770,"ĠíĤ¤":7771,"íķĦ":7772,"Ġtrig":7773,"ì£¼ëĬĶ":7774,"91":7775,"Ct":7776,"Ġsymptoms":7777,"Ġapparent":7778,"Ġappearance":7779,"Ġtail":7780,"Ġclimate":7781,"Ġë¬¸íĻĶ":7782,"Ġdistributed":7783,"ingly":7784,"Ġimplementation":7785,"ĠìĺĪìĥģ":7786,"Ġyield":7787,"Ġprocedures":7788,"Ġsummary":7789,"ĠSecurity":7790,"ĠMusic":7791,"mosp":7792,"hetic":7793,"Ġnode":7794,"ĠInformation":7795,"inations":7796,"Ġì¡°ìĤ¬":7797,"Ġê·¸ëłĩ":7798,"Ġiron":7799,"Ġbuildings":7800,"Ġlunch":7801,"Ġdoors":7802,"ĠMass":7803,"Ġconducted":7804,"enced":7805,"Ġspaces":7806,"ĠFrance":7807,"ĠTable":7808,"ë¦¬ìĬ¤":7809,"ìŀĪëĬĶ":7810,"ĠLand":7811,"Ġíķ´ëĭ¹":7812,"ëĿ¼ìĿ´":7813,"QL":7814,"Ġconfirm":7815,"Ġcalling":7816,"ĠFil":7817,"kin":7818,"lication":7819,"Ġcomprehensive":7820,"Ġlawy":7821,"Ġë°ĽìķĦ":7822,"Ġëĭµ":7823,"page":7824,"ĠAndroid":7825,"Ġrelatively":7826,"rastructure":7827,"ê°ľìĽĶ":7828,"Ġfif":7829,"inating":7830,"Ġíķµ":7831,"ĠêµĲìĪĺ":7832,"());":7833,"requ":7834,"Ġran":7835,"Ġdelay":7836,"Ġris":7837,"TA":7838,"Pre":7839,"ective":7840,"Ġyouth":7841,"rain":7842,"ĠFOR":7843,"Ġemergency":7844,"ĠMont":7845,"Ġ2001":7846,"anges":7847,"igen":7848,"CS":7849,"ĠBrown":7850,"Ġdifferences":7851,"Ġdiam":7852,"Reg":7853,"Ġseemed":7854,"Ġroute":7855,"Ġappeared":7856,"íĸĪëįĺ":7857,"comes":7858,"92":7859,"Ġíĭ":7860,"ì¹Ļ":7861,"ĠëĨĴìĿĢ":7862,"ĠëĤĺìĺ¤":7863,"isher":7864,"ìĨĲ":7865,"\"/>":7866,"ĠBeach":7867,"ĠíĻĺê²½":7868,"Ġmodule":7869,"Ġapplicable":7870,"Ġowned":7871,"Ġelectronic":7872,"Ġassets":7873,"Ġfreed":7874,"Ġdenied":7875,"Ġìĺ¤ëĬĶ":7876,"een":7877,"}=":7878,"Ġhighlight":7879,"psi":7880,"Ġwinning":7881,"2019":7882,"Ġìĸ´ëĸ»ê²Į":7883,"ê´Ģë¦¬":7884,"ĠCarol":7885,"ĠValley":7886,"Ġinvolve":7887,"ulture":7888,"inte":7889,"ensed":7890,"zen":7891,"omic":7892,"Ġeducational":7893,"Ġassessment":7894,"config":7895,"Ġtestimony":7896,"Ġshap":7897,"ĠíĶĦë¡ľê·¸ëŀ¨":7898,"ĠHD":7899,"Ġdegrees":7900,"ëıĮ":7901,"Ġstanding":7902,"ë¡ľë²Į":7903,"ograp":7904,"Ġhousing":7905,"ĠSU":7906,"Ġtasks":7907,"ìĸ´ëĤĺ":7908,"Ġmur":7909,"alog":7910,"Ġcere":7911,"cknow":7912,"Phone":7913,"Ġsupporting":7914,"300":7915,"Ġanimal":7916,"Ġquiet":7917,"Ġparameter":7918,"Ġanywhere":7919,"ë¦Ń":7920,"ingu":7921,"ria":7922,"Omega":7923,"ĠìŀĪê³ł":7924,"ĠSup":7925,"Ġpatterns":7926,"ĠìĪĺëıĦ":7927,"Ġmere":7928,"Bl":7929,"ĠRad":7930,"ALL":7931,"han":7932,"Ġment":7933,"Ġtemplate":7934,"Ġê²½ìŁģ":7935,"reens":7936,"Ġrelative":7937,"Ġaccepted":7938,"Ġsides":7939,"Ġsynt":7940,"Ġcoast":7941,"ansion":7942,"ĠTown":7943,"ëĪĦ":7944,"Ġassume":7945,"Ġvariable":7946,"Ġconsumer":7947,"ĠTom":7948,"ëĿ¼ëıĦ":7949,"ĠON":7950,"Ġsigns":7951,"Ġemphas":7952,"Ġperman":7953,"alax":7954,"hi":7955,"Ġsupports":7956,"Ġspons":7957,"Config":7958,"AV":7959,"Ġì¤ĳìĭ¬":7960,"cdot":7961,"Ġcorresponding":7962,"ĠGermany":7963,"='":7964,"Ġrecorded":7965,"Ġë²Ķ":7966,"Ġê°ķì¡°":7967,"Ġì½Ķë¡ľëĤĺ":7968,"Ġêµ¬ìĦ±":7969,"Ġlights":7970,"ala":7971,"obe":7972,"ĠCam":7973,"Ġaccurate":7974,"Ġpurchased":7975,"Ġsitting":7976,"ĠDefend":7977,"OUR":7978,"Ġinnovative":7979,"Ġcreation":7980,"Ġì¢Ģ":7981,"ë¦½ëĭĪëĭ¤":7982,"retion":7983,"uting":7984,"Ġbeat":7985,"Ġfourth":7986,"weight":7987,"ĠReal":7988,"Ġshipping":7989,"ĠWestern":7990,"ords":7991,"Ġinstit":7992,"ĠìķĦëĭĮ":7993,"ĠPan":7994,"Ġduty":7995,"Ġsentence":7996,"pass":7997,"isms":7998,"Ġunivers":7999,"Ġ150":8000,"Ġtrad":8001,"Ġpump":8002,"Ġsurf":8003,"ìĿ´ë²Ī":8004,"ĠìĿ´ëĵ¤":8005,"ĠChicago":8006,"Ġmatters":8007,"ĠBack":8008,"ìĤ¬ì§Ģ":8009,"ady":8010,"Ġplate":8011,"Ġincreases":8012,"ë¶Ģë¶Ħ":8013,"Ġsevere":8014,"lib":8015,"Ġ42":8016,"ixture":8017,"Ġtea":8018,"ĠìĿ¼ë°ĺ":8019,"Ġproviders":8020,"fil":8021,"ĠìķĬìĿĢ":8022,"ĠNor":8023,"Ġtables":8024,"Rec":8025,"static":8026,"æľ":8027,"ĠDi":8028,"Ġsuccessfully":8029,"Ġflight":8030,"íļ¨":8031,"Ġentertain":8032,"---":8033,"Ġpun":8034,"ìĿ¸ëĭ¤":8035,"ĠAS":8036,"Ġgather":8037,"eration":8038,"Ġvaluable":8039,"Ġborder":8040,"Ġtast":8041,"Ġ<<":8042,"ĠWil":8043,"Ġinspired":8044,"Ġstret":8045,"ĠLong":8046,"olars":8047,"*]{}":8048,"ificate":8049,"ë¬¸íĻĶ":8050,"Ġì°¾ìķĦ":8051,"Ġcompetitive":8052,"Ġå":8053,"Ġtechnique":8054,"apos":8055,"':":8056,"Ġcovers":8057,"ìłĦìŀĲ":8058,"Comm":8059,"agon":8060,"noon":8061,"alian":8062,"Ġreceiving":8063,"ki":8064,"Ġëĭ¹ìĭľ":8065,"Ġempt":8066,"Ġtight":8067,"Ġintellig":8068,"Ġjurisd":8069,"Ġì§ĢìĨį":8070,"ä»":8071,"Ġoccasion":8072,"Ġthr":8073,"íķĺì§Ģë§Į":8074,"TER":8075,"ĠìļĶêµ¬":8076,"raint":8077,"Ġmeal":8078,"adian":8079,"pecific":8080,"Ġ||":8081,"Ġìĺģíĸ¥":8082,"Ġgenerate":8083,"Ġê¸°ëĬ¥":8084,"Ġreject":8085,"Ġban":8086,"iform":8087,"ĠMad":8088,"ì£¼ëĭ¹":8089,"Ġbrown":8090,"Ġforth":8091,"dim":8092,"Ġidentity":8093,"');":8094,"Ġformed":8095,"ita":8096,"TC":8097,"ìķĪë§Ī":8098,"Ġlived":8099,"Ġexplained":8100,"ĠFood":8101,"Ġextract":8102,"Ġbrands":8103,"Ġhundreds":8104,"itutional":8105,"Ġaid":8106,"ĠGeorge":8107,"ĠTwitter":8108,"ptions":8109,"íı¬ì¸ł":8110,"ìľ¤":8111,"Ġalcohol":8112,"Ġì¤Ģë¹Ħ":8113,"cho":8114,"ìĽĲìĿ´":8115,"ĠìĥģìĬ¹":8116,"ĠÎ":8117,"Ġê´Ģë¦¬":8118,"ibilities":8119,"ĠSecond":8120,"ìĤ¬íļĮ":8121,"edia":8122,"Ġpayments":8123,"Ġregul":8124,"start":8125,"epsilon":8126,"Ġconsumers":8127,"Ġgrade":8128,"Ġicon":8129,"Ġcateg":8130,"Ġtum":8131,"Ġcycle":8132,"ĠìĹ¬ìĦ±":8133,"ĠEarth":8134,"Ġsau":8135,"title":8136,"igration":8137,"ìľĦë¥¼":8138,"Ġmessages":8139,"ĠWhich":8140,"ĠAp":8141,"Thank":8142,"Ġsurrounding":8143,"ìĽĲìĿĦ":8144,"Ġupdates":8145,"Ġsex":8146,".[":8147,"Ġhyper":8148,"Ġìĺ¤ìłĦ":8149,"ĠMuseum":8150,"ĠëĮĢë¹Ħ":8151,"Ġpresentation":8152,"Ġatmosp":8153,"Ġê´Ģìĭ¬":8154,"Ġstatements":8155,"igr":8156,"ĠKore":8157,"Ġrecognized":8158,"ĠTake":8159,"ĠMel":8160,"Ġsizes":8161,"Ġdesire":8162,"ĠParty":8163,"Ġphil":8164,"ĠHave":8165,"Ġmonthly":8166,"ĠCard":8167,"ĠTechnology":8168,"Ġbuff":8169,"ĠYes":8170,"Ġapps":8171,"ĠìĭľìĬ¤":8172,"Ġreaders":8173,"Ġdepth":8174,"ĠProduct":8175,"Ġgranted":8176,"chi":8177,"Yes":8178,"Ġdescribe":8179,"info":8180,"ĠìĦ±ìŀ¥":8181,"Ġnurs":8182,"Ġ38":8183,"ĠDen":8184,"ĠBill":8185,"Ġbehavi":8186,"Ġforces":8187,"stract":8188,"Ġì¶Ķì²ľ":8189,"VER":8190,"check":8191,"Ġ75":8192,"sell":8193,"ĠOnly":8194,"Ġadvertising":8195,"istan":8196,"Ġratio":8197,")).":8198,"Ġdogs":8199,"ĠBet":8200,"Ġ1000":8201,"rivate":8202,"Ġsamples":8203,"Ġpremium":8204,"Ġresearc":8205,"ĠLeague":8206,"Ġengineering":8207,"ĠWall":8208,"Ġë£":8209,"ATION":8210,"ĠëĶ°ë¥¸":8211,"oken":8212,"Ġíķ´ìĻ¸":8213,"Ġê¸°ì¡´":8214,"ĠSpe":8215,"RL":8216,"Ġsalt":8217,"Size":8218,"See":8219,"Ġbigger":8220,"Ps":8221,"Ġbreakfast":8222,"Ġ37":8223,"ĠUsing":8224,"Ġimprovement":8225,"Ġplays":8226,"ë¨¼":8227,"rition":8228,"Ġì£¼ìŀ¥":8229,"ì¼ľ":8230,"Ġtypical":8231,"ĠCentre":8232,"ĠCEO":8233,"Ġfeels":8234,"Ġbringing":8235,"case":8236,"Ġtruck":8237,"ĠJournal":8238,"ëłĮ":8239,"Ġpaying":8240,"Ġdrugs":8241,"ĠScott":8242,"aa":8243,"eper":8244,"lines":8245,"Ġrevealed":8246,"ĠFranc":8247,"Ġguarantee":8248,"Ġextension":8249,"rightarrow":8250,"ĠCorpor":8251,"ĠProv":8252,"Ġmole":8253,"eless":8254,"Ġboat":8255,"DS":8256,"ĠLog":8257,"Ġuniversity":8258,"Ġrealize":8259,"Ġì£¼ìļĶ":8260,"Ġê·¹":8261,"ĠReview":8262,"Ġpositions":8263,"nergy":8264,"ĠEnter":8265,"Ġforest":8266,"Ġtherm":8267,"ìĿĺë¥¼":8268,"Ġmine":8269,"ĠEqu":8270,"Ġperspective":8271,"Ġì¡´":8272,"Ste":8273,"Gamma":8274,"Ġappellant":8275,"Are":8276,"Ġvisiting":8277,"ì¹´ìĺ¤":8278,"ĠëŁ":8279,"Ġcommitment":8280,"2017":8281,"zing":8282,"ê¹ĮìļĶ":8283,"Ġarrived":8284,"ĠVirgin":8285,"Ġparticipate":8286,"init":8287,"othe":8288,"ano":8289,"ê¸Īì§Ģ":8290,".>":8291,"Ġcommission":8292,"Ġdeals":8293,"ums":8294,"draw":8295,"Ġconversation":8296,"ìĹĪìĬµëĭĪëĭ¤":8297,"ĠìĬ¬":8298,"color":8299,"ĠìĤ¬ê³ł":8300,"ĠDig":8301,"Ġì¦Ĳ":8302,"Ġanswers":8303,"ĠOper":8304,"Ġneighborhood":8305,"Ġlaunched":8306,"ĠInte":8307,"Ġperfectly":8308,"Ġbutter":8309,"Ġsup":8310,"ê³¡":8311,"Ġcollabor":8312,"ushed":8313,"Ġofficers":8314,"orph":8315,"ycl":8316,"Ġwriter":8317,"Ġkill":8318,"Event":8319,"tion":8320,"Ġtwice":8321,"Ġwalls":8322,"Ġconvenient":8323,"ĠJe":8324,"ĠAward":8325,"Ġtab":8326,"Ġkinds":8327,"operator":8328,"Ġpul":8329,"ĠìºĲ":8330,"Ġerrors":8331,"aked":8332,"íĦ´":8333,"len":8334,"inds":8335,"Att":8336,"ĠCO":8337,"ĠTeam":8338,"Ġbroken":8339,"eries":8340,"ìĿ´ëĿ¼ë©°":8341,"Ġê±°ëŀĺ":8342,"^*":8343,"%.":8344,"ĠAtl":8345,"Ġstructures":8346,"Ġdance":8347,"\\].":8348,"EW":8349,"ĠìĭľìĬ¤íħľ":8350,"Ġadop":8351,"Ġneut":8352,"Ġofficials":8353,"Ġwave":8354,"Ġadvis":8355,"ART":8356,"Ġì½ĺ":8357,"Ġrestaurants":8358,"íħĲ":8359,"resents":8360,"jud":8361,"ĠSpring":8362,"Ġentitled":8363,"Ġìĺ¨ëĿ¼ìĿ¸":8364,"Ġremark":8365,"ëıĦê°Ģ":8366,"ì§ĢíĦ¸":8367,"']":8368,"Ġconcerned":8369,"Ġannounce":8370,"Ġ(\"":8371,"Ġfrequency":8372,"Ġíļ¨ê³¼":8373,"Ġappreciate":8374,"estyle":8375,"rics":8376,"Ġmanufacturing":8377,"Ġstim":8378,"MC":8379,"Ġoperator":8380,"Ġvert":8381,"Ġordered":8382,"Ġneck":8383,"Ġfoods":8384,"Ġregularly":8385,"Ġmarried":8386,"Ġdrivers":8387,"Ġmel":8388,"Ġelection":8389,"sole":8390,"Ġsuggested":8391,"Ġagents":8392,"Ġfemale":8393,"ĠìŀĪìľ¼ë©°":8394,"Ġyes":8395,"Just":8396,"Sub":8397,"asp":8398,"ola":8399,"ëł¥ìĿ´":8400,"Ġshower":8401,"SI":8402,"ìĿ¼ë³´":8403,"Ġabsor":8404,")$,":8405,"ĠAfrican":8406,"ĠíķĻìĥĿ":8407,"Ġreduction":8408,"ĠCP":8409,"orem":8410,"Ġfellow":8411,"ìĭľë©´":8412,"Context":8413,"Ġvillage":8414,".'":8415,"Ġscheme":8416,"Since":8417,"aturing":8418,"Ġnegot":8419,"Ġjoy":8420,"claim":8421,"Ġprecise":8422,"Ġfunctional":8423,"Ġstatute":8424,"ĠRef":8425,"Ġinvestigation":8426,"Ġextent":8427,"Ġinsert":8428,"hem":8429,"ĠIndust":8430,"ĠFederal":8431,"ĠìŀĪìĹĪëĭ¤":8432,"Ġforg":8433,"ownt":8434,"ĠNULL":8435,"Ġguest":8436,"2016":8437,"ĠLim":8438,"}.":8439,"DE":8440,"Ġshares":8441,"ideo":8442,"ears":8443,"MP":8444,"ĠìĺĪìłķìĿ´ëĭ¤":8445,"ĠGen":8446,"burg":8447,"ìķĪìĿĦ":8448,"missions":8449,"Ġcompr":8450,"ĠTrust":8451,"uality":8452,"ĠView":8453,"oga":8454,"plete":8455,"ials":8456,"iest":8457,"Ġweap":8458,"tem":8459,"Ġcos":8460,"Ġtrend":8461,"Ġdepends":8462,"Ġped":8463,"car":8464,"Ġdish":8465,"íĺ¼":8466,"Ġì§Ģìłģ":8467,"ë¯":8468,"prene":8469,"Ġsolar":8470,"ĠDou":8471,"Ġauthent":8472,"ĠLouis":8473,"ãĢĤ":8474,"ĠFrank":8475,"ë°Ģ":8476,"Ġstd":8477,"ĠLtd":8478,"ĠMedical":8479,"Ġphen":8480,"public":8481,"Ġkick":8482,"Ġafternoon":8483,"SL":8484,"ĠOld":8485,"Ġperm":8486,"Ġnetworks":8487,"âĢĻ.":8488,"umer":8489,"Ġcrime":8490,"ê·¸ë£¹":8491,"ato":8492,"igan":8493,"Ġmanual":8494,"Ġsheet":8495,"Ġsq":8496,"Ġcutting":8497,"Ġmouth":8498,"Ġbattle":8499,"Ġregistration":8500,"Ġusual":8501,"Build":8502,"Ġemp":8503,"Ġë¸Įëŀľëĵľ":8504,"Ġmatrix":8505,"Ġreput":8506,"onic":8507,"ĠHead":8508,"Ġrevenue":8509,"ĠWhere":8510,"ìĭľíĤ¤":8511,"aine":8512,"ëªħìĿĦ":8513,"Ġdecades":8514,"ĠEU":8515,"Ġlighting":8516,"Ġtested":8517,"ĠBas":8518,"irty":8519,"Ġpassword":8520,"ĠìĥģíĴĪ":8521,"Ġcoach":8522,"ba":8523,"ĠNY":8524,"Ġmilk":8525,"Ġê°ľìĦł":8526,"bal":8527,"Ġìŀł":8528,"Ġacknow":8529,"Ġë³´ìĹ¬":8530,"Ġregions":8531,"Ġcooking":8532,"ĠShow":8533,"Ġspecified":8534,"Ġodd":8535,"Ġcitizens":8536,"Ġ400":8537,")?":8538,"Ġsubmit":8539,"Ġflowers":8540,"áĦıáĦı":8541,"Ġtopics":8542,"reprene":8543,"Once":8544,"Ġëª°":8545,"true":8546,"ìĤ¬ì§Ħ":8547,"Ġmassive":8548,"law":8549,"ĠìĿĺë¯¸":8550,"DR":8551,"abet":8552,"Ġliability":8553,"ulous":8554,"return":8555,"she":8556,"Ġcandidates":8557,"Ġfrequently":8558,"Ġcomparison":8559,"Ġwheel":8560,"Ġhousehold":8561,"Ġliquid":8562,"Ġath":8563,"Ġisol":8564,"';":8565,"ĠëĮĢíķĻ":8566,"Ġê·¸ëĬĶ":8567,"ĠìĹ¬íĸī":8568,"False":8569,"Ġelig":8570,"ĠìĹĨìĿ´":8571,"Ġfle":8572,"Fig":8573,"ĠFund":8574,"Ġends":8575,"Ġast":8576,"Ã¼":8577,"Ġknowing":8578,"Ġbrowser":8579,"Ġscientific":8580,"Ġenforce":8581,"Ġoccurred":8582,"ĠHotel":8583,"psilon":8584,"Ġrail":8585,"Ġorganic":8586,"Ġê°ľìµľ":8587,"Ġ]":8588,"celer":8589,"ìĿ¼ë¶ĢíĦ°":8590,"Ġë³´ë©´":8591,"actory":8592,"Ġbike":8593,"Ġë¶Ħìķ¼":8594,"ĠOrgan":8595,"ĠíĸīìĤ¬":8596,"Ġstre":8597,"length":8598,"Ġguy":8599,"Ġpregn":8600,"ĠInstead":8601,"ĠNetwork":8602,"real":8603,"Ġìħ":8604,"otten":8605,"ĠJapanese":8606,"west":8607,"endar":8608,"ĠëĲĺëĬĶ":8609,"ĠEnd":8610,"Ġsessions":8611,"ĠSP":8612,"ĠDev":8613,"Ġê³µëıĻ":8614,"ĠIr":8615,"ĠìĹĦ":8616,"ìĽĲìĿĢ":8617,"orry":8618,"};":8619,"Ġfly":8620,"Ġinstruct":8621,"Ġnoise":8622,"ĠThomas":8623,"you":8624,"ìĻĶëĭ¤":8625,"ĠStart":8626,"Ġinteraction":8627,"Ġok":8628,"ĠTim":8629,"ĠSupreme":8630,"ë¥´ëĬĶ":8631,"Ġê³¨":8632,"ìĿ´ìĹĪëĭ¤":8633,"Ġmixed":8634,"Ġìľ¤":8635,"Trans":8636,"Ġinfrastructure":8637,"Ġë¬¼ë¡ł":8638,"GB":8639,"Ġrepresents":8640,"Ġnative":8641,"ĠFamily":8642,"Ġ\"\"":8643,"ĠMach":8644,"Ġrenew":8645,"Ġexperiment":8646,"vell":8647,"uling":8648,"Ġmeat":8649,"ĠTre":8650,"Ġbegins":8651,"íĿ¥":8652,"orders":8653,"Ġturns":8654,"ĠWho":8655,"ĠExper":8656,"Ġhouses":8657,"ĠRobert":8658,"ĠProt":8659,"ìŀ¡":8660,"ĠCR":8661,"Ġpossibility":8662,"annels":8663,"Ġglad":8664,"Ġmac":8665,"Ġbelief":8666,"2015":8667,"ë¶ĢëĬĶ":8668,"ìĿ¼ê¹Įì§Ģ":8669,"Ġdamages":8670,"ĠìĶ¨":8671,"Ġintegrated":8672,"ĠWilliam":8673,"ye":8674,"Ġprompt":8675,"ket":8676,"ìĸ´ìĦľ":8677,"Ġ64":8678,"nce":8679,"ĠìłĦëŀµ":8680,"Ġunable":8681,"Ġconfiguration":8682,"Ġmachines":8683,"ifies":8684,"po":8685,"Ġentirely":8686,"roller":8687,"ĠLead":8688,"ĠPri":8689,"ê¸ĪìĿĦ":8690,"cons":8691,"Ġregulations":8692,"Ġamb":8693,"Ġcontaining":8694,"ĠVict":8695,"Ġnine":8696,"Ġhistorical":8697,"Ġrough":8698,"Ġrequirement":8699,"ĠSand":8700,"Ġrental":8701,"Ġstudied":8702,"Ġsituations":8703,"áĨ":8704,"ighter":8705,"Ġcarefully":8706,"ocated":8707,"ìĭľìĹĲ":8708,"ĠëŃ":8709,"thon":8710,"FC":8711,"Ġsoul":8712,"Ġcompare":8713,"Ġabuse":8714,"Ġeditor":8715,"Ġexposure":8716,"rary":8717,"Ġmand":8718,"ona":8719,"Ġìľłì§Ģ":8720,"Ġfilms":8721,"object":8722,"ĠAustralian":8723,"Ġformal":8724,"Ġcollected":8725,"){":8726,"Ġconsideration":8727,"Ġlib":8728,"sible":8729,"Ġëĸł":8730,"athe":8731,"option":8732,"otal":8733,"url":8734,"Ġauthors":8735,"gener":8736,"Per":8737,"Sec":8738,"ĠëĦĪë¬´":8739,"esterday":8740,"uffer":8741,"azz":8742,"ìī":8743,"ĠLast":8744,"íĸĪê³ł":8745,"Ġax":8746,"ML":8747,"Ġteeth":8748,"........":8749,"version":8750,"ui":8751,"Ġmeasured":8752,"Index":8753,"ĠPlaintiff":8754,"´ëł":8755,"Ġcomplaint":8756,"Ġachieved":8757,"Ġstopped":8758,"Ġ65":8759,"âĪ":8760,"Ġfreedom":8761,"IST":8762,"erves":8763,"ĠëĤľ":8764,"Ġcompliance":8765,"vare":8766,"rency":8767,"Ġcontained":8768,"Ġtickets":8769,"Ġemotional":8770,"Ġsan":8771,"Ġincredible":8772,"Ġdollars":8773,"ĠPeter":8774,"Ġempty":8775,"IO":8776,"Ġê²½ì°°":8777,"Ġdeploy":8778,"oster":8779,"ê°ľë°ľ":8780,"ĠSoftware":8781,"ora":8782,"ĠìĬ¤ë§ĪíĬ¸":8783,"ìĿ¸ìĿĺ":8784,"Ġfacilit":8785,"ë¦¬ìĹĲ":8786,"Ġhardware":8787,"Ġconver":8788,"icing":8789,"ync":8790,"inity":8791,"Ġarbit":8792,"Ġ120":8793,"Ġcheese":8794,"Ġ55":8795,"block":8796,"db":8797,"áĨŀ":8798,"Ģë¡ľ":8799,"Ġpublish":8800,"Ġê¸°ê°Ħ":8801,"Ġacts":8802,"Ġchocolate":8803,"Ġtrained":8804,"ëªħìĿĺ":8805,"ĠGlobal":8806,"Ġmainly":8807,"Ġinhib":8808,"Ġdynamic":8809,"ĠëıĪ":8810,"Ġchicken":8811,"writ":8812,"Check":8813,"erning":8814,"OG":8815,"Ġplanned":8816,"bert":8817,"Ġbread":8818,"Įĵ":8819,"ĠìĹŃìĭľ":8820,"Ġsubstantial":8821,"bsp":8822,"Ġexclusive":8823,"Ġindicate":8824,"Ġcarbon":8825,"Ġrecon":8826,"Fl":8827,"Ġriver":8828,"kins":8829,"ĠíıĲ":8830,"ĠIde":8831,"Ġtelevision":8832,"Ġdating":8833,"ĠiPhone":8834,"ĠSecret":8835,"Ġagencies":8836,"Ġê³¼ìłķ":8837,"ĠArts":8838,"cor":8839,"ĠíĻ©":8840,"Ġchallenging":8841,"Ġìķħ":8842,"Ġqualified":8843,"Ġease":8844,"/(-":8845,"ulty":8846,"Ġfort":8847,"AND":8848,"Ġë§¤ì¶ľ":8849,"Ġreferred":8850,"atre":8851,"Ġrelation":8852,"Last":8853,"ĠAdminist":8854,"cular":8855,"Ġê·¸ëŁ¬ëĤĺ":8856,"Ġindeed":8857,"Ġtub":8858,"Ġcontemporary":8859,"Ġkilled":8860,"erry":8861,"ëĭ¤ë©´":8862,"[]":8863,"!\"":8864,"ìį¨":8865,"Ġcreates":8866,"ults":8867,"Ġframework":8868,"source":8869,"Ġmir":8870,"Ġroutine":8871,"Ġinjuries":8872,"Hand":8873,"ĠíĥĦ":8874,"Ġcoupl":8875,"íķĺëł¤":8876,"ena":8877,"Ġattached":8878,"ì§ľ":8879,"Ġëŀ":8880,"åħ":8881,"irms":8882,"ëĨį":8883,"ì§ĢëĤľ":8884,"Ġìŀ¥ê´Ģ":8885,"acter":8886,"idget":8887,"Ġinstrument":8888,"ìĽĲìĿĺ":8889,"Ġcloser":8890,"ĠPass":8891,"ĠìĨ¡":8892,"ĠDownload":8893,"Ġappointment":8894,"ĠInvest":8895,"Ġengage":8896,"input":8897,"Ġëĸ¨ìĸ´":8898,"'.":8899,"ĠLu":8900,"Ġìłģê·¹":8901,"Ġ..":8902,"Ġê³Ħìķ½":8903,"appy":8904,"Ġskill":8905,"ĠEX":8906,"Ġstudio":8907,"uing":8908,"ĠëįĶìļ±":8909,"amental":8910,"Ġfell":8911,"Ġsubmitted":8912,"EG":8913,"Ġdur":8914,"ools":8915,"Ġgrown":8916,"Ġìī½":8917,"Ġestimated":8918,"ĠìĿ´ëł":8919,"ìĪĻ":8920,"íĴį":8921,"Ġexpenses":8922,"Ġwal":8923,"ographic":8924,"Ġtough":8925,"Ġë¯¸ëŀĺ":8926,"orld":8927,"encing":8928,"orable":8929,"Ġsolve":8930,"Node":8931,"ĠìĦ±ê³µ":8932,"ĠMedia":8933,"Ġpersons":8934,"Ġcro":8935,"Ġ39":8936,"ìĬ¤íģ¬":8937,"gent":8938,"ĠConference":8939,"ìĹħì²´":8940,"ëĭ¤ê°Ģ":8941,"Ġë³´ëĤ":8942,"Pe":8943,"ĠExt":8944,"SU":8945,"Ġinvent":8946,"Ġspeaking":8947,"SH":8948,"ĠAsia":8949,"ìĦ¸ê³Ħ":8950,"ipal":8951,"ĠManager":8952,"Ġpainting":8953,"Ġpin":8954,"According":8955,"ĠLos":8956,"Ġinner":8957,"Ġsupposed":8958,"Ġaccord":8959,"Ġanx":8960,"kg":8961,"Act":8962,"uzz":8963,"Ġcooper":8964,"ĠìĿĳ":8965,"Ġinstitutions":8966,"Ġdigit":8967,"Ġcapable":8968,"Ġdestination":8969,"ì§Ģê°Ģ":8970,"ĠVer":8971,"md":8972,"ĠPerson":8973,"ĠAud":8974,"Ã¶":8975,"Ġexistence":8976,"ĠMax":8977,"Ġregional":8978,"Ġequation":8979,"Ġscope":8980,"ĠConnect":8981,"Ġê³µê¸ī":8982,"ì½ľ":8983,"Ġawareness":8984,"produ":8985,"Inter":8986,"Ġì¼":8987,"Ġconclusion":8988,"ìĿ´ìĹĲ":8989,"\\,":8990,"Ġinvestors":8991,"ĠêµŃíļĮ":8992,"ĠBud":8993,"Ġequivalent":8994,"Ġserves":8995,"ĠHand":8996,"asts":8997,"Ġelev":8998,"ĠíĬ¹ë³Ħ":8999,"langle":9000,"ĠCL":9001,"Ġaccessible":9002,"Ġworldwide":9003,"ĠJose":9004,"ëĥ¥":9005,"ĠMinister":9006,"ĠSK":9007,"Ġandroid":9008,"ĠLo":9009,"Ġcourts":9010,"Ġ1999":9011,"Ġdefe":9012,"Ġunlike":9013,"ìłľë¥¼":9014,"ĠAff":9015,"Ġexecutive":9016,"nab":9017,"ëıĻìķĪ":9018,"Ġdesired":9019,"Ġking":9020,"Ġtransaction":9021,"ĠNav":9022,"ĠMoreover":9023,"ëģ¼":9024,"Ġoperate":9025,"Ġapartment":9026,"Ġê¸Ģë¡ľë²Į":9027,"ìĸ¼":9028,"ĠCat":9029,"Ġkeeps":9030,"ading":9031,"ĠThrough":9032,"Ġresistance":9033,"ĠAdv":9034,"Ġevolution":9035,"ĠëıĮìķĦ":9036,"êµ¬ìļĶ":9037,"Equ":9038,"Color":9039,"Ġrear":9040,"Ġupload":9041,"cs":9042,"())":9043,"ĠPlus":9044,"Ġshoes":9045,"Every":9046,"ìŀ¥ìĿĺ":9047,"ĠCA":9048,"image":9049,"Ġsac":9050,"Ġstored":9051,"Ġdraft":9052,"ilst":9053,"ITY":9054,"._":9055,"Ġinject":9056,"Ġevaluation":9057,"osoph":9058,"core":9059,"arge":9060,"Ġinformed":9061,"Ġsauce":9062,"Ġì¹¨":9063,"ĠíĥĪ":9064,"Ġtaught":9065,"yan":9066,"ìŀ¥ìĹĲìĦľ":9067,"Ġê·Ģ":9068,"Ġ((":9069,"Ġcontrols":9070,"lets":9071,"run":9072,"ĠSpan":9073,"ĠíĻĪ":9074,"Ġfro":9075,"Ab":9076,"Ġspr":9077,"Ġminim":9078,"ë°ĶìĿ¼":9079,"Ġconstantly":9080,"Ġê°ĲìĤ¬":9081,"CO":9082,"mond":9083,"ĠCle":9084,"Ġdiverse":9085,"Ġvector":9086,"ĠRest":9087,"ĠìĬ¤íĥĢ":9088,"Ġê±´ê°ķ":9089,"Ġcaught":9090,"Ġstyles":9091,"Ġprison":9092,"Ġë¬´ë£Į":9093,"Ġbirthday":9094,"Ġlinear":9095,"php":9096,"Ġprofit":9097,"Ġmonitoring":9098,"Ġclosely":9099,"Ġtrouble":9100,"Ġreb":9101,"anda":9102,"Click":9103,"open":9104,"ounder":9105,"VD":9106,"ĠMa":9107,"Ġprivacy":9108,"pes":9109,"node":9110,"Ġnoticed":9111,"íķľëĭ¤ê³ł":9112,"Ġdirected":9113,"ĠìĦ¤ì¹ĺ":9114,"Ġmale":9115,"Ġprosec":9116,"fortunately":9117,"ëĤĺìļĶ":9118,")/(-":9119,"Ġthorough":9120,"Ġfoundation":9121,"Ġversions":9122,"Ġmeetings":9123,"Ġcandidate":9124,"isters":9125,"Ġscan":9126,"ìĿ¸ì§Ģ":9127,"ayer":9128,"Ġcounty":9129,"ĠíĮĲëĭ¨":9130,"ĠRoyal":9131,"Ġimagine":9132,"ithub":9133,"xx":9134,"Ġfeatured":9135,"ĠGive":9136,"2014":9137,"CON":9138,"íĺĢ":9139,"uts":9140,"bles":9141,"ìĦ¸ë¥¼":9142,"Ġelectron":9143,"ì¿ł":9144,"íĻĺê²½":9145,"ĠìĿ¸íĦ°ëĦ·":9146,"operatorname":9147,"Map":9148,"Ġremoval":9149,"ê·¸ëŁ¬":9150,"Ġexpressed":9151,"Ġyellow":9152,"Ġ-->":9153,"ele":9154,"Ġattrib":9155,"aren":9156,"ìĿ¸ìĿĢ":9157,"Ġsister":9158,"Ġë¹Ħë¡¯":9159,"Ġsuggests":9160,"Next":9161,"´ë¬":9162,"Ġbowl":9163,"dden":9164,"Ġpenal":9165,"Calculate":9166,"Ġìĸ»":9167,"space":9168,"íĺ¹":9169,"ĠWH":9170,"ĠExec":9171,"Ġmoments":9172,"ondition":9173,"Ġì°¸ìĦĿ":9174,"Ġrisks":9175,"ìłĲìĿĦ":9176,"Ġreligious":9177,"Ġpil":9178,"Count":9179,"Code":9180,"Log":9181,"Ġsilver":9182,"Another":9183,"Ġimmun":9184,"ëŁ¬ìĬ¤":9185,"400":9186,"ITH":9187,"ãĢĳ":9188,"ëĮĢë¥¼":9189,"vas":9190,"Ġdangerous":9191,"ħĦ":9192,"ìĬ¤íĥĢ":9193,"ì£Ħ":9194,"oral":9195,"ĠCanadian":9196,"varepsilon":9197,"ĠControl":9198,"ĠPenn":9199,"ãĢĲ":9200,"ĠìĿ´ë¦Ħ":9201,"Ġzone":9202,"ĠParis":9203,"OK":9204,"Ġì»¨":9205,"rox":9206,"ì°¸":9207,"Field":9208,"eding":9209,"ensional":9210,"varphi":9211,"Rem":9212,"å®":9213,"Ġnormally":9214,"Ġ95":9215,"ì»´":9216,"ĠChief":9217,"ĠBi":9218,"Ġfulf":9219,"ĠHaw":9220,"stone":9221,"Ġhire":9222,"Ġluxury":9223,"Ġconcrete":9224,"ello":9225,"Ġìĭ¤ìĭľ":9226,"ĠCert":9227,"uine":9228,"hire":9229,"umes":9230,"ospit":9231,"Ġreplaced":9232,"Ġcrucial":9233,"Ġrequested":9234,"race":9235,"Ġclar":9236,"Ġinstruction":9237,"ĠDoes":9238,"íĻį":9239,"orial":9240,"Ġnearby":9241,"inally":9242,"Ġcircuit":9243,"Ġíķ´ê²°":9244,"Ġrequests":9245,"Ġsusp":9246,"ĠCup":9247,"ĠAcademy":9248,"Ġleather":9249,"ĠAnother":9250,"ultural":9251,"Ġexpectations":9252,"Ġcontribute":9253,"ĠHuman":9254,"ĠRussian":9255,"Ġgro":9256,"cope":9257,"ĠItalian":9258,"Ġlandscape":9259,"Ġbless":9260,"Ġprovision":9261,"Ġ(!":9262,"Ġconcerning":9263,"Ġtrail":9264,"AIL":9265,"wing":9266,"Ġspeech":9267,"Ġflexible":9268,"Ġoriginally":9269,"EP":9270,"Ġconfirmed":9271,"Ġjew":9272,"Ġretire":9273,"Ġconsists":9274,"Ġë°©ìĨ¡":9275,"merce":9276,"Ġmedicine":9277,"Ġenth":9278,"ĳ¸":9279,"Ġë°ľìłĦ":9280,"ĠìĺģíĻĶ":9281,"Ġdeck":9282,"Ġjack":9283,"ĸìĹĲ":9284,"Ġcake":9285,"Ġì§Īë¬¸":9286,"ëŀĻ":9287,"ĠBefore":9288,"Ġpartnership":9289,"Ġresidential":9290,"ĠMexico":9291,"Ġtom":9292,"Ġpharm":9293,"ĠThose":9294,"ether":9295,"bold":9296,"ĠSeries":9297,"Ġnarrow":9298,"Ġwealth":9299,"´ë§":9300,"Ġcrew":9301,"Ġworse":9302,"ĠDemocr":9303,"Ġforced":9304,"/(":9305,"aturally":9306,"HT":9307,"ĠìĺģìĹħ":9308,"ì§ĢìĽĲ":9309,"neys":9310,"ĠìŀĲìĭłìĿĺ":9311,"Ġê°Ģì¡±":9312,"ìĥģìĿ´":9313,"api":9314,"Ġstrict":9315,"Ent":9316,"Ġoutstanding":9317,"íĮĮíĬ¸":9318,"Ġ1990":9319,"Ġíģ¬ê²Į":9320,"Ġhorse":9321,"\":\"":9322,"Ġdiscretion":9323,"Ġstands":9324,"front":9325,"ê´":9326,"Ġquery":9327,"Ġsudden":9328,"ĠKeep":9329,"Ġcontrolled":9330,"ĠëķĮë¬¸ìĿ´ëĭ¤":9331,"then":9332,"Ġjurisdiction":9333,"Ġvel":9334,"ĠPac":9335,"Ġlimits":9336,"Ġfib":9337,"ĠìĦłìłķ":9338,"Ġloop":9339,"ipt":9340,"800":9341,"born":9342,"Ġnil":9343,"last":9344,"ĠRoom":9345,"ĠEnergy":9346,"Ġperforming":9347,"Ġsearching":9348,"Ġsupplies":9349,"Aut":9350,"Ġê²½ìĺģ":9351,"Ġawarded":9352,"Ġprinciples":9353,"Point":9354,"Many":9355,"Ġmini":9356,"ĠíĿ¬":9357,"RS":9358,"Ġfairly":9359,"ĠMult":9360,"Ġrepresentation":9361,"ĠJudge":9362,"Ġarchitecture":9363,"ĠKey":9364,"nbsp":9365,"ÃŃ":9366,"Ġinnovation":9367,"ĠíĦ°":9368,"Ã¤":9369,"Ġdelight":9370,"Ġcapture":9371,"uction":9372,"bi":9373,"Ġindicated":9374,"Ass":9375,"Ġstable":9376,"Ġscheduled":9377,"Ġpapers":9378,"rich":9379,"ìĿ¸ìĿĦ":9380,"Ġë°Ģ":9381,"ìĹĦ":9382,"Ġmountain":9383,"®¤":9384,"EA":9385,"Ġatmosphere":9386,"2013":9387,"Note":9388,"Ġfo":9389,"Ġhealthcare":9390,"ëĬĶëĭ¤":9391,"ĠìĤ¬ëŀĳ":9392,"Ġcoc":9393,"Ġhidden":9394,"ĠWomen":9395,"Call":9396,"ìĹĩ":9397,"Ġlift":9398,">>":9399,"iams":9400,"Ġvital":9401,"Ġdust":9402,"ìĥµ":9403,"Ġlinked":9404,"Ġadequ":9405,"ulf":9406,"ĠPack":9407,"Array":9408,"ë³´íĹĺ":9409,"Ġê¸°ë³¸":9410,"kes":9411,"ushing":9412,"########":9413,"2012":9414,"Ġentertainment":9415,"ĠOk":9416,"Ġimmediate":9417,"ì¹ĺëĬĶ":9418,"Ġ44":9419,"Ġæ":9420,"Ġexpansion":9421,"HS":9422,"oston":9423,"DP":9424,"ĠLED":9425,"Ġshock":9426,"ìĪĺê°Ģ":9427,"Ġmuscle":9428,"ĠGall":9429,"actor":9430,"ìķĶ":9431,"aven":9432,"Ġ1998":9433,"Ġchat":9434,"Ġchoosing":9435,"Ġformation":9436,"Ġtells":9437,"Ġpip":9438,"Ġimpossible":9439,"Ġprogramme":9440,"Ġwest":9441,"Ġhappening":9442,"ĠFestival":9443,"Ġìļ¸":9444,"Ġdestroy":9445,"Ġmagnetic":9446,"Ġvariables":9447,"Ġmissed":9448,"ìĬ¨":9449,"quir":9450,"ìĬ¤íĦ°":9451,"connect":9452,"zer":9453,"ĠMP":9454,"ĠëĨĵ":9455,"Ġedition":9456,"Ġincident":9457,"hemat":9458,"Ġprimarily":9459,"2000":9460,"Ġamounts":9461,"after":9462,"Ser":9463,"ìħ¨":9464,"Ġpoll":9465,"ĠMaybe":9466,"ëĭ¬ëŁ¬":9467,"rance":9468,"Ġdomestic":9469,"Well":9470,"Ġorganized":9471,"Ġestimate":9472,"Ġinfect":9473,"ailable":9474,"Ġemployer":9475,"Ġbelieved":9476,"Ġtissue":9477,"ella":9478,"ura":9479,"Ġticket":9480,"Ġ\\,":9481,"Ġcalc":9482,"Ã³":9483,"Ġresort":9484,"author":9485,"Ġanalyt":9486,"Ġguidance":9487,"Ġoutcome":9488,"ìĿ¸íĬ¸":9489,"Gener":9490,"Ġvent":9491,"Ġinspiration":9492,"ëıĻìĿĦ":9493,"Ġcertified":9494,"Ġnom":9495,"Ġimpressive":9496,"Ġìĭľë¯¼":9497,"itage":9498,"oolean":9499,"Ġeleg":9500,"^{(":9501,"raction":9502,"astern":9503,"Ġsetup":9504,"Ġfacing":9505,"Ġlifestyle":9506,"itan":9507,"Ġsoil":9508,"Ġcontribution":9509,"Ġëªĩ":9510,"Ġresearchers":9511,"}_{\\":9512,"Ġcorrectly":9513,"ounter":9514,"ìļ°ë¦¬":9515,"ĠEconom":9516,"Ġ01":9517,"Ġdefendants":9518,"racy":9519,"ĠResp":9520,"Ġongoing":9521,"Ġhosting":9522,"ĠWal":9523,"ĠDNA":9524,"ĠSM":9525,"Ġrom":9526,"ĠFed":9527,"Pr":9528,"Ġpersonally":9529,"ĠìķĦì§ģ":9530,"Ġsections":9531,"Ġvend":9532,"Ġreward":9533,"obby":9534,"ëįķ":9535,"inent":9536,"ĠìĿ´ëłĩ":9537,"Ġscr":9538,"Ġeveryday":9539,"à¸":9540,"Ġmm":9541,"away":9542,"Ġë§Įíģ¼":9543,"adow":9544,"ollowing":9545,"Ġsplit":9546,"ëĮĢíķľ":9547,"Ġê½":9548,"Ġsuc":9549,"ìĭľìĦ¤":9550,"Ġremainder":9551,"Ġvisible":9552,"\",\"":9553,"Ġminimal":9554,"Ġadm":9555,"Ġaffil":9556,"ĠPub":9557,"?âĢĿ":9558,"Ġmanif":9559,"ĠRussia":9560,"Ġtur":9561,"Ġoccurs":9562,"ìĪĺë¥¼":9563,"Ġcable":9564,"TO":9565,"Ġdates":9566,"ĠVirginia":9567,"ĠSH":9568,"Ġfraud":9569,"Ġtaxes":9570,"Ġchannels":9571,"Ġcontinuous":9572,"Ġbes":9573,"RI":9574,"ìģ":9575,"ĠJohnson":9576,"Ġesc":9577,"ĠNov":9578,"Ġmuseum":9579,"ĠMA":9580,"Ġalign":9581,"Ġstack":9582,"Ġwra":9583,"Ġimproving":9584,"Ġgene":9585,"Ġsubjects":9586,"ĠPhot":9587,"Ġrepresented":9588,"Ġcollaboration":9589,"ĠFinally":9590,"Ġguard":9591,"ptr":9592,"åĲ":9593,"][":9594,"ĠSuch":9595,"Ġì±ħìŀĦ":9596,"Part":9597,"ĠWay":9598,"FT":9599,"ìŀĲë¡ľ":9600,"Ġrecognize":9601,"ĠìłĦê¸°":9602,"Ġì¤ĳìķĻ":9603,"Ġmargin":9604,"ilty":9605,"ĠAccess":9606,"ĠëĶĶìŀĲìĿ¸":9607,"ëĲĺì§Ģ":9608,"fs":9609,"Also":9610,"ĠMS":9611,"ĠìĹħì²´":9612,"gend":9613,"Ġgolf":9614,"Ġvast":9615,"ìĹĨìĿ´":9616,"Then":9617,"Ġë¿Ĳ":9618,"ĠLibrary":9619,"Ġgarage":9620,"Ġages":9621,"Ġtestified":9622,"Ġsurprise":9623,"ĠìĿĺê²¬":9624,"âĩ":9625,"Ġinvolves":9626,"Service":9627,"Ġëĵ±ìĹĲ":9628,"íķĺìĦ¸ìļĶ":9629,"Ġturning":9630,"Ġthin":9631,"Ġì£½":9632,"Ġdiagram":9633,"Ġdealing":9634,"Ġì¡°ê¸Ī":9635,"Ġelectrical":9636,"ĠìŀĲìľł":9637,"Ġmanufacturer":9638,"Ġveter":9639,"allel":9640,"reement":9641,"Ġinteract":9642,"ĠAuthor":9643,"Ġdiscipl":9644,"Ġpassing":9645,"ĠìĿ´ìĹĲ":9646,"holders":9647,"TY":9648,"Ġconcert":9649,"Ġclimb":9650,"Ġundert":9651,"Ġtou":9652,"Ġë¨¼":9653,"ëĮĢíĳľ":9654,"Ġbanks":9655,"Ġìłķìĥģ":9656,"ĠìķĬìķĺ":9657,"Table":9658,"BL":9659,"Request":9660,"Ġbool":9661,"ĠDu":9662,"Ġreporting":9663,"ëĶĶìĸ´":9664,"vy":9665,"Ġrecover":9666,"BM":9667,"ë²½":9668,"write":9669,"Ġhall":9670,"ĠVictor":9671,"Ġinvolving":9672,"Ġgrew":9673,"Ġstunning":9674,"Ġê°ģê°ģ":9675,"Ġìľ¡":9676,"ìĦľë¹ĦìĬ¤":9677,"ĠFour":9678,"Ġê²¬":9679,"}^{\\":9680,"umps":9681,"Ġpm":9682,"etch":9683,"Ġtor":9684,"ĠJo":9685,"Ġconflict":9686,"Ġarts":9687,"Ġdemonstrate":9688,"Ġliterature":9689,"Ġurban":9690,"asant":9691,"Ġentreprene":9692,"ë¡Ń":9693,"Ġmovies":9694,"zed":9695,"ìĻĦ":9696,"Ġgear":9697,"Ġreaction":9698,"Ġsight":9699,")-":9700,"Ġplanet":9701,"Ġille":9702,"ventional":9703,"Ġadventure":9704,"okes":9705,"Ġsky":9706,"ĠChildren":9707,"ĠAmericans":9708,"Ġreader":9709,"uous":9710,"ĠìĦ¤ëªħíĸĪëĭ¤":9711,"Ġearned":9712,"oking":9713,"Ġwidely":9714,"ĠìŀĪëĬĶëį°":9715,"Ġkm":9716,"ogue":9717,"Ġë§Įëĵ¤ìĸ´":9718,"Ġdental":9719,"Ġloans":9720,"ĠBal":9721,"Ġë³´ëĬĶ":9722,"Ġfeaturing":9723,"ìļķ":9724,"va":9725,"ĠHospital":9726,"Ġlatter":9727,"edge":9728,"ĠNext":9729,"ector":9730,"Ġapplying":9731,"Ġapproaches":9732,"made":9733,"Ġmoist":9734,"Ġbehalf":9735,"ĠHen":9736,"Ġhole":9737,"Ġchapter":9738,"Ġfavourite":9739,"Ġinn":9740,"Ġraw":9741,"ë£Įë¥¼":9742,"stood":9743,"Ġblocks":9744,"Ġwet":9745,"Ġassociation":9746,"Most":9747,"ĠìĹŃíķł":9748,"Ġpert":9749,"ĠMartin":9750,"ĠSpanish":9751,"Ġmusical":9752,"''":9753,"Ġwinner":9754,"ĠCa":9755,"================================":9756,"Ġpermanent":9757,"Ġmixture":9758,"Ġwearing":9759,"Start":9760,"ê±°ëŀĺ":9761,"Ġancient":9762,"ĠìĪĺì¶ľ":9763,"Ġsought":9764,"ĠReport":9765,"Ġcompensation":9766,"Ġslot":9767,"ìĻĶ":9768,"ĶĶ":9769,"Ġpossess":9770,"Before":9771,"ĠíĴĢ":9772,"ĠEr":9773,"post":9774,"ĠType":9775,"ĠStep":9776,"íĭĢ":9777,"asters":9778,"vec":9779,"ĠAngeles":9780,"Ġcompat":9781,"ugh":9782,"Ġsavings":9783,"Ġcontainer":9784,"Ġequipped":9785,"anger":9786,"ë³¼":9787,"Group":9788,"lymp":9789,"Ġbear":9790,"ë°ĶìĿ´":9791,"Ġclothes":9792,"ĠOl":9793,"Ġclassroom":9794,"ìĸ¸ë¡ł":9795,"ĠIre":9796,"UD":9797,"ĠMiddle":9798,"Ġê²½íĹĺ":9799,"ĠíļĮìĤ¬":9800,"Ġpreparation":9801,"ĠANY":9802,"ĠìķĬìĿĦ":9803,"Ġcommittee":9804,"Ġupcoming":9805,"Ġultimately":9806,"Ġformula":9807,"star":9808,"Ġrecording":9809,"Ġspectrum":9810,"Ġairport":9811,"Ġtransportation":9812,"num":9813,"Ġnecessarily":9814,"ëĵľëĬĶ":9815,"Ġengaged":9816,"Ġì§Ģë°©":9817,"Ġsad":9818,"Ġíķĺë£¨":9819,"essel":9820,"ĠChampions":9821,"BI":9822,"icted":9823,"enger":9824,"CM":9825,"Exp":9826,"Ġrig":9827,"inem":9828,"Ġíĺ¼":9829,"Ġsaving":9830,"rypt":9831,"Ġbonus":9832,"Ġcharacteristics":9833,"ĠDivision":9834,"war":9835,"Ġhunt":9836,"Ġëī´ìĭľìĬ¤":9837,"ĠBuy":9838,"êµ´":9839,"Ġë°Ľê³ł":9840,"ĠSign":9841,"cur":9842,"Although":9843,"ĠFull":9844,"Ġengagement":9845,"Ġadvoc":9846,"Ġpercentage":9847,"Ġplane":9848,"Ġtelling":9849,"folio":9850,"Ġboys":9851,"ĠCarolina":9852,"Ġjustice":9853,"ĠPoint":9854,"elcome":9855,"ĠMur":9856,"ëĳĳ":9857,"Ġchief":9858,"ĠFair":9859,"Ġtrends":9860,"nam":9861,"ĠCath":9862,"person":9863,"}}_":9864,"ì¤Ħ":9865,"Ġmembership":9866,"ĠAPI":9867,"Ġsensitive":9868,"Ġrealized":9869,"Ġscholars":9870,"ilton":9871,"Ġsaved":9872,"}}(":9873,"ĠJim":9874,"Ġ1997":9875,"ĠëĮĢë¶Ģë¶Ħ":9876,"ĠCircuit":9877,"ĠCross":9878,"obs":9879,"QU":9880,"Ġhero":9881,"Ġ43":9882,"Ġadds":9883,"Ġgenuine":9884,"ĠAT":9885,"ĠOrder":9886,"ere":9887,"ĠOhio":9888,"2010":9889,"ĠCy":9890,"select":9891,"arian":9892,"Ġcampus":9893,"Ġbeer":9894,"Ġ});":9895,"Ġmanaging":9896,"Ġbone":9897,"ashed":9898,"ìŀ¥ìĹĲ":9899,"orgeous":9900,"More":9901,"ĠGeorg":9902,"ĠFile":9903,"Model":9904,"osc":9905,"Ġcategories":9906,"Ġdumpster":9907,"Ġalgorithm":9908,"Ġcrusher":9909,"Ġsin":9910,"Ġresid":9911,"ì¶ĺ":9912,"ĠCost":9913,"bin":9914,"plates":9915,"ĠMen":9916,"Net":9917,"Ġsucceed":9918,"iche":9919,"Ġstorm":9920,"ĠComput":9921,"Ġê°Ģìŀħ":9922,"KE":9923,"ìĿ´ê°Ģ":9924,"ĠMid":9925,"Ġindepend":9926,"utch":9927,"github":9928,"ĠAri":9929,"etric":9930,"Oh":9931,"Ġdisplayed":9932,"ĠAssist":9933,"Ġ49":9934,"Ġexplan":9935,"Ġvacation":9936,"Ġlessons":9937,"Ġusage":9938,"ĠCreat":9939,"Ġapproval":9940,"Ġstrategic":9941,"ĠCommon":9942,"Ġenthus":9943,"Ġfounded":9944,"Ġê³µìĭĿ":9945,"ĠCast":9946,"symbol":9947,"âķ":9948,"ĠìĻľ":9949,"Ġgifts":9950,"Ġlegisl":9951,"Ġflash":9952,"Which":9953,"Ġcycl":9954,"alysis":9955,"ĠìŀĲì²´":9956,"ëĵ¯":9957,"Ġtiny":9958,"Ġaside":9959,"uls":9960,"Ġarms":9961,"Ġmarriage":9962,"ĠíĹ¤":9963,"rog":9964,"quare":9965,"Ġdesigner":9966,"REE":9967,"Ġconcentr":9968,"ĠRule":9969,"Ġstrongly":9970,"itis":9971,"Ġsupplement":9972,"Americ":9973,"content":9974,"ĠìŀĳìĹħ":9975,"Big":9976,"Ġcommunications":9977,"Ġoutcomes":9978,"Ġfont":9979,"Ġsuperior":9980,"ename":9981,"osa":9982,"Ġcriteria":9983,"Ġ};":9984,"site":9985,"Ġvisited":9986,"Ġviolence":9987,"´ëĵ¤":9988,"Ġinches":9989,"Ġintegration":9990,"ĠSaf":9991,"Ġalt":9992,"Ġdetermination":9993,"yna":9994,"ĠëĶĶì§ĢíĦ¸":9995,"åĪ":9996,"Ġë§ĮëĤĺ":9997,"Ġguidelines":9998,"ĠíĻķë³´":9999,"ĠBoston":10000,"Ġspiritual":10001,"berry":10002,"Ġfitness":10003,"Ġcontest":10004,"Ġìļ°ëł¤":10005,"ican":10006,"Ġreducing":10007,"Ġfigures":10008,"Ġpresents":10009,"erate":10010,"Ġtreatments":10011,"ĠLee":10012,"¤íĬ¸":10013,"ĠìĿ´ìłĦ":10014,"Ġpp":10015,"Ġproven":10016,"Ġbranch":10017,"ìĻķ":10018,"ĠSupport":10019,"Dis":10020,"ĠLin":10021,"íĩ´":10022,"ĠíĮĶ":10023,"yard":10024,"Ġflood":10025,"Ġobjective":10026,"Ġepisode":10027,"ĠGame":10028,"ĠName":10029,"ĠArab":10030,"Ġfishing":10031,"ĠDisc":10032,"ĠìĥĿíĻľ":10033,"Ġdownt":10034,"íļĮìĤ¬":10035,"Ġê°ĻìĿ´":10036,"ĠíĴį":10037,"ĠDC":10038,"Ġeast":10039,"Ġattended":10040,"rogen":10041,"Ġcausing":10042,"Ġtalent":10043,"Ġfinds":10044,"íķ´ì£¼":10045,"Ġmortgage":10046,"apped":10047,"Ġmechanism":10048,"ĠìĤ¬ìĿ´íĬ¸":10049,"rep":10050,"Ġnuclear":10051,"ĠìĦłê±°":10052,"Ġkit":10053,"íĤ¨":10054,"\"></":10055,"Ġacceler":10056,"charge":10057,"ëľ":10058,"ê°ĢìļĶ":10059,"stal":10060,"Ġìłľìŀĳ":10061,"ped":10062,"Ġplatforms":10063,"Ġìĸ´ëĬĲ":10064,"ê³¨":10065,"ĠìľĦì¹ĺ":10066,"Ġwhenever":10067,"Ġë³´íĹĺ":10068,"ĠTour":10069,"overline":10070,"Ġhandling":10071,"ĠColumb":10072,"ĠChair":10073,"BO":10074,"Ġ47":10075,"ĠContact":10076,"ì§ĢëıĦ":10077,"Ġque":10078,"Ġcommonly":10079,"Ġìĸ¼ë§Ī":10080,"istent":10081,"gments":10082,"Ġcelebrate":10083,"ìĬ¤ë¥¼":10084,".\\[":10085,"ĠëĬĲëĤ":10086,"Ġ46":10087,"PM":10088,"Ġvul":10089,"2011":10090,"Ġrepeated":10091,"Ġmg":10092,"Ġconstit":10093,"ëĲ©ëĭĪëĭ¤":10094,")^":10095,"ĠRoman":10096,"Ġmarked":10097,"Ġ41":10098,"ìĵ":10099,"ainer":10100,"dict":10101,"Ġpod":10102,"Ġfundamental":10103,"create":10104,"ĠLine":10105,"Ġanticip":10106,"ĠJones":10107,"Ġpotentially":10108,"Ġdocumentation":10109,"Ġëª¸":10110,"ĠTR":10111,"Ġmit":10112,"ĠFort":10113,"Ġroles":10114,"ĠCoast":10115,"Ġneither":10116,"gas":10117,"Ġ1996":10118,"Ġbodies":10119,"ĠíĽ":10120,"Ġreputation":10121,"ĠìĿ¸ìłķ":10122,"Ġtall":10123,"ĠFar":10124,"ĠJustice":10125,"ëĵ¤ëıĦ":10126,"ĠSar":10127,"ĠíĴĪ":10128,"ĠFurthermore":10129,"íıĲ":10130,"**]{},":10131,"Ġstretch":10132,"geq":10133,"Ġsubt":10134,"ircraft":10135,"Ġconnections":10136,"ĠTimes":10137,"ĠJul":10138,"ĠEnt":10139,"Ġauthorities":10140,"Ġchose":10141,"Ġillness":10142,"Ġbridge":10143,"Ġtrick":10144,"profit":10145,"Ġprotocol":10146,"Ġbasket":10147,"ðŁ":10148,"Ġcrack":10149,"ĠSouthern":10150,"Ġshell":10151,"ĠìĹħë¬´":10152,"Ġfloat":10153,"**(-":10154,"Ġìķķ":10155,"ĠCalculate":10156,"Ġlimitations":10157,"lights":10158,"Ġ52":10159,"ĠLink":10160,"Ġpermission":10161,"ëĤ¬ëĭ¤":10162,"ĠInsurance":10163,"ìŀĲëıĻì°¨":10164,"Ġyesterday":10165,"Ġë§¡":10166,"Ġassigned":10167,"Ġprinted":10168,"ĠGar":10169,"íĶ½":10170,"iser":10171,"ĠìĻ¸êµŃ":10172,"Ġë³´ìĿ¸ëĭ¤":10173,"Ġpeak":10174,"Message":10175,"scale":10176,"íĻĢ":10177,"Comp":10178,"íĤ¹":10179,"Ġcontend":10180,"Ġremind":10181,"Ref":10182,"Ġhook":10183,"Ġmining":10184,"ani":10185,"ĠLib":10186,"Ġìĩ":10187,"ĠTerm":10188,"Ġenables":10189,"pc":10190,"intage":10191,"ĠItaly":10192,"Ġtap":10193,"ì¡°ìĤ¬":10194,"Ġaccuracy":10195,"ìĦłìĿĦ":10196,"Ġhur":10197,"Ġfasc":10198,"ĠWalk":10199,"Ġbench":10200,"Ġslowly":10201,"ĠDigital":10202,"User":10203,"expected":10204,"Ġorient":10205,"ê¸Īìľµ":10206,"Ġgraduate":10207,"Ġsustainable":10208,"ìĶ©":10209,"elled":10210,"ĠScot":10211,"LS":10212,"ĠAccount":10213,"det":10214,"Ġdisappoint":10215,"Ġintroduction":10216,"ĠìĿ´ìłľ":10217,"HP":10218,"Ġdrawing":10219,"Ð»":10220,"Find":10221,"ras":10222,")'":10223,"circ":10224,"Look":10225,"ĠVan":10226,"ĠìĿ´íķ´":10227,"Ġtank":10228,"Ġlistening":10229,"ĠIM":10230,"ĠFR":10231,"Ġadj":10232,"Ġìı":10233,"ĠPage":10234,"Ġevaluate":10235,"Ġregardless":10236,"ìĬĪ":10237,"ferent":10238,"Ġpoker":10239,"ĠYoung":10240,"Ġgrass":10241,"ulating":10242,"Ġloves":10243,"Ġìĭłì²Ń":10244,"Ġsending":10245,"ìłķì±ħ":10246,"ĠWilliams":10247,"Ġpleased":10248,"ë¯¼êµŃ":10249,"Ġattacks":10250,"bm":10251,"ĠíķĻêµĲ":10252,"Ġdirectory":10253,"itory":10254,"liers":10255,"Ġworkshop":10256,"Ġê²Ģì°°":10257,"Ġìĥģëĭ¹":10258,"roke":10259,"Ġê³łëł¤":10260,"Ġreserved":10261,"Ġpriority":10262,"foot":10263,"âľ":10264,"ĠëĮĢìĥģìľ¼ë¡ľ":10265,"Ġrein":10266,"teen":10267,"Ġê³ĦíļįìĿ´ëĭ¤":10268,"Ġeligible":10269,"summary":10270,"%%":10271,"Ġoblig":10272,"Ġë°Ķê":10273,"ĠëĤ´ëħĦ":10274,"Ġê°ĲìĨĮ":10275,"Ġdispos":10276,"Ġquantum":10277,"ĠìĿ´ëłĩê²Į":10278,"Select":10279,"Ġproducing":10280,"iano":10281,"sect":10282,"ĠìŀĪì§Ģë§Į":10283,"ì¶ľìŀ¥ìķĪë§Ī":10284,"Ġuniform":10285,"ĠíĺĲ":10286,"iac":10287,"ĠUt":10288,"001":10289,"ĠëıĦìĭľ":10290,"Ġë°©ìĭĿ":10291,"ĠWild":10292,"Ġnewly":10293,"oret":10294,"Ġhabit":10295,"Ġhoriz":10296,"unicip":10297,"ORT":10298,"Ġclaimed":10299,"Ġflavor":10300,"Ġsomewhat":10301,"Ġ250":10302,"ilarly":10303,"Ġpromise":10304,"Ġcompact":10305,"ä½":10306,"Ġviolation":10307,"----------------------------------------------------------------":10308,"ĠNS":10309,"å¤":10310,"Ġathlet":10311,"Te":10312,"Ġconfident":10313,"DB":10314,"Ġresponses":10315,"appa":10316,"Ġguilty":10317,"Ġarguments":10318,"Ġë³´ëıĦ":10319,"ì§Ħëĭ¤":10320,"ĠiP":10321,"Ġpill":10322,"Ġphotograp":10323,"ĠìĦłë³´":10324,"Ġguitar":10325,"Ġsegment":10326,"cers":10327,"ĠHistory":10328,"Ġmodified":10329,"Ġ()":10330,"ĠIreland":10331,"Ġsecondary":10332,"íĺĳíļĮ":10333,"Ġcodes":10334,"Ġnewsp":10335,"Ġcrisis":10336,"ERS":10337,"ĠìĿ´ìķ¼ê¸°":10338,"Ġlosing":10339,"ailed":10340,"íĹĮ":10341,"Ġì¿ł":10342,"ĠìŀĳíĴĪ":10343,"ëĶ©":10344,"ĠIII":10345,"mic":10346,"Ġshops":10347,"Element":10348,"Ġantib":10349,"ëĦĪì§Ģ":10350,"Ġbottle":10351,"Ġplot":10352,"FR":10353,"ĠCook":10354,"Box":10355,"brid":10356,"íķľëĭ¤ëĬĶ":10357,"Ġhistoric":10358,"Ġintroduce":10359,"ë¶Ħê¸°":10360,"ĠìĿ´ëıĻ":10361,"Ġmatches":10362,"Ġplain":10363,"Ġmanufacturers":10364,"Ġìķŀìľ¼ë¡ľ":10365,"ih":10366,"frak":10367,"Ġtech":10368,"ĠOS":10369,"Ġbreast":10370,"Ġenem":10371,"ĠBow":10372,"ĠìĿ¸ì²ľ":10373,"ĠCharl":10374,"elly":10375,"Ġprovisions":10376,"Ġgap":10377,"AME":10378,"model":10379,"ĠHope":10380,"ĠZeal":10381,"ĠJeff":10382,"íĶĦíĬ¸":10383,"Ġangle":10384,"Ġoffense":10385,"Ġëĳĺ":10386,"pg":10387,"Ġìĭľíĸī":10388,"ìĦ¸ëĮĢ":10389,"Ġremained":10390,"OB":10391,"Ġjava":10392,"oted":10393,"Ġëĥ":10394,"iders":10395,"ê²łëĭ¤ëĬĶ":10396,"ìłĦíŀĪ":10397,"Ġì¦ī":10398,"Ġrecognition":10399,"Ġë¹ĦêµĲ":10400,"Ġopposite":10401,"Ġinvited":10402,"Ġavailability":10403,"Ġmoves":10404,"Ġrecept":10405,"Ġadopted":10406,"FA":10407,"Ġmarks":10408,"\").":10409,"dr":10410,"ometry":10411,"ĠÂ·":10412,"Ġarrive":10413,"Ġë§¤ìļ°":10414,"ĠëıĦìŀħ":10415,"normal":10416,"Ġlists":10417,"ëŀ«":10418,"Ġ99":10419,"Line":10420,"Ġmaps":10421,"ìĬ¤ëĬĶ":10422,"ĠSD":10423,"Use":10424,"Ġíķ´ìķ¼":10425,"ĠMs":10426,"Ġtip":10427,"Ġrecommendations":10428,"ĠíķĦìļĶíķľ":10429,"(&":10430,"Ġì£¼ë¯¼":10431,"Ġsmile":10432,"ao":10433,"Ġoral":10434,"Ġprogramming":10435,"ĠOlymp":10436,"ĠPlace":10437,"Ġphotography":10438,"ĠSystems":10439,"Ġoffices":10440,"Ġmeals":10441,"func":10442,"Ġì¤ĳê³ł":10443,"PG":10444,"Ġkne":10445,"Ġyounger":10446,"Ġimplemented":10447,"Ġalter":10448,"Ġê²ĥëıĦ":10449,"May":10450,"ìŀĲëĵ¤ìĿ´":10451,"Ġcute":10452,"ìĽĢìĿĦ":10453,"Ġsubsequent":10454,"Ġlayout":10455,"ABLE":10456,"ĠUSB":10457,"iki":10458,"ASS":10459,"Ġoven":10460,"ĠìĹĶì§Ħ":10461,"ĠìĨĮê°ľ":10462,"Ġbags":10463,"haust":10464,"Ġalert":10465,"ĠEN":10466,"Ġnutrition":10467,"Ġëĵ±ë¡Ŀ":10468,"only":10469,"Ġherself":10470,"Ġsatisfied":10471,"Ġtack":10472,"600":10473,"Ġíĺ¹":10474,"ĠPolice":10475,"Ġbreath":10476,"Ġdemonstrated":10477,"uct":10478,"Ġultimate":10479,"Ġ1980":10480,"Ġtox":10481,"ĠHon":10482,"Ġampl":10483,"anguages":10484,"íľ´":10485,"Ġsomewhere":10486,"Su":10487,"Ġunknown":10488,"agues":10489,"awn":10490,"ĠìĿ´ë£":10491,"Ġdiseases":10492,"ĠNon":10493,"Ġweekly":10494,"Ġunderlying":10495,"olar":10496,"ìĹĪëįĺ":10497,"Ġíıīê·ł":10498,"lements":10499,"Ġpicking":10500,"Ġlapt":10501,"Ġquote":10502,"Ġdivide":10503,"Ġclothing":10504,"ìķĮ":10505,"ĠëĤĺìĺ¨":10506,"Ġëª©íĳľ":10507,"Ġstain":10508,"Ġfolks":10509,"ìĦľë¥¼":10510,"Ġindicates":10511,"Ġteen":10512,"terior":10513,"Ġinsight":10514,"Off":10515,"Ġprobability":10516,"Ġsick":10517,"iana":10518,"eling":10519,"nda":10520,"ĠVill":10521,"ĠSometimes":10522,"ĠBM":10523,"ĠZealand":10524,"cover":10525,"Ġcapabilities":10526,"ĠìĭľìĦ¤":10527,"ìĨĶ":10528,"Ġmillions":10529,"Ġìĸ´ë¦°":10530,"Ġhospit":10531,"INT":10532,"Ġtourn":10533,"TML":10534,"Ġseriously":10535,"ĠBoy":10536,"\\],":10537,"Press":10538,"ëį°ìĿ´":10539,"Ġrely":10540,"Ġdevelopers":10541,"Ġunw":10542,"Ġboxes":10543,"Ġec":10544,"ĠBible":10545,"Ġtwenty":10546,"ì¤":10547,"oured":10548,"Ġacting":10549,"íħĲì¸ł":10550,"ìłķëıĦ":10551,"OST":10552,"ê¶ĮìĿĦ":10553,"ì¹´ëĵľ":10554,"ansas":10555,"Ġdriven":10556,"Ġsurprised":10557,"iece":10558,"Ġattractive":10559,"Ġseed":10560,"osph":10561,"ĠëĮĢìĿĳ":10562,"Dr":10563,"Ġmagazine":10564,"Ġshooting":10565,"Ġhel":10566,"Ġhang":10567,"Ġabsence":10568,";;":10569,"XX":10570,"********************************":10571,"Ġenterprise":10572,"ĠPrem":10573,"ĠãĢ":10574,"Ġlowest":10575,"Ġêµ¬ì¡°":10576,"Ġconsumption":10577,"ê±°ë¦¬":10578,"Ġconcentration":10579,"íķľíİ¸":10580,"eting":10581,"ê°ĢëĬ¥":10582,"´ëŁ":10583,"Ġë³ĢíĻĶ":10584,"Ġì§ĳì¤ĳ":10585,"Ġcritic":10586,"ì¹Ń":10587,"During":10588,"Ġreform":10589,"Co":10590,"ĠStat":10591,"ì°¨ë¥¼":10592,"Ġcopyright":10593,"Ġviewed":10594,"Ġdrawn":10595,"zil":10596,"ĠSite":10597,"Ġhealing":10598,"Ġlip":10599,"Ġdecrease":10600,"Property":10601,"sters":10602,"ĠNO":10603,"ensor":10604,"ĠRichard":10605,"Ġbasically":10606,"ë¶Ģë¥¼":10607,"Ġagric":10608,"illiant":10609,"æĸ":10610,"Ġinitially":10611,"Ġwhereas":10612,"abetes":10613,"Ġgate":10614,"ìłĦìĿĦ":10615,"GL":10616,"Fi":10617,"*(":10618,"Ġaccomplish":10619,"ĠMichigan":10620,"ĠLittle":10621,"ĠBed":10622,"Ġphilosoph":10623,"Ġcabin":10624,"Ġë¬´ìĹĩ":10625,"Ġdivision":10626,"mem":10627,"ĠEngineering":10628,"Ġprev":10629,"onent":10630,"stra":10631,"Ġflag":10632,"DC":10633,"Ġliked":10634,"Ġnaturally":10635,"ê°ĲìĿĦ":10636,"ê³¼ìĿĺ":10637,"Ġincreasingly":10638,"ĠëĮĢêµ¬":10639,"Ġapplies":10640,"Ġpermit":10641,"Ġìłľì£¼":10642,"Ġattach":10643,"ìĿ´ëĵľ":10644,"Ġderived":10645,"Ġfirms":10646,"Ġ1995":10647,"Ġhonor":10648,"rick":10649,"Ġunderstood":10650,"ĠCorporation":10651,"Ġì¶ľìŀ¥":10652,"eller":10653,"Ġpreferred":10654,"Ġdent":10655,"ĠìĿ´ë¤Ħ":10656,"ĠLocal":10657,"Ġdecade":10658,"Ġaccordance":10659,"inates":10660,"Ġì¢ĭìķĦ":10661,"Ľ°":10662,"Ġfinance":10663,"Ġbars":10664,"Ġceremon":10665,"riers":10666,"Ġsuffering":10667,"ĠChris":10668,"mt":10669,"Ġexamination":10670,"aints":10671,"Ġê¸°ë°ĺ":10672,"Ġindustries":10673,"Ġcontinuing":10674,"Ġhumans":10675,"ìķŀ":10676,"ĠëĲĲëĭ¤":10677,"ìłľê°Ģ":10678,"ĠSO":10679,"including":10680,"ĠEll":10681,"Ġsrc":10682,"Ġoverw":10683,"Ġmerely":10684,"ĠPacific":10685,"Ġtravell":10686,"Ġconclude":10687,"Ġexplicit":10688,"Ġë°ĽìĿĢ":10689,"íĥķ":10690,"ĠIsl":10691,"ëĭĿ":10692,"Ġwalked":10693,"Image":10694,"Ġtracks":10695,"Ġemployed":10696,"Ġëħ¸ëıĻ":10697,"PP":10698,"Ġwriters":10699,"ĠìľĦìĽĲ":10700,"xml":10701,"onym":10702,"dep":10703,"Ġproport":10704,"TE":10705,"¤ëĭ¤":10706,"ĠAI":10707,"ĠKen":10708,"Ġgallery":10709,"rot":10710,"odge":10711,"Ġmerch":10712,"lections":10713,"Ġconcepts":10714,"otted":10715,"Ġrevers":10716,"Ġawards":10717,"ensure":10718,"ĠíļĮìĽĲ":10719,"ĠHard":10720,"Ġphr":10721,"lers":10722,"ĠDefendant":10723,"Ġcommunicate":10724,"Each":10725,"ê°ĻìĿĢ":10726,"Ġcareful":10727,"Ġyard":10728,"Ġrice":10729,",,":10730,"Ġfault":10731,"Fil":10732,"sem":10733,"Ġrecall":10734,"Ġterror":10735,"ĠFarm":10736,"ĠMike":10737,"Ġêµ¬ì¶ķ":10738,"abel":10739,"Ġlogo":10740,"Ġchronic":10741,"ĠìĤ¶":10742,"Ġgrounds":10743,"UE":10744,"oz":10745,"Ġblank":10746,"ê´Ģê³Ħ":10747,"Ġtutor":10748,"quality":10749,"ardens":10750,"Ġmanagers":10751,"Ġcontributions":10752,"ĠCur":10753,"Ġcovering":10754,"ogether":10755,"Ġsymm":10756,"ìĪĺëĬĶ":10757,"ĠPy":10758,"Ġê·¸ê²ĥ":10759,"oven":10760,"ĠURL":10761,"reated":10762,"ĠEnvironment":10763,"Ġê¸´":10764,"Ġëľ»":10765,"Ġwarranty":10766,"ëĭ¥":10767,"Ġexposed":10768,"Ġprospect":10769,"ĠJersey":10770,"ĠExecutive":10771,"%),":10772,"Ġ${":10773,"ëī´ìĭľìĬ¤":10774,"amps":10775,"Ġcalculated":10776,"Ġdispl":10777,"Ġexport":10778,"otton":10779,"ĠLeg":10780,"Ġrecipes":10781,"Ġdiagnosis":10782,"Ġvulner":10783,"Ġbinding":10784,"ACK":10785,"ĠPDF":10786,"Ġblow":10787,"names":10788,"Ġvessel":10789,"Ġcertificate":10790,"abs":10791,"Ġpowder":10792,"Ġwireless":10793,"Ġë°ĶìĿ´":10794,"Ġê°Ģì§Ģ":10795,"Resp":10796,"ì¦ĺ":10797,"Ġarr":10798,"Ġdetection":10799,"Ġmic":10800,"Ġpackages":10801,"local":10802,"ëıĻìĤ°":10803,"Ġ(\\":10804,"ĠLive":10805,"ikes":10806,"´ë¬¼":10807,"Ġíĺģ":10808,"worth":10809,"ĠìķĮìķĦ":10810,"Ġcomplicated":10811,"Ġê³µê°Ħ":10812,"Ġdistingu":10813,"Ðº":10814,"Ġdual":10815,"ĠNorthern":10816,"Ġê³µê²©":10817,"Ġgent":10818,"ĠObama":10819,"Ġìĭłê³ł":10820,"agraph":10821,"amber":10822,"Ġkeys":10823,"Ġprohib":10824,"Ġfestival":10825,"Manager":10826,"rane":10827,"Ġstreets":10828,"Ġstability":10829,"Ġìĺ¬ëĿ¼":10830,"Lambda":10831,"Ġpad":10832,"Ġheating":10833,"Ġchecking":10834,"ĠAbout":10835,"Ġgorgeous":10836,"Ġconsent":10837,"formance":10838,"Ġstake":10839,"Ġdeposit":10840,"UI":10841,"Ġwarn":10842,"onds":10843,"oup":10844,"ĠEq":10845,"ĠDub":10846,"Ġmagic":10847,"Ġ101":10848,"ĠOp":10849,"Ġgalax":10850,"cut":10851,"ìĽĲìĹĲ":10852,"Ġdropped":10853,"Ġsink":10854,"Ġpurs":10855,"tex":10856,"ĠSmall":10857,"Param":10858,"INE":10859,"ìĬ¤ë¡ľ":10860,"Ġunus":10861,"ĠPut":10862,"Ġburden":10863,"ĠWi":10864,"ĠAdditionally":10865,"ê·Ģ":10866,"arks":10867,"Ġneglig":10868,"ceived":10869,"Ġlies":10870,"Ġinteger":10871,"ĠArmy":10872,"bound":10873,"Ġenroll":10874,"ë¯Ģë¡ľ":10875,"ëĳĳìĿ´":10876,"Ġ600":10877,"ĠSpirit":10878,"ĠCN":10879,"Sm":10880,"Book":10881,"Ġrender":10882,"Ġargues":10883,"ĠHor":10884,"Ġphenomen":10885,"Ġë¶Ģëĭ´":10886,"Ġprinting":10887,"ĠCharles":10888,"Ġê´Ģê´ĳ":10889,"Ġalongside":10890,"ĠSanta":10891,"ìķķ":10892,"Ġ+=":10893,"Ġê¶ģ":10894,"Ġmile":10895,"ĠJackson":10896,"ennis":10897,"ĠMcC":10898,"first":10899,"ERE":10900,"Ġsuggestions":10901,"íķĺê¸°ë¡ľ":10902,"abil":10903,"bel":10904,"ĠOfficer":10905,"Ġmeasurements":10906,"ëĤĺëĬĶ":10907,"101":10908,"aver":10909,"2008":10910,"Ġclock":10911,"Ġlegs":10912,"Ġê´":10913,"ĠTurn":10914,"ĠIran":10915,"Ġmaintaining":10916,"Ġseats":10917,"Ġpor":10918,"GE":10919,"Ġrepresentative":10920,"ĠExpl":10921,"Ke":10922,"łµ":10923,"Ġinfection":10924,"Ġtransmission":10925,"spe":10926,"Vis":10927,"Ġportfolio":10928,"Ġíĺĳëł¥":10929,"Ġaccessories":10930,"mathfrak":10931,"Ġmaxim":10932,"Ġrating":10933,"ĠFigure":10934,"ĠCab":10935,"Ġchecked":10936,"Ġinspe":10937,"Ġstages":10938,"Ġmaintained":10939,"Ġëħ¸ëł¥":10940,"ellect":10941,"ĠTri":10942,"cket":10943,"Ġrose":10944,"SM":10945,"ĠHim":10946,"Ġworst":10947,"ĠìĻĢ":10948,"ĠìĿ´ëĬĶ":10949,"quot":10950,"íķĺìĭľ":10951,"Ġhoping":10952,"System":10953,"inois":10954,"Ġtwe":10955,"Ġinch":10956,"íķĺëĬĶëį°":10957,"Bar":10958,"ja":10959,"ĠíķĺëĿ½":10960,"Ġ56":10961,"Ġaircraft":10962,"Ġneighb":10963,"Am":10964,"ĠStudents":10965,"ĠKn":10966,"Ġensuring":10967,"Ġtemporary":10968,"ë§Īëĭ¤":10969,"prot":10970,"pending":10971,"athered":10972,"Ġscored":10973,"usal":10974,"Ġads":10975,"Ġ{#":10976,"ĠìĿ¸ìĤ¬":10977,"Ġconscious":10978,"lder":10979,"ĠëŁ¬":10980,"etary":10981,"Ġspecialist":10982,"!)":10983,"format":10984,"ĠìķĶ":10985,"íŀĮ":10986,"ìłķìĿ´":10987,"Ġlayers":10988,"imer":10989,"ĠìľłëŁ½":10990,"Ġmemories":10991,"valid":10992,"ĠInstagram":10993,"ĠGames":10994,"Ġgrid":10995,"ĠJun":10996,"nic":10997,"ëıĦìĿĺ":10998,"Ġbare":10999,"Ġoperators":11000,"gress":11001,"PD":11002,"Ġfaculty":11003,"ĠUser":11004,"ì¼ĵ":11005,"Ġconcluded":11006,"dir":11007,"Ġinteractions":11008,"Ġtomorrow":11009,"ĠNever":11010,"ĠìĹ°ê²°":11011,"ĠLow":11012,"ypes":11013,"]:":11014,"igate":11015,"vity":11016,"default":11017,"Ġspoke":11018,"ĠWorks":11019,"íĤ¬":11020,"Ġobviously":11021,"ìĭ±":11022,"Ġclosing":11023,"Ġë§Ľ":11024,"theless":11025,"ĠRight":11026,"ulum":11027,"ocity":11028,"Ġresulted":11029,"ws":11030,"ĠThree":11031,"ìĺģìĥģ":11032,"Ġparticipation":11033,"ĠRam":11034,"ione":11035,"ì¦Į":11036,"OUT":11037,"LA":11038,"iking":11039,"utory":11040,"Ġlie":11041,"Ġwash":11042,"ocument":11043,"Ġ51":11044,"ĠWITH":11045,"$(":11046,"Phi":11047,"2009":11048,"ĠField":11049,"Ġpulled":11050,"gt":11051,"Ġlargely":11052,"Ġpy":11053,"ĠLy":11054,"Ġwhilst":11055,"Date":11056,"itud":11057,"current":11058,"ĠSC":11059,"duate":11060,"ĠAppellant":11061,"Ġlens":11062,"Ġadministrative":11063,"Ġflour":11064,"cat":11065,"ixed":11066,"RC":11067,"ëĮĢìĿĺ":11068,"Ġadmitted":11069,"Ġë¹Ħìļ©":11070,"Ġtransactions":11071,"erman":11072,"ĠìĦ¼":11073,"[\\":11074,"Ġlawyer":11075,"ĠTry":11076,"Ġrug":11077,"OUN":11078,"ĠAgreement":11079,"Ġcompletion":11080,"Ġfactory":11081,"Ġfunctionality":11082,"Ġproposal":11083,"Where":11084,"Ġìµľì´Ī":11085,"Even":11086,"ĠSecretary":11087,"Ġhence":11088,"Ġsoph":11089,"Ġtradition":11090,"process":11091,"Ġcarrying":11092,"xid":11093,"anted":11094,"Ġlucky":11095,"Ġresidence":11096,"ĠìĿ½":11097,"íĪ¬ìŀĲ":11098,"Ġcrowd":11099,"result":11100,"Ġunion":11101,"Ġê±´ìĦ¤":11102,"cludes":11103,"Ġexperimental":11104,"reshold":11105,"ĠTax":11106,"Gl":11107,"Ġeggs":11108,"ocy":11109,"Ġfeelings":11110,"ãģ®":11111,"Ġdiscovery":11112,"ĠStore":11113,"gical":11114,"Ġtemperatures":11115,"ëĭ¨ì²´":11116,"Ġìĭłê·ľ":11117,"olly":11118,"sis":11119,"agen":11120,"ariant":11121,"ICE":11122,"Ġíŀ":11123,"craft":11124,"PT":11125,"Ġëĵ±ìľ¼ë¡ľ":11126,"ĠKnow":11127,"Ġë¬¸ìłľê°Ģ":11128,"ĠSn":11129,"Head":11130,"Ġ54":11131,"ailing":11132,"ĠSearch":11133,"Ġexceptional":11134,"References":11135,"acks":11136,"redit":11137,"ĠProcess":11138,"Ġassuming":11139,"ê°Ģë¥¼":11140,"Ġlikes":11141,"Ġforum":11142,"!!!!":11143,"ê¸°ê°Ħ":11144,"Ġpublication":11145,"Ġê¿":11146,")/(":11147,"ìķĪìłĦ":11148,"ĠPract":11149,"Ġtit":11150,"Ġdil":11151,"¢°":11152,"Ģëĵľ":11153,"Ġíķĺì§Ģ":11154,"ĠMain":11155,"ĠKingdom":11156,"Ġ85":11157,"ĠCivil":11158,"Ġkil":11159,"ĠHaving":11160,"Ġêµ¬ìŀħ":11161,"Ġstead":11162,"ĠSea":11163,"Ġpra":11164,"ĠBu":11165,"Ġupgrade":11166,"ĠëĬ¥":11167,"ëĭ·":11168,"Ġjoining":11169,"įëĭĪëĭ¤":11170,"Ġlegislation":11171,"Ġjun":11172,"Ġmob":11173,"ì¹ł":11174,"Ġcoal":11175,"friendly":11176,"rine":11177,"ĠìĽĮ":11178,"ëħĦê°Ħ":11179,"ìĶ¨ëĬĶ":11180,"ìĽĢìĿ´":11181,"ĠKar":11182,"otype":11183,"src":11184,"Tube":11185,"ê°Ģê°Ģ":11186,"ells":11187,"Ġoverwhel":11188,"Ġprincipal":11189,"ĠDie":11190,"Ġstruggle":11191,"ĠFrancisco":11192,"Ġreverse":11193,"Ġterrit":11194,"Ġimprovements":11195,"Ġcontents":11196,"Ġprinciple":11197,"Ġcalendar":11198,"Ġìĸ¸ë¡ł":11199,"Source":11200,"ĠíķŃê³µ":11201,"liament":11202,"newsis":11203,"Ġintention":11204,"inch":11205,"pay":11206,"Ġanxiety":11207,"ê°ĳ":11208,"Ġgreatly":11209,"Ġuint":11210,"opic":11211,"aud":11212,"ë³´ê³ł":11213,"Ġcombine":11214,"Ġê´Ģíķľ":11215,"Ġwooden":11216,"Ġsurprising":11217,"Ġanyway":11218,"ĠEvent":11219,"ects":11220,"ëŁŃ":11221,"imation":11222,"rat":11223,"Ġram":11224,"Ġexhaust":11225,"ĠWeek":11226,"Ġautomatic":11227,"ĠDid":11228,"Ġenjoying":11229,"Ġfolder":11230,"Ġpurchasing":11231,"home":11232,"Ġmodify":11233,"Ġfighting":11234,"earing":11235,"bsite":11236,"ì½ĺ":11237,"Back":11238,"Ġdoctors":11239,"ĠFinancial":11240,"Make":11241,"ĠJac":11242,"apore":11243,"ëħķ":11244,"Ġvibr":11245,"Ġtracking":11246,"Ġìłķë§Ĳ":11247,"Stream":11248,"Ġrefund":11249,"aneous":11250,"Ġorganis":11251,"ëł¸ëĭ¤":11252,"Ġsmallest":11253,"ĠBon":11254,"¬íķľ":11255,"Ġsharp":11256,"Ġdrinking":11257,"Ġacquired":11258,"Ġì°©":11259,"Ġprivile":11260,"Ġappointed":11261,"gebra":11262,"uns":11263,"Ġasset":11264,"Ġacquis":11265,"Ø§":11266,"Ġplaintiffs":11267,"íķĺìĺĢ":11268,"Have":11269,"Ġtooth":11270,"ldots":11271,"alo":11272,"Ġpink":11273,")*(":11274,"Ġ(âĢľ":11275,"Ġdimension":11276,"Ġë³´íĺ¸":11277,"util":11278,"ĠBox":11279,"enth":11280,"ĠìŀĲëıĻ":11281,"ko":11282,"Ġê°ĢëĬ¥íķľ":11283,"endif":11284,"Ġstronger":11285,"Ġfits":11286,"ë°ĶëĳĳìĿ´":11287,"ĠíĥĢìĿ´":11288,"Ġproved":11289,"ĠCorp":11290,"Ġincredibly":11291,"was":11292,"bered":11293,"Ġê²©":11294,"Dec":11295,"Ġstuck":11296,"Ġwithdraw":11297,"Ġdelete":11298,"ĠFL":11299,"Ġproceedings":11300,"AF":11301,"Ġexhibition":11302,"issions":11303,"illy":11304,"ĠObject":11305,"Ġextends":11306,"Ġsignature":11307,"Ġheads":11308,"iors":11309,"ĠServer":11310,"Ġlect":11311,"itative":11312,"ëį¤":11313,"Ġcenters":11314,"![":11315,"ĠAgain":11316,"ìĩ¼":11317,"Ġvictory":11318,"ĠArea":11319,"150":11320,"Ġconstructed":11321,"ë¬¼ìĿĦ":11322,"íķ´ë":11323,"itivity":11324,"íķĺê±°ëĤĺ":11325,"Ġforever":11326,"Ġleague":11327,"Ġì¹ĺë£Į":11328,"ĠFord":11329,"aylor":11330,"Ġblend":11331,"ë¡ľëĬĶ":11332,"Ġvenue":11333,"ì¢Į":11334,"Two":11335,"Ġfinite":11336,"ĠPot":11337,"ĠAC":11338,"ylvan":11339,"fin":11340,"Ġenforcement":11341,">(":11342,"Ġswimming":11343,"Work":11344,"ĠìĿ´ë²¤íĬ¸":11345,"Ġpix":11346,"ĠCamb":11347,"ì¶°":11348,"Ġexceed":11349,"Ġelegant":11350,"Ne":11351,"Ġbirds":11352,"íĬ¹íŀĪ":11353,"Ġê·¸ëŀĺìĦľ":11354,"ali":11355,"ĠëĽ°":11356,"Ġ1994":11357,"Ġdisk":11358,"false":11359,"DI":11360,"Gu":11361,"°ëĭ¤":11362,"employ":11363,"Ġconsequences":11364,"ĠMobile":11365,"ëł´":11366,"lessly":11367,"Ġcm":11368,"ë§ĪìĤ¬ì§Ģ":11369,"Ġpricing":11370,"Ġíķµìĭ¬":11371,"Ġretirement":11372,"ĠGeorgia":11373,"Ġsatisfaction":11374,"ĠìĦĿ":11375,"ĠìłĦíĸĪëĭ¤":11376,"ĠEs":11377,"onder":11378,"Hz":11379,"Ġê²°êµŃ":11380,"ĠHa":11381,"Ġfluid":11382,"Ġtrib":11383,"Ġcrazy":11384,"Ġbelieves":11385,"Ġintelligence":11386,"Ġbid":11387,"ĠMrs":11388,"ĠWatch":11389,"nor":11390,"ĠìķĮê³ł":11391,"property":11392,"Ġmeasurement":11393,"Ġconversion":11394,"has":11395,"Other":11396,"Ġbehaviour":11397,"swe":11398,"Ġdiscrim":11399,"message":11400,"ĠBall":11401,"vin":11402,"fall":11403,"Ġmurder":11404,"ìķĦìĿ´":11405,"ĠColorado":11406,"Ġpleasure":11407,"ë¡ľë¶ĢíĦ°":11408,"Ġpace":11409,"ĠLLC":11410,"Ġresc":11411,"ĠWin":11412,"Ġscores":11413,"Ġ800":11414,"phones":11415,"ruptcy":11416,"Ġrecycl":11417,"Ġcopies":11418,"Good":11419,"ĠDaniel":11420,"ìĿ¼ë¦¬":11421,"({\\":11422,"wa":11423,"ensus":11424,"Ġcomposition":11425,"ĠëģĮ":11426,"Create":11427,"ìĤ¬ìĻĢ":11428,"Ġlad":11429,"ĠíĮĢ":11430,"Ġclosest":11431,"ĠReturn":11432,"ĠëĦĺìĸ´":11433,"ĠJon":11434,"ĠCra":11435,"Ġtelephone":11436,"Ġentering":11437,"Ġì§Ģê¸ī":11438,"Ġcontracts":11439,"íı¼":11440,"Ġ72":11441,"ìĿĮìĿĦ":11442,"holder":11443,"jo":11444,".*":11445,"Ġessentially":11446,"ieties":11447,"Ġboot":11448,"ascular":11449,"ĠAsh":11450,"mbox":11451,"Ġbuyers":11452,"di":11453,"Ġescape":11454,"Ġcookies":11455,"ĬìĿĢ":11456,"},\\":11457,"ested":11458,"ľëŁ¬":11459,"Ġë¯":11460,"Ġconstraint":11461,"Ġlaser":11462,"inos":11463,"Ġfru":11464,"Ġillegal":11465,"iversary":11466,"irts":11467,"Ġabund":11468,"prime":11469,"sts":11470,"hether":11471,"Ġëª¨ë°ĶìĿ¼":11472,"zes":11473,"PN":11474,"dt":11475,"ë³¸ë¶Ģ":11476,"words":11477,"Hi":11478,"Ġshouldn":11479,"ati":11480,"ologist":11481,"rape":11482,"Ġpanels":11483,"ĠIllinois":11484,"Ġëį°ìĿ´íĦ°":11485,"ĠClin":11486,"ĠìķĬìķĺëĭ¤":11487,"Ġì£¼ë³Ģ":11488,"arters":11489,"ĠVery":11490,"Ġìļ´ìłĦ":11491,"Ġconventional":11492,"Ġutility":11493,"ĠEst":11494,"Ġnarr":11495,"Ġsemi":11496,"Ġedges":11497,"Ġstatistics":11498,"ì¦Ŀê¶Į":11499,"êµŃìĿĺ":11500,"query":11501,"Ġrapidly":11502,"organ":11503,"lang":11504,"river":11505,"ë¢°":11506,"Ġhurt":11507,"utors":11508,"ERT":11509,"ìĥģìĿĺ":11510,"tery":11511,"assert":11512,"Ġìłľê°Ģ":11513,"Ġ110":11514,"Ġscal":11515,"Ġsuspect":11516,"ĠTer":11517,"ĠìķĦëĭĪëĭ¤":11518,"Ġdose":11519,"AGE":11520,"ĠSher":11521,"Ġbeneficial":11522,"Ġgraphics":11523,"Ġsuffered":11524,"{{":11525,"Ġsettlement":11526,"ĠFather":11527,"ĠìŀĲìĹ°":11528,"ĠEp":11529,"ĠSpace":11530,"Ġinterpretation":11531,"ì§Ģë§ī":11532,"ĠJr":11533,"aded":11534,"Ġentrance":11535,"event":11536,"sg":11537,"ORD":11538,"ĠImage":11539,"Ġvolunteers":11540,"kappa":11541,"Ġresolve":11542,"proof":11543,"Today":11544,"nav":11545,"ìĽĲìĹĲìĦľ":11546,"herent":11547,"andon":11548,"eah":11549,"Ġduration":11550,"ĠSports":11551,"gypt":11552,"ìŀ¥ê³¼":11553,"Ġinjured":11554,"Ġtransformation":11555,"Ġregulation":11556,"ĠGuide":11557,"vironments":11558,"Ġbinary":11559,"ĠModel":11560,"ĠYet":11561,"Ġstudying":11562,"rieved":11563,"plex":11564,"rell":11565,"ĠìŀĲë¦¬":11566,"Ġlaugh":11567,"Ġë´ī":11568,"Ġownership":11569,"Ġparticles":11570,"subset":11571,"ì½Ķë¦¬ìķĦ":11572,"ìĽĥ":11573,"Ġhotels":11574,"Ġconj":11575,"lyn":11576,"plify":11577,"Ġperiods":11578,"Ġlicensed":11579,"cr":11580,"End":11581,"Ret":11582,"oving":11583,"Ġentity":11584,"boldsymbol":11585,"Ġmetab":11586,"Ġrenov":11587,"Ġcurve":11588,"âĸ²":11589,"agger":11590,"Ġë¨¼ìłĢ":11591,"Ĩĵ":11592,"eras":11593,"Ġol":11594,"Ġfilling":11595,"ometric":11596,"Ġlisting":11597,"ĠShould":11598,"ê°Ģê²©":11599,"ì§ĢìĹĲ":11600,"Link":11601,"Ġvegetables":11602,"Ġlanguages":11603,"ìĿ´ë¥¼":11604,"Ġëĵ¯":11605,"Â¶":11606,"Ġì²ĺë¦¬":11607,"Ge":11608,"bug":11609,"Ġje":11610,"Ġnumer":11611,"making":11612,"ĠSon":11613,"!--":11614,"ruption":11615,"ëĤ¸":11616,"BD":11617,"ĠPak":11618,"ëª°":11619,"Ġê°Ģì§Ģê³ł":11620,"ĠJewish":11621,"ìłĦìĹĲ":11622,"Ġrural":11623,"Ġë³´ëĤ´":11624,"ĠRights":11625,"ëĮĢê°Ģ":11626,"oat":11627,"Post":11628,"Ġwarning":11629,"Ġocean":11630,"Ġlau":11631,"ìĤ¬ê³ł":11632,"ì´Į":11633,"Ġtraveling":11634,"ì»¨":11635,".</":11636,"Ġdishes":11637,"Ġíľ´":11638,"orters":11639,"uties":11640,"Ġlifetime":11641,".\\":11642,"Ġê²ĢíĨł":11643,"ĠìĨĶ":11644,"íĶĦë¡ľ":11645,"ĠTravel":11646,"ĠPrice":11647,"Ġfaces":11648,"Ġinvestigate":11649,"ĠAndrew":11650,"Ġreturning":11651,"Ġham":11652,"Ġtrim":11653,"Ġsexual":11654,"Ġ53":11655,"Ġhat":11656,"ateral":11657,"Ġê°ķì¡°íĸĪëĭ¤":11658,"dec":11659,"Ġì¤ĳìĨĮ":11660,"entry":11661,"ĠLabor":11662,"ë¿Ĳ":11663,"ì²Ļ":11664,"ê²½ì°°":11665,"orted":11666,"product":11667,"java":11668,"ì°¨ëŁī":11669,"ĠThough":11670,"Ġexplains":11671,"Ġresume":11672,"perties":11673,"dist":11674,"ificial":11675,"high":11676,"ensuremath":11677,"ìĺ¥":11678,"ĠDI":11679,"Ġë°ľê²¬":11680,"íķ´ë³´":11681,"ylvania":11682,"oked":11683,"ìŀĲëĵ¤ìĿĺ":11684,"stery":11685,"uma":11686,"bration":11687,"Ġdreams":11688,"ĠCurrent":11689,"coin":11690,"month":11691,"íĦ°ë¦¬":11692,"Mr":11693,"Ġeverywhere":11694,"Fe":11695,"supp":11696,"ĠPen":11697,"Ġë³Ģê²½":11698,"ĠDate":11699,"wan":11700,"Ġlets":11701,"ĠLiving":11702,"Ġinval":11703,"Ġborrow":11704,"Ġdemands":11705,"Ġpit":11706,"Ġbreaking":11707,"Ġobl":11708,"eping":11709,"ĠShop":11710,"Ġê³łë¯¼":11711,"ëª»":11712,"EV":11713,"**]{}":11714,"ĠProm":11715,"ĠJoseph":11716,"ĠSEO":11717,"Ġaddresses":11718,"Ġequally":11719,"Ġdirections":11720,"ĠSmart":11721,"ĠCase":11722,"ĠíĨµíķ©":11723,"END":11724,"Ġë°ĺìĺģ":11725,"Ġpersonnel":11726,"ì¼ĢìĿ´":11727,"ìĤ¬ìĹĲ":11728,"atile":11729,"ĠMarketing":11730,"Ġtexture":11731,"ĠìķĦíĮĮíĬ¸":11732,"Ġê´ĳê³ł":11733,"ë°ĺê¸°":11734,"Ġexamine":11735,"ĠNight":11736,"Ġdebate":11737,"Ġchances":11738,"Ġreviewed":11739,"ëĮĢíķĻ":11740,"ĠìĻķ":11741,"ìĦ±ê³¼":11742,"Ġsurvival":11743,"Ġtrigger":11744,"Ġvertical":11745,"Ġìĸĺ":11746,"Ġcircle":11747,"sing":11748,"wall":11749,"Ġtill":11750,"Ġpolitics":11751,"ĠFun":11752,"ĠLearn":11753,"ĠPo":11754,"ĠJoe":11755,"enter":11756,"rible":11757,")]":11758,"ĠER":11759,"Ġstations":11760,"ëłī":11761,"Ġbrilliant":11762,"ĠBrazil":11763,"000000":11764,"ĠPL":11765,"ĠGarden":11766,"Ġconsultation":11767,"Ġversus":11768,"Ġecho":11769,"aze":11770,"Ġdetermining":11771,"ulpt":11772,"ila":11773,"isa":11774,"Ġpowers":11775,"Cons":11776,"ji":11777,"Ġflexibility":11778,"ìĸ´ëĤľ":11779,"ACT":11780,"Ġstatist":11781,"ifferent":11782,"ĠRose":11783,"Ġì§ģìĽĲ":11784,"acious":11785,"ĠBuilding":11786,"Ġìłľìĭľ":11787,"2007":11788,"Ġera":11789,"Ġtalks":11790,"ë¶Ļ":11791,"ĠìĪĻ":11792,"Ġphones":11793,"Ġoffset":11794,"ĠBit":11795,"Ġoptimal":11796,"IX":11797,"Ġspots":11798,"Ġelectro":11799,"Ġreaching":11800,"ĠCS":11801,"ĠRay":11802,"Ġíĭ°":11803,"ĠSolve":11804,"being":11805,"Ġë¶Ļ":11806,"uis":11807,"card":11808,"Solve":11809,"Ġì§ĢëĤĺ":11810,"Ġmold":11811,"Great":11812,"ĠìłĦëĭ¬":11813,"Query":11814,"main":11815,"Ġìºł":11816,"anned":11817,"Ġpersonality":11818,"Ġfinger":11819,"ĠAuto":11820,"ë¥´ê²Į":11821,"Ġexperiments":11822,"Ext":11823,"Ġencouraged":11824,"ĠGa":11825,"step":11826,"ĠBase":11827,"olving":11828,"Ġoperated":11829,"Ġhosted":11830,"Ġshots":11831,"Ġì¤ĳìļĶíķľ":11832,"Ġpreced":11833,"IES":11834,"ĠìĤ¬ëŀĮìĿ´":11835,"ĠëĲĺìĸ´":11836,"ĠNone":11837,"Ġelectricity":11838,"Ġë§ĲìĶ":11839,"Tex":11840,"ĠYouTube":11841,"ĠìľĦíĹĺ":11842,"ì¿":11843,"iger":11844,"Ġmatching":11845,"inson":11846,"Ġaccum":11847,"ë²¨":11848,"ĠWAR":11849,"ership":11850,"Ġëħ¼ìĿĺ":11851,"Ġenhanced":11852,"sf":11853,"ĠAirport":11854,"âĪ¼":11855,"Ġedit":11856,"ĠStudies":11857,"Ġrelating":11858,",-":11859,"bury":11860,"Ġ1970":11861,"ĠGal":11862,"ĠLem":11863,"Ġexit":11864,"BU":11865,"Ġdescribes":11866,"ĠëĦ£":11867,"Ġìĥī":11868,"Ġì°¸ê°Ģ":11869,"ĠInit":11870,"ĠìķĦìĭľìķĦ":11871,"åľ":11872,"ĠìķĬìķĦ":11873,"Ġphotographs":11874,"ĠAttorney":11875,"onto":11876,"Hel":11877,"ĠNC":11878,"ĠëĵľëŁ¬":11879,"ĠUlt":11880,"Ġë¦¬ë·°":11881,"Will":11882,"ĠGM":11883,"ĠClean":11884,"------------":11885,"íİĺìĿ´ì§Ģ":11886,"ĠTraining":11887,"thm":11888,"Ġgained":11889,"Ñĥ":11890,"Ġsurve":11891,"ĠUnfortunately":11892,"dot":11893,"Ġë¥":11894,"Ġtone":11895,"ĠBob":11896,"Ġë³´ëĭ¤":11897,"è¿":11898,"Ġmouse":11899,"ĠìĦľë¹ĦìĬ¤ë¥¼":11900,"search":11901,"Ġaddressed":11902,"ëıĦìĭľ":11903,"ĠìĿ¸íķ´":11904,"ìĿ´ë²Ħ":11905,"\"),":11906,"Ġgau":11907,"ìĿ´ìĿµ":11908,"IND":11909,"ĠProfessor":11910,"izza":11911,"Ġstrange":11912,"ĠMap":11913,"web":11914,"ĠSteve":11915,"Ġfocuses":11916,"Connect":11917,"adata":11918,"ĠText":11919,"ĠDisney":11920,"ĠMath":11921,"Ġdiversity":11922,"Ġìĸ´ëłµ":11923,"Ġinteractive":11924,"Ġfunny":11925,"æĺ":11926,"BR":11927,"Ġpitch":11928,"ĠHoly":11929,"cribed":11930,"Ġspark":11931,"ĠBeaut":11932,"Ġdamaged":11933,"Ġpursuant":11934,"Ġconvenience":11935,"ĠStandard":11936,"FO":11937,"Ġbroadcast":11938,"Ġlake":11939,"Ġaims":11940,"Ġuncertain":11941,"rage":11942,"GA":11943,"ĠSummer":11944,"º¼":11945,"ëıĦëĬĶ":11946,"tage":11947,"ĠLA":11948,"Ġíİ¼":11949,"Ġpossession":11950,"ĠìĿĺë£Į":11951,"Ġfiling":11952,"Ġcertification":11953,"ĠìĪĺìĿµ":11954,"ĠForce":11955,"una":11956,"awa":11957,"ĠSpain":11958,"Ġ59":11959,"tons":11960,"Ġposting":11961,"ĠCOM":11962,"GR":11963,"Ġgod":11964,"Ġstaying":11965,"osition":11966,"Ut":11967,"Ġspray":11968,"Ġì°¨ì§Ģ":11969,"Ġemails":11970,"Ġì¡´ìŀ¬":11971,"ĠKim":11972,"ĠDVD":11973,"Content":11974,"Ġholidays":11975,"ureau":11976,"Ġpig":11977,"ateful":11978,"Ġdrag":11979,"Ġjewel":11980,"ĠPrint":11981,"Ġinitiative":11982,"Ġtomat":11983,"estion":11984,"/-":11985,"days":11986,"ucky":11987,"spl":11988,"Ġì´ī":11989,".$$":11990,"Ġcust":11991,"ëĿ¼ë©°":11992,"Ġcolours":11993,"store":11994,"Ġmeets":11995,"Ġgram":11996,"Ġê²ĥìŀħëĭĪëĭ¤":11997,"Ġmood":11998,"ĠRen":11999,"Ġvisits":12000,"ê¼":12001,"Ġlocally":12002,"Ġcluster":12003,"ĠDO":12004,"ĠSelect":12005,"ĠëĤĺëĿ¼":12006,"Ġorganisation":12007,"screen":12008,"FS":12009,"Ġliterally":12010,"Ġdepression":12011,"ìľ¼ëĭĪ":12012,"ERR":12013,"ĠCasino":12014,"amil":12015,"Ġyards":12016,"Ġboundary":12017,"Ġapparently":12018,"ĠAsian":12019,"interest":12020,"Ġenvironments":12021,"ìĨĮë¥¼":12022,"Ġlesson":12023,"Ġrend":12024,"Ġhaz":12025,"Ġrespective":12026,"Ġscientists":12027,"ĠìĿĮìķħ":12028,"Ġbooking":12029,"anna":12030,"ëĶ°":12031,"American":12032,"Down":12033,"íĨ¡":12034,"sylvania":12035,"Ġassembly":12036,"ĩĮ":12037,"Ġdrinks":12038,"ĠPA":12039,"Ġthousand":12040,"Base":12041,"Ġcomputers":12042,"Ġconvin":12043,"ĠRun":12044,"Ġopens":12045,"Client":12046,"Ġobservations":12047,"////////////////":12048,"íĶĪ":12049,"Ġfocusing":12050,"Ġroads":12051,"Ġrefresh":12052,"ĠKorea":12053,"ķħ":12054,"ĠìķĦëŀĺ":12055,"Ġíķĺë©´":12056,"mid":12057,"ĠEmploy":12058,"Prov":12059,"Ġgiant":12060,"ìĹĪê³ł":12061,"ouston":12062,"Ġalive":12063,"/\\":12064,"Ġaffirm":12065,"Ġreveal":12066,"Ġreact":12067,"orneys":12068,"ĠCatholic":12069,"ĠìķĪìłķ":12070,"Ġê²¨":12071,"Ġceiling":12072,"Ġtrips":12073,"Ġâĺ":12074,"Ġquantity":12075,"del":12076,"Ġpocket":12077,"ĠSingapore":12078,"ĠMother":12079,"ĠìłĦìĭľ":12080,"Ġaccounting":12081,"anes":12082,"Ġaccompan":12083,"Ġfifth":12084,"Ġpointed":12085,"Because":12086,"Ġelected":12087,"Ġsensor":12088,"afe":12089,"iot":12090,"ĠJava":12091,"Inte":12092,"ĠBul":12093,"Does":12094,"Mar":12095,"Ġstir":12096,"({":12097,"oir":12098,"Ġcoat":12099,"Ġê°ĢëĬ¥ìĦ±ìĿ´":12100,"Ġhack":12101,"Ġdependent":12102,"ìĥģíĴĪ":12103,"...\"":12104,"Ġalumin":12105,"ë¶Ģê°Ģ":12106,"pol":12107,"dimensional":12108,"ĠYOU":12109,"Ġ1993":12110,"Ġdecent":12111,"ĠBang":12112,"ĠSat":12113,"target":12114,"ĠìłķíĻķ":12115,"aneously":12116,"Ġscenario":12117,"Ġcomplement":12118,"Ġtoile":12119,"Ġspeaker":12120,"heast":12121,"ILL":12122,"indu":12123,"Ġmirror":12124,"Ġconviction":12125,"Ġestimates":12126,"utter":12127,"Ġê±°ìĿĺ":12128,"service":12129,"Ġë³´ìľł":12130,"Ġscrew":12131,"forward":12132,"ĠSav":12133,"Ġ58":12134,"Ġpreparing":12135,"Ġë¯¿":12136,"ĠPolicy":12137,"Ġë§ĮìĹĲ":12138,"Ġsear":12139,"Ġtalked":12140,"Ġsuppliers":12141,"})$":12142,"COM":12143,"ĠOil":12144,"zona":12145,"Ġles":12146,"ottom":12147,"Ġpartial":12148,"Ġê°ĸê³ł":12149,"Ġcabinet":12150,"otion":12151,"Ġdivor":12152,"Ġsimult":12153,"ĠSilver":12154,"rovers":12155,"ĠMatt":12156,"ĠìŀĪê²Į":12157,"Ġintellect":12158,"ĠMethod":12159,"Ġvacc":12160,"Ġarrival":12161,"Ġforecast":12162,"Ġwaters":12163,"250":12164,"arry":12165,"Ġê¾¸":12166,"Ġconvey":12167,"ampion":12168,"ìłķíķľ":12169,"ĠInf":12170,"Ġ1992":12171,"Ġfalls":12172,"urities":12173,"oors":12174,"Ġpermitted":12175,"Ġparallel":12176,"aska":12177,"oices":12178,"Ġren":12179,"ìĽ¨":12180,"ĠSwed":12181,"2006":12182,"ìĬ¤ê°Ģ":12183,"racle":12184,"ĠMountain":12185,"Ġseeds":12186,"ĠWrit":12187,"Ġë¶Ģì¡±":12188,"ĠQueen":12189,"Ġru":12190,"Ġalleg":12191,"ontal":12192,"Ġì§ĢëĤľëĭ¬":12193,"Version":12194,"Ġì¡°ì§ģ":12195,"Ġsuffer":12196,"ĠAdministration":12197,"Ġtape":12198,"Ġargue":12199,"disc":12200,"Ġbund":12201,"Ġcontroller":12202,"ĠEgypt":12203,"font":12204,"Method":12205,"ĠSales":12206,"Ġsignals":12207,"Ġholes":12208,"frame":12209,"Ġclassical":12210,"Ġordinary":12211,"Ġobst":12212,"Ġdiabetes":12213,"Ġbaking":12214,"ogy":12215,"Ġengaging":12216,"Ġvoc":12217,"iatric":12218,"Ġcomposite":12219,"oded":12220,"ìĨĮëħĦ":12221,"rows":12222,"iral":12223,"nonumber":12224,"ĠKent":12225,"ounded":12226,"Ġgentle":12227,"Ġbills":12228,"ĠìłĦë¬¸ê°Ģ":12229,"Ġreferences":12230,"Ġfest":12231,"ĠMic":12232,"Ġíķľë²Ī":12233,".(":12234,"athy":12235,"Ġlaptop":12236,"Ġallerg":12237,"Ġidentification":12238,"ë¦¬ì§Ģ":12239,"Ġ57":12240,"Go":12241,"json":12242,"mo":12243,"iances":12244,"Ġë³´ê¸°":12245,"Ġenabled":12246,"ĠëĤ´ëł¤":12247,"ê³Ħë¥¼":12248,"har":12249,"ìĿ¸íĦ°ëĦ·":12250,"Ġdynamics":12251,"Ġfalling":12252,"ëĶĶìĺ¤":12253,"Ġdeeper":12254,"Ġê¸°ëħĲ":12255,"ĠKitchen":12256,"ìĥĿíĻľ":12257,"Ġadvantages":12258,"Simplify":12259,"íķŃê³µ":12260,"ë¨¸ëĭĪ":12261,"People":12262,"ĠìŀĳìĦ±":12263,"atal":12264,"Ġstrike":12265,"otimes":12266,"ĠìĿ¸ê°Ħ":12267,"Ġending":12268,"ĠCloud":12269,"Ġadequate":12270,"ĠPop":12271,"xygen":12272,"specific":12273,"Ġplas":12274,"rl":12275,"Ġëı¼":12276,"Ġë¹ĦíĮĲ":12277,"SON":12278,"Ġanymore":12279,"Ġdebut":12280,"ĠMuslim":12281,"/**":12282,"Ġcorrel":12283,"ìĽł":12284,"Ġunusual":12285,"Ġengines":12286,"common":12287,"height":12288,"Ġguaranteed":12289,"Ġconsole":12290,"ouble":12291,"Ġfaced":12292,"aka":12293,"HA":12294,"Ġrising":12295,"Ġchairs":12296,"ractions":12297,"ĠHeart":12298,"Ġmatt":12299,"ìĦŃ":12300,"Ġyours":12301,"Ġsed":12302,"adium":12303,"eals":12304,"ĠHarr":12305,"Ġsubstance":12306,"Ġtargets":12307,"chron":12308,"Ġrepresenting":12309,"ĠGirl":12310,"VC":12311,"ifting":12312,"Ġlease":12313,"Ġì£¼íĸī":12314,"ĠDespite":12315,"Ġcock":12316,"ostic":12317,"Ġpolar":12318,"Ġdetected":12319,"Ġpounds":12320,"ĠMachine":12321,"ìĤ¼ìĦ±":12322,"Result":12323,"ĠEastern":12324,"ĠEnjoy":12325,"Ġ02":12326,"antly":12327,"dem":12328,"Ġëĵ±ìŀ¥":12329,"bro":12330,"ĠEss":12331,"Ġrevolution":12332,"sen":12333,"ìĬ¤ìĿĺ":12334,"Ġìĭ¸":12335,"ĠCreate":12336,"Ġattempts":12337,"Ġexplanation":12338,"ĠìĿ´ê²ĥ":12339,"Ġtact":12340,"Ġdrain":12341,"Ġrect":12342,"Ġabandon":12343,"ĠAwards":12344,"Ġcolon":12345,"Ġspeakers":12346,"ĠStone":12347,"tain":12348,"ĠStudio":12349,"criptions":12350,"ĠìĪĺìŀħ":12351,"Ġcatalog":12352,"Ġaccommodation":12353,"ictionary":12354,"Ġinstitution":12355,"Ġorange":12356,"null":12357,"ellar":12358,"yes":12359,"Ġintense":12360,"Det":12361,"Ġê¸°ê´Ģ":12362,"íĸĪì§Ģë§Į":12363,"uum":12364,"Ġimper":12365,"Ġlaid":12366,"Ġcolleagues":12367,"Ġdowntown":12368,"Ġtoler":12369,"Ġbat":12370,"GM":12371,"120":12372,"Rep":12373,"HD":12374,"std":12375,"Ġë³¸ê²©":12376,"ernel":12377,"uten":12378,"Ġmechanical":12379,"png":12380,"Ġdisplays":12381,"=&":12382,"Ġtherap":12383,"apache":12384,"ìĿ´ìħĺ":12385,"Ġmath":12386,"Ġcarpet":12387,"Ġattending":12388,"Ġcrash":12389,"Ġfraction":12390,"Ġrepeat":12391,"Ġmask":12392,"apse":12393,"Ġfing":12394,"Ġsupra":12395,"íĺĦëĮĢ":12396,"ë¥´ê³ł":12397,"1000":12398,"ĠEff":12399,"ĠPennsylvania":12400,"Ġservers":12401,"Ġheaded":12402,"ĠëĮĢíĳľëĬĶ":12403,"Ġë¹Ħíķ´":12404,"Sigma":12405,"aws":12406,"Ġgym":12407,"Ġassignment":12408,"Ġdesigners":12409,"Ġequations":12410,"Ġopinions":12411,"Ġgaming":12412,"Ġtimely":12413,"ĠMedicine":12414,"Ġunexpected":12415,"Ġharder":12416,"Ġchampions":12417,"Ġjuice":12418,"mann":12419,"ê¸°ìĿĺ":12420,"Ġdimensions":12421,"icket":12422,"ë§Īì¹´ìĺ¤":12423,"fraid":12424,"Ġoptical":12425,"ë¡ľëĵľ":12426,"Ġtro":12427,"oves":12428,"Ġgender":12429,"Ġlegit":12430,"Ġbab":12431,"pson":12432,"æĪ":12433,"ëĮĢìĹĲ":12434,"Ġhits":12435,"riving":12436,"ĠBlog":12437,"Ġduties":12438,"ĠSus":12439,"isted":12440,"ĠAction":12441,"MB":12442,"Ġfails":12443,"Input":12444,"Ġflying":12445,"Ġë¨¸ìĭł":12446,"ĠìłĦìŀĲ":12447,"Ġscreens":12448,"emed":12449,"ĠìĪĺìļĶ":12450,"ĠBased":12451,"Ġ66":12452,"Ġpromotion":12453,"ĠFriend":12454,"Ġnights":12455,"ĠStation":12456,"Ġpacked":12457,"Web":12458,"Ġwondering":12459,"Ġtort":12460,"ê³¼íķĻ":12461,"Ġìłľê¸°":12462,"ĠVideo":12463,"Ġcancell":12464,"Ġafraid":12465,"Char":12466,"ashes":12467,"ĠOK":12468,"ĠíĳľíĺĦ":12469,"ë°ĸìĹĲ":12470,"íķĺê²łëĭ¤":12471,"ĠíĺĦìĭ¤":12472,"Ġhopes":12473,"ĠMah":12474,"Ġmistake":12475,"Ġheading":12476,"Ġdelivering":12477,"Ġê°ĳ":12478,"Ġrobust":12479,"Ġspectac":12480,"ĠìĬ¬ë¡¯":12481,"ĠìĿ´ëŁ¬íķľ":12482,"ĠíĶĦë¦¬":12483,"ĠìļĶì²Ń":12484,"ODE":12485,"Ġíĺģìĭł":12486,"Ġloose":12487,"ĠìĤ¬ë§Ŀ":12488,"iously":12489,"Ġexecution":12490,"ĠEV":12491,"ëĲĺìĹĪëĭ¤":12492,"Ġdollar":12493,"Ġexploring":12494,"ĠProfessional":12495,"ìºĲ":12496,"Ġsouthern":12497,"íĬ¼":12498,"riculum":12499,"ĠêµĲì²´":12500,"ìłĿ":12501,"Ġstood":12502,"ĠëĤĺëĬĶ":12503,"adel":12504,"${":12505,"Ġadmission":12506,"Ġmild":12507,"ASE":12508,"Ġvolunteer":12509,"conf":12510,"Ġske":12511,"dat":12512,"Ġsurfaces":12513,"Ġexpanded":12514,"Ġâĸ¶":12515,"Eng":12516,"ĠIL":12517,"ĠOpt":12518,"Ġregulatory":12519,"Ġlosses":12520,"client":12521,"ĠTy":12522,"Ġcul":12523,"eness":12524,"________________":12525,"ĠìĺĪìĤ°":12526,"Ġentries":12527,"cup":12528,"lem":12529,"ë¶ĢìĤ°":12530,"Ġconserv":12531,"ĠSteel":12532,"Ġyoga":12533,"ĠPakistan":12534,"acon":12535,"ĠModern":12536,"Ġdiscussions":12537,"ê²łëĭ¤ê³ł":12538,"ìĿ´ê¸°":12539,"Ġrefe":12540,".-":12541,"Finally":12542,"_{{\\":12543,"ĠAgency":12544,"fold":12545,"Ġë°°ìļ°":12546,"Ġcurrency":12547,"Ġê¹¨":12548,"ln":12549,"Ġchildhood":12550,"Ġsatisfy":12551,"clusions":12552,"opl":12553,"Ġreprodu":12554,"Ġhasn":12555,"ĵ¨":12556,"ĠBritain":12557,"atern":12558,"Ġgran":12559,"Ġpubl":12560,"Ġnob":12561,"ëĭĺìĿĺ":12562,"Ġmedication":12563,"ê·¸ëĬĶ":12564,"Ġwatched":12565,"ĠSenate":12566,"ĠFREE":12567,"Ġinvestments":12568,"Ġasp":12569,"ĠStan":12570,"Ġadvent":12571,"Ġproduces":12572,".;":12573,"Ġcomprom":12574,"Ġbrid":12575,"ĠSafety":12576,"BT":12577,"module":12578,"Ġpride":12579,"ëł¤ê³ł":12580,"ĠìłľìĻ¸":12581,"Ġì¹ľêµ¬":12582,"ĠHence":12583,"ught":12584,"ĠQuality":12585,"Ġê°Ģê¹Į":12586,"Ġoverlook":12587,"Ġgeneric":12588,"bled":12589,"ĠìłĦíĻĺ":12590,"Ġneuro":12591,"Ġroots":12592,"Ġdisorder":12593,"Ġë£¨":12594,"ëŀ«íı¼":12595,"Car":12596,"ĠëĮĢíĨµëł¹ìĿĢ":12597,"Ġacknowled":12598,"Ġceremony":12599,"Ġparticipating":12600,"TD":12601,"ĠGreek":12602,"ĠPrime":12603,"ĠWithout":12604,"ëħĦìĹĲ":12605,"Ġê²Ģìĥī":12606,"ĠSky":12607,"ĠIrish":12608,"ĠSenior":12609,"Ġë°ĽìĿĦ":12610,"ĠFac":12611,"Ġaer":12612,"Step":12613,"ĠCountry":12614,"izz":12615,"omorph":12616,"ìĵ°":12617,"Ġì¡°ìĦ±":12618,"Ġcrypt":12619,"ador":12620,"ĠAvenue":12621,"ĠAmend":12622,"ì¼ĢíĮħ":12623,"button":12624,"Ġaggreg":12625,"everal":12626,"ĠRod":12627,"Ġprayer":12628,"Ġcompatible":12629,"Ġfiber":12630,"Ġbands":12631,"ĠLearning":12632,"John":12633,"Ġcouncil":12634,"Ġbuffer":12635,"\"]":12636,"ĠTaylor":12637,"Ġequity":12638,"ĠHP":12639,"ëĭ·ì»´":12640,"erk":12641,"athan":12642,"Ġconsistently":12643,"Ġdifficulty":12644,"ilation":12645,"ì£¼ìĭľ":12646,"Ġìĩ¼":12647,"visor":12648,"Ġìłľì¡°":12649,"Ġflower":12650,"Ġensures":12651,"acteria":12652,"Ġsynd":12653,"ĠIdeas":12654,"íĺ¸íħĶ":12655,"Ġskilled":12656,"ĠëĮĢíĺķ":12657,"Ġleaf":12658,"Ġadmin":12659,"Ġraising":12660,"Ġê·¸ëĥ¥":12661,"ramework":12662,"Ġinventory":12663,"Ġìĺģíĸ¥ìĿĦ":12664,"ìĿ´ë¸Į":12665,"ìŀĲìĻĢ":12666,"Ġweapons":12667,"ĠOrig":12668,"Ġinsights":12669,"Ġ63":12670,"ê²¼":12671,"Ġreson":12672,"Ġanalys":12673,"ĠìĪ¨":12674,"ĠíĽĦê¸°":12675,"Ġouter":12676,"power":12677,"Ġbulk":12678,"omatic":12679,"hour":12680,"Ġneutral":12681,"allow":12682,"Ġê³µìĹ°":12683,"Ġcuts":12684,"Ġìĺģìĥģ":12685,"íķµ":12686,"Ġimplied":12687,"ĠChild":12688,"Ġworkshops":12689,"Ġshoulder":12690,"chain":12691,"Ġvintage":12692,"ĠStock":12693,"ĠDar":12694,"ifer":12695,"ìħľ":12696,"êµŃë¯¼":12697,"Ġvelocity":12698,"iations":12699,"Ġtournament":12700,"Ġboards":12701,"ĠìĤ¬ë¡Ģ":12702,"Ġë¯¼ì£¼ëĭ¹":12703,"Ġbunch":12704,"ê°ľìĿĺ":12705,"acent":12706,"inator":12707,"ĠCru":12708,"ĠMD":12709,"ĠIV":12710,"ĠHold":12711,"íģ´":12712,"kind":12713,"Ġchecks":12714,"Ġ1991":12715,"Ġspan":12716,"urer":12717,"Ġsubsid":12718,"ĠíķłìĿ¸":12719,"Button":12720,"ìĿ´ì§Ģë§Į":12721,"Ġloving":12722,"dney":12723,"Ġë§Įëĵł":12724,"sd":12725,"}-":12726,"ĠRh":12727,"amine":12728,"Ġranging":12729,"raq":12730,"Ġputs":12731,"ĠBath":12732,"íĺĦìŀ¬":12733,"Ġriding":12734,"Ġê°ĲìĹ¼":12735,"msgid":12736,"NU":12737,"ĠiOS":12738,"Įĵê¸Ģ":12739,"world":12740,"ĠíĺĲìĿĺ":12741,"Ġíį¼":12742,"ĠìłľëĮĢë¡ľ":12743,"Ġìļ°ìĦł":12744,"Ġç":12745,"msgstr":12746,"Ġimplies":12747,"Ġcontrovers":12748,"Ġhes":12749,"Ġsees":12750,"ìĹħê³Ħ":12751,"rug":12752,"ìłĦë¬¸":12753,"iology":12754,"ĠThink":12755,"orous":12756,"ä¸Ģ":12757,"cf":12758,"ĠDrive":12759,"Ġparagraph":12760,"Ġê³µê°Ĳ":12761,"Ġdecline":12762,"Ġreligion":12763,"ĠColumbia":12764,"Ġthreshold":12765,"íļĮê°Ģ":12766,"Ġhell":12767,"ĠArizona":12768,"Ġchest":12769,"inant":12770,"Ġë¶Ģíĥģ":12771,"ĠìĿĺìĽĲìĿĢ":12772,"ĠAppeals":12773,"Ġëį§":12774,"RANT":12775,"context":12776,"Ġê¸°ëĭ¤":12777,"ĠFoot":12778,"ĠìĤ´ìķĦ":12779,"ĠProperty":12780,"áĦĴáĦĴ":12781,"Ġspat":12782,"ĠÌ":12783,"ë¹Ħë¥¼":12784,"find":12785,"Ġpackaging":12786,"onal":12787,"2005":12788,"vit":12789,"GC":12790,"Ġviewing":12791,"Ġinstruments":12792,"ìĹĺ":12793,"íķĺëıĦë¡Ŀ":12794,"ìłľíĴĪ":12795,"(\\[":12796,"UST":12797,"ê·ľëª¨":12798,"Ġaged":12799,".âĢĻ":12800,"Stud":12801,"rapeut":12802,"ĠPS":12803,"Ġthemes":12804,"imp":12805,"ĠHenry":12806,"110":12807,"pool":12808,"Ġíĥĳ":12809,"ëıĪ":12810,"ìĬ·":12811,"ĠSE":12812,"ĠBrand":12813,"ĠHelp":12814,"ĠëĤ´ë¶Ģ":12815,"Ġimportantly":12816,"ìĽĲìľ¼ë¡ľ":12817,"Ġfarmers":12818,"acc":12819,"ĠìĬ¤íı¬ì¸ł":12820,"ë¦¬ì¦Ī":12821,"hesis":12822,"íķĺìŀĲ":12823,"leep":12824,"íĸĪìľ¼ë©°":12825,"ĠPerhaps":12826,"chester":12827,"Ġdisability":12828,"ì¤ĳìķĻ":12829,"ĠíĻķì§Ħ":12830,"ëĵľë¦½ëĭĪëĭ¤":12831,"isdom":12832,"Ġinstances":12833,"Ġloaded":12834,"Ġtile":12835,"Ã¢":12836,"Ġbrush":12837,"ĠìķŀìĦľ":12838,"Ġimmune":12839,"Ġrecruit":12840,"Ġknock":12841,"ĠCustomer":12842,"Ġhate":12843,"Ġproteins":12844,"ĠìĥģëĮĢ":12845,"Ġloyal":12846,"bow":12847,"Ġopposed":12848,"img":12849,"ê±´ìĦ¤":12850,"Ġaimed":12851,"'(":12852,"ĠVersion":12853,"ĠPur":12854,"Ġìĸ´ëĶĶ":12855,"ethe":12856,"Ġfranch":12857,"ë¯¸êµŃ":12858,"olt":12859,"Ġrepairs":12860,"ìĿ¼ìĿĦ":12861,"grade":12862,"ëįĶëĿ¼ëıĦ":12863,"Ġprofessor":12864,"Ġmattress":12865,"Ġdeeply":12866,"burgh":12867,"clear":12868,"ĠRadio":12869,"Ġìłľì¶ľ":12870,"Ġì§Ģì§Ģ":12871,"Ġacquire":12872,"ĠëĲ©ëĭĪëĭ¤":12873,"Ġhoney":12874,"Ġ62":12875,"letter":12876,"Ġinspection":12877,"unicipal":12878,"ĠìĽĢ":12879,"ìłķìĿĢ":12880,"reation":12881,"Ġremoving":12882,"Ġcreativity":12883,"ìļ´ëıĻ":12884,"Ġë§Īì§Ģë§ī":12885,"Ġíķ©ìĿĺ":12886,"ë³´ê¸°":12887,"Ġbits":12888,"pton":12889,"comfort":12890,"Ġíĩ´":12891,"Ġwanting":12892,"ATA":12893,"Ġliver":12894,"ĠConc":12895,"install":12896,"viously":12897,"amsung":12898,"ĠRo":12899,"Ġfloors":12900,"Ġprize":12901,"Ġevaluated":12902,"íħį":12903,"Ġbin":12904,"áħ®":12905,"Number":12906,"ê³¤":12907,"ĠRou":12908,"Ġstayed":12909,"Ġtargeted":12910,"Ġcalm":12911,"ĠíķĺëĬĶëį°":12912,"Ġdeveloper":12913,"Ġë¹¨":12914,"Ġperformances":12915,"ordan":12916,"pling":12917,"ĠViet":12918,"ĠOx":12919,"}+":12920,"Ġìłľíķľ":12921,"Ġinflamm":12922,"íķĻìĥĿ":12923,"Ġprocessed":12924,"Ġê³µê³µ":12925,"limited":12926,"hr":12927,"Ġpromoting":12928,"ĠHamilton":12929,"Ġseasons":12930,"Ġsculpt":12931,"cies":12932,"ĠWebsite":12933,"Ġtired":12934,"}}{":12935,"cker":12936,"ëłĽ":12937,"ĠâĢ¢":12938,"otes":12939,"Ġidentical":12940,"Ġstatutory":12941,"ĠMembers":12942,"ĠBeing":12943,"sin":12944,"Current":12945,"ĠíĻķìĤ°":12946,"ĠìĹħê³Ħ":12947,"ë¨¹":12948,"ëĭĪìĬ¤":12949,"Ġcogn":12950,"lined":12951,"ĠHR":12952,"Ġgenes":12953,"ĠCapital":12954,"Ġëħ¹":12955,"ictions":12956,"Ġsolely":12957,"íķĺìĺĢëĭ¤":12958,"ëłĪìĬ¤":12959,"ĠCro":12960,"enny":12961,"FIG":12962,"[^":12963,"Ġwestern":12964,"yal":12965,"otive":12966,"Ġìµľì¢ħ":12967,"Ġë°ĶëŀĮ":12968,"Ġtons":12969,"Ġrequiring":12970,"Ġtrials":12971,"Ġcameras":12972,"Open":12973,"Ġpainted":12974,"Ġemerging":12975,"Ġski":12976,"Action":12977,"ĠìĿ¸ìĪĺ":12978,"áħ²áħ²":12979,"$)":12980,"ellite":12981,"Ġcelebration":12982,"Ġì¹´ëĵľ":12983,"Mark":12984,"ĠForest":12985,"Ġreasonably":12986,"ĠGP":12987,"ìľĦìĹĲ":12988,"Ġenthusi":12989,"Ġgrab":12990,"oop":12991,"ibraries":12992,"abling":12993,"Ġdiffer":12994,"Ġembed":12995,"ishment":12996,"Mon":12997,"Ġobjectives":12998,"greg":12999,"Ġsafely":13000,"Ġíĸīìłķ":13001,"Ġnursing":13002,"Ġinquir":13003,"Ġemployers":13004,"ĠChem":13005,"Ġresident":13006,"ĠìµľìĨĮ":13007,"Ġê°ģì¢ħ":13008,"Ġhide":13009,"ìĹħìĿĦ":13010,"Ġsophist":13011,"Ġbold":13012,"Ġtranslation":13013,"ĠNatural":13014,"click":13015,"Ġìĭ¤ìłľ":13016,"ĠBroad":13017,"Ġtitles":13018,"ĠApplication":13019,"Ġì£¼íĥĿ":13020,"Ġeliminate":13021,"Ġpatch":13022,"Ġnorthern":13023,"Ġencounter":13024,"ĠChapter":13025,"Ġwaves":13026,"Ġhub":13027,"Ġattitude":13028,"Ġsupplied":13029,"ĠëĤĺìĦľ":13030,"Ġì²ŃìĻĢ":13031,"Ġassumed":13032,"output":13033,"ĠëĪĦêµ¬":13034,"method":13035,"ĠConf":13036,"request":13037,"ĠTele":13038,"stein":13039,"ĠSQL":13040,"esides":13041,"Ġsofa":13042,"ë¹ł":13043,"Ġstainless":13044,"Ġmechanisms":13045,"ĠHolly":13046,"Ġbroke":13047,"sche":13048,"engers":13049,"olis":13050,"Ġtagged":13051,"ĠSem":13052,"ìĿ´ìŀĲ":13053,"ĠALL":13054,"Mat":13055,"Ġdesktop":13056,"ĠBE":13057,"alyt":13058,"Ġpossibilities":13059,"Ġwise":13060,"ĠBell":13061,"cour":13062,"ĠCT":13063,"ê·¸ëŁ¬ëĤĺ":13064,"ìłĢìŀĳê¶ĮìŀĲc":13065,"Ġmeaningful":13066,"ĠStill":13067,"Ġnan":13068,"cribe":13069,"Ġabilities":13070,"ĠëĨĴìķĦ":13071,"ĠFred":13072,"ĠìĨĮìŀ¬":13073,"Ġmuscles":13074,"Ag":13075,"ì£¼íĥĿ":13076,"Ġfrustr":13077,"rons":13078,"plant":13079,"Ġtheoret":13080,"Ġovercome":13081,"Ġmountains":13082,"ì¶ľìŀ¥ìĥµ":13083,"anwhile":13084,"Ġì¡°ìĦł":13085,"cp":13086,"ìĺ¤ëĬĶ":13087,"Ġì¤ĳìĭ¬ìľ¼ë¡ľ":13088,"ìĸ´ë³":13089,"Ġappreciated":13090,"Ġassistant":13091,"Ġadmit":13092,"Ġcasual":13093,"Ġphilosophy":13094,"Ġpleasant":13095,"Ġserial":13096,"ĠTheorem":13097,"abeth":13098,"Ġweren":13099,"Ġtie":13100,"Ġê°Ģì¹ĺ":13101,"Ġíķľëĭ¤ëĬĶ":13102,"ĠDavis":13103,"Ġvictims":13104,"Ġquotes":13105,"Ġtransferred":13106,"rend":13107,"ĠUnivers":13108,"Ġsituated":13109,"ĠLew":13110,"ĠPersonal":13111,"ĠìĹ¬ê¸°":13112,"ĠLi":13113,"Ġmomentum":13114,"Ġunp":13115,"Ġexamined":13116,"Ġexpense":13117,"Ġëĭ¬ë¦¬":13118,"package":13119,"IVE":13120,"uz":13121,"Ġobserve":13122,"*,":13123,"Ġintegral":13124,"iating":13125,"ĠìĦ¤ë¦½":13126,"Controller":13127,"aration":13128,"Ġorganisations":13129,"Ġhybrid":13130,"Ġ[[":13131,"itioner":13132,"Max":13133,"ĠìĿ¸íĦ°":13134,"Ġracing":13135,"Ġfewer":13136,"ĠWould":13137,"Ġmathemat":13138,"Ġê·¸ìĿĺ":13139,"oric":13140,"ìŀĲìĹĲê²Į":13141,"ĠMinistry":13142,"ordinary":13143,"?)":13144,"ayout":13145,"Ġheavily":13146,"Ġdesce":13147,"Ġstructural":13148,"Ġpenalty":13149,"Ġë²Īì§¸":13150,"Ġmi":13151,"Ġë²ĪìĹŃ":13152,"rus":13153,"La":13154,"Ġvirus":13155,"Ġemotions":13156,"inery":13157,"aya":13158,"uana":13159,"Override":13160,"ĠCreek":13161,"Ġfrequent":13162,"mediate":13163,"Ġacquisition":13164,"Ġshed":13165,"Ġìĭ¤ìłģ":13166,"through":13167,"Ġsuddenly":13168,"Ġsuite":13169,"Ġgrace":13170,"ĠëĮĢìĭł":13171,"inton":13172,"Ġshapes":13173,"ĠTenn":13174,"Ġì¶©ë¶Ħ":13175,"Ġlegend":13176,"uan":13177,"Ġruling":13178,"Ġamongst":13179,"ĠTrue":13180,"Ġutilize":13181,"Ġgamb":13182,"Ġauthorized":13183,"ĠRail":13184,"Min":13185,"ĠAst":13186,"ĠëĲĺê³ł":13187,"aux":13188,"2004":13189,"ĠìĿ¸ëıĦ":13190,"ĠìĿĢíĸī":13191,"Ġtube":13192,"ĠWordPress":13193,"ĠVegas":13194,"ĠBridge":13195,"Under":13196,"next":13197,"ĠProdu":13198,"Ġsod":13199,"Ġpursue":13200,"Ġdispute":13201,"ëħĦë¶ĢíĦ°":13202,"ìŀĲë¦¬":13203,"Ġgrateful":13204,"íĸĪëĬĶëį°":13205,"ĠDog":13206,"Take":13207,"owa":13208,"ëĲĺë©´":13209,"ëŁ¼íĶĦ":13210,"mercial":13211,"Ġseam":13212,"otherapy":13213,"urious":13214,"Ġmanip":13215,"regon":13216,"ĠìĤ¬íķŃ":13217,"ë¬´ë¦¬":13218,"status":13219,"bu":13220,"Ġbug":13221,"Ġì½ĺíħĲì¸ł":13222,"Ġsqrt":13223,"Status":13224,"ĠEstate":13225,"Ġprejud":13226,"Ġdurable":13227,"Ġ68":13228,"erior":13229,"acher":13230,"Response":13231,"Ġuniverse":13232,"unct":13233,"Ġëĭ¬ëŁ¬":13234,"åŃ":13235,"ĠLas":13236,"Ġintervention":13237,"Ġretain":13238,"nabla":13239,"Ġcorrelation":13240,"ĠTreat":13241,"ellee":13242,"sized":13243,"Ġë°©íĸ¥":13244,"Ġentert":13245,"Ġcha":13246,"WS":13247,"ĠKong":13248,"Page":13249,"Ġë°©ì¹¨":13250,"Ġflags":13251,"Ġrarely":13252,"Ġê³µìľł":13253,"LY":13254,"NOT":13255,"Ġhung":13256,"ulin":13257,"urse":13258,"Ġproductivity":13259,"Ġconnecting":13260,"ĠToronto":13261,"Ġdeleg":13262,"íķĺëįĺ":13263,"Mem":13264,"Ġë¶ĢëıĻìĤ°":13265,"onents":13266,"Ġpilot":13267,"dots":13268,"ipher":13269,"Ġcoe":13270,"Ġì£¼ëª©":13271,"rup":13272,"Ġheader":13273,"pert":13274,"Ġwins":13275,"Ð°Ð":13276,"Ġhanging":13277,"ìķ½ìĿĦ":13278,"ĠProducts":13279,"ì´ī":13280,"ìŀ¥ìľ¼ë¡ľ":13281,"rooms":13282,"ìłĿíĬ¸":13283,"Ġcounts":13284,":\\":13285,"ë¡Ńê²Į":13286,"ĠRub":13287,"wid":13288,"itate":13289,"ĠIraq":13290,"Ġë¡¯":13291,"ĠëĮĢíķľë¯¼êµŃ":13292,"Ġreceipt":13293,"Ġrestore":13294,"ë§¹":13295,"```":13296,"ìĹĲìĦł":13297,"ĠìŀĲê¸°":13298,"ima":13299,"Ġblind":13300,"show":13301,"ĠìĿĺíĺ¹":13302,"ĠCit":13303,"Ġamen":13304,"ìī¬":13305,"Ġì§ķ":13306,"ìĿ¸ê°Ģ":13307,"Ġë°¤":13308,"Ġdecreased":13309,"ĠContin":13310,"Ġsen":13311,"ì¤ĳêµŃ":13312,"semble":13313,"sur":13314,"Ġreception":13315,"ĠUr":13316,"Ġê²ª":13317,"ĠLimited":13318,"Ġdefic":13319,"700":13320,"ë¬¸ìĿĦ":13321,"Ġhiring":13322,"#:":13323,"ìĬ¤íı¬ì¸ł":13324,"ĠìĤ¬ë¬´":13325,"ëĭī":13326,"ARE":13327,"Ġsmoke":13328,"Ġcush":13329,"ĠHTML":13330,"ä¸Ń":13331,"ela":13332,"ĠìĹĨìĸ´":13333,"Ġ130":13334,"Ġê·¸ëŁ°ëį°":13335,"ì¹ĺê³ł":13336,"Ġoverse":13337,"Ġthermal":13338,"wich":13339,"strong":13340,"Ġimpression":13341,"Ġì£¼ìĭĿ":13342,"Ġsorry":13343,"Ġscreening":13344,"Ġsacr":13345,"Ġpregnancy":13346,"ettings":13347,"ĠëĤ´ê°Ģ":13348,"Ġinitiatives":13349,"ĠMiller":13350,"ĠìķĬëĬĶëĭ¤":13351,"ë¡ľìĦľ":13352,"2001":13353,"ãĢģ":13354,"Ġcorn":13355,"ĠìĿ¼ìĿ´":13356,"ĠBa":13357,"Ġíģ´":13358,"Ġìłķë¶Ģê°Ģ":13359,"Ġweigh":13360,"Ġcotton":13361,"Ġrounded":13362,"iag":13363,"Ġdisag":13364,"paper":13365,"Ġdrives":13366,"ĠVar":13367,"Ġìļ°ìĪĺ":13368,"ĠCarl":13369,"Copyright":13370,"ì§Ģë°©":13371,"Ġíķ´ìĦľ":13372,"ĠIce":13373,"swered":13374,"pdf":13375,"ĠìĹŃíķłìĿĦ":13376,"Ġìª½":13377,"tail":13378,"ĠëĮĢíķ´ìĦľ":13379,"ĠìĪĺìĤ¬":13380,"Ġê°Ŀ":13381,"ĠLevel":13382,"Ġrefers":13383,"plus":13384,"ĠScotland":13385,"ACE":13386,"Ġscenes":13387,")âĢĻ":13388,"Ġevident":13389,"ê³Ħíļį":13390,"RO":13391,"ĠSche":13392,"Ġinvite":13393,"ĠNumber":13394,"Ġì²´ê²°":13395,"small":13396,"Ġrestrictions":13397,"ĠìłĦíĻĶ":13398,"rays":13399,"ĠGro":13400,"clusively":13401,"Ġbran":13402,"Ġloud":13403,"ĠCM":13404,"hop":13405,"ë§ŀ":13406,"Ġnodes":13407,"Ġshirt":13408,"Ġul":13409,"Ġoperational":13410,"acts":13411,"Ġclicking":13412,"Ġwake":13413,"Ġrepresentatives":13414,"izations":13415,"ì°¨ëĬĶ":13416,"Ġê¼Ń":13417,"Ġreserve":13418,"ĠExam":13419,"bage":13420,"Ġmolecular":13421,"Ġaccommodate":13422,"BB":13423,"ĠVillage":13424,"ĠìŀĲìĦ¸":13425,"ĠOak":13426,"Ġì¢ħíķ©":13427,"Ġë¡¯ëį°":13428,"Ġbuyer":13429,"cin":13430,"wart":13431,"Ġsolo":13432,"íľĺ":13433,"ĠìĹŃìĤ¬":13434,"Ġediting":13435,"ez":13436,"NO":13437,"Ġrational":13438,"Ġê¿Ī":13439,"\\!":13440,"ĠNick":13441,"Ġworkplace":13442,"even":13443,"Ġìī½ê²Į":13444,"Ġdeclared":13445,"Ġì°¸ê³ł":13446,"Ġlogic":13447,"CF":13448,"icide":13449,"Ġradiation":13450,"iami":13451,"Ġinvolvement":13452,"Ġgraphic":13453,"Ġë¹ĦìĬ·":13454,"Ġcomply":13455,"Ġgolden":13456,"hyd":13457,"Ġpipe":13458,"ĠëŁ¬ìĭľìķĦ":13459,"necess":13460,"Ġadverse":13461,"Ġdad":13462,"Ġmemb":13463,"aza":13464,"ĠíĿĲ":13465,"}/":13466,"ĠExpress":13467,"Ġargued":13468,"imm":13469,"ĠPsych":13470,"ĠKat":13471,"Ġvisitor":13472,"Ġtemplates":13473,"ë®¤":13474,"Ġcorporation":13475,"Ġhighlights":13476,"ĠFall":13477,"Ġstem":13478,"ĠMotor":13479,"Ġhors":13480,"ìķĦìļĶ":13481,"ëŁīìĿĦ":13482,"æĿ":13483,"Ġëŀľ":13484,"ami":13485,"ĠSquare":13486,"match":13487,"íĸĪëĭ¤ëĬĶ":13488,"Ġgenetic":13489,"Ġ${{\\":13490,"rr":13491,"ĠRand":13492,"Using":13493,"TF":13494,"weet":13495,"éĩ":13496,"ĠLatin":13497,"ĠìłķëıĦë¡ľ":13498,"called":13499,"elve":13500,"ĠHouston":13501,"Ġhomeown":13502,"Ġ67":13503,"ĠSydney":13504,"Ġinduced":13505,"Ġoxygen":13506,"Ġcampaigns":13507,"Ġcoaching":13508,"Ġtrash":13509,"Ġfounder":13510,"Ġê¸°íļį":13511,"ĠìĿ´ëģ":13512,"ORE":13513,"Ġë§¤ìĿ¼":13514,"Ġdanger":13515,"Who":13516,"Like":13517,"ĠNa":13518,"ë§Įíģ¼":13519,"Ġnewspaper":13520,"ĠìŀĪê¸°":13521,"íĨłíĨł":13522,"Ġindoor":13523,"EXT":13524,"ĠGallery":13525,"don":13526,"Ġìľłëªħ":13527,"Ġbreaks":13528,"ĠEmp":13529,"ĠìĦ±ê³¼":13530,"ders":13531,"ĠLuc":13532,"aters":13533,"master":13534,"Ġê°Ĳëıħ":13535,"ëĬĶì§Ģ":13536,"Ġëį§ë¶Ļ":13537,"Ġsurvive":13538,"Ġcooling":13539,"íķĺëĭ¤ëĬĶ":13540,"Ġregime":13541,"Ġattorneys":13542,"idity":13543,"Red":13544,"Ġarrested":13545,"ĠêµĲíĨµ":13546,"Ġassault":13547,"Ġê³¼ê±°":13548,"Ġê³¼íķĻ":13549,"ìĿ´ìļ©":13550,"ĠíĨµíķľ":13551,"Ġ1989":13552,"ê°ķìĽĲ":13553,"ĠNeed":13554,"Ġreduces":13555,"Tem":13556,"Ġhint":13557,"Ġdesignated":13558,"Ġrehab":13559,"fire":13560,"ìĭĿìĿ´":13561,"pres":13562,"ĠHong":13563,"ĠLat":13564,"ĠValue":13565,"\\|":13566,"uate":13567,"ĠìĿµ":13568,"Ġ09":13569,"inyl":13570,"Ġbass":13571,"ê°Ĵ":13572,"Ġbreach":13573,"esis":13574,"Ġcollections":13575,"ìľ¼ë¡ľìį¨":13576,"Ġefficiently":13577,"íĬľ":13578,"Ġtrusted":13579,"anth":13580,"Ġagreements":13581,"íĶĮëłĪìĿ´":13582,"ĠVen":13583,"ustration":13584,"unes":13585,"Ġdies":13586,"Ġpassionate":13587,"ĠShort":13588,"Ġë¬¸ìĿĺ":13589,"EMAIL":13590,"íĺĪ":13591,"Ġanswered":13592,"Ġbacteria":13593,"ĠëŃĲ":13594,"Ġclubs":13595,"Ġê°Ģì§Ħ":13596,"TN":13597,"Ġbub":13598,"Ġnutri":13599,"party":13600,"Ġbeds":13601,"ìŀĦìĿĦ":13602,"ë¹Ī":13603,"Ġexplo":13604,"erty":13605,"Ġbackup":13606,"ìłĲìĿ´":13607,"ĠIndeed":13608,"ĠëĨĢ":13609,"Ġpairs":13610,"ĠGL":13611,"ìĹĪëĬĶëį°":13612,"ìĦłê±°":13613,"Ġstrengthen":13614,"Ġanniversary":13615,"Ġ180":13616,"Ġcarrier":13617,"ìĽĮíģ¬":13618,"ĠSpr":13619,"([":13620,"Ġnetworking":13621,"Ġabstract":13622,"ĠìĽĢì§ģ":13623,"ĶìĬµëĭĪëĭ¤":13624,"Ġpatio":13625,"Ġdisorders":13626,"ĠCore":13627,"Ġactively":13628,"ĠWelcome":13629,"Ġprofiles":13630,"bell":13631,"ĠRom":13632,"Ġinterviews":13633,"ë§¨":13634,"Ġsomehow":13635,"ĠColl":13636,"ĠPhilipp":13637,"ë³ĳìĽĲ":13638,"allas":13639,"yles":13640,"Ġslots":13641,"ĠCapt":13642,"lee":13643,"âĢ²âĢ²":13644,"Ġadvised":13645,"Ġì¢Į":13646,"Ġworker":13647,"Default":13648,"ĠRound":13649,"Ġwider":13650,"ĠCollection":13651,"ìķĦìĦľ":13652,"Ġbio":13653,"ĠRemember":13654,"ì§Ģì§Ģ":13655,"Ġmodes":13656,"inals":13657,"Ġ[]":13658,"Ġ*)":13659,"Ġintensity":13660,")=\\":13661,"Ġdelet":13662,"Ġverify":13663,"arser":13664,"Ġphysician":13665,"Project":13666,"Load":13667,"Ġintellectual":13668,"Ġplugin":13669,"ĠWilson":13670,"tag":13671,"ĠBern":13672,"Ġíĺķíĥľ":13673,"erving":13674,"nom":13675,"Ġpatent":13676,"ĠKh":13677,"Ġ1960":13678,"Ġintra":13679,"ĠìĤ¬ëŀĮëĵ¤ìĿ´":13680,"Ġêµ¬ê¸Ģ":13681,"ĠProtection":13682,"Ġ98":13683,"stop":13684,"Ġgrey":13685,"ĠìĦłìĪĺ":13686,"Ġìŀ¥ê¸°":13687,"Ġmistakes":13688,"ĠEmer":13689,"ĠíĶĮëŀ«íı¼":13690,"Ġreply":13691,"ĠWARRANT":13692,"vard":13693,"ĠStrateg":13694,"aret":13695,"ĠAz":13696,"Ġtu":13697,"ĠUk":13698,"Ġsurely":13699,"Ġëĵ£":13700,"Sty":13701,"Ġ61":13702,"Ġ96":13703,"rices":13704,"ì»¬":13705,"ĠëıĻìĭľìĹĲ":13706,"Ġabroad":13707,"Ġly":13708,"irtual":13709,"ĠíĻįë³´":13710,"iy":13711,"ĠíĹĮ":13712,"Ġfacilitate":13713,"Ġê²ĥìĿ´ëĿ¼ê³ł":13714,"ethyl":13715,"Ġbedrooms":13716,"Ġsheets":13717,"Ġrefused":13718,"Ġelsewhere":13719,"Ġsurge":13720,"Ġofficially":13721,"ĠëĮĵê¸Ģ":13722,"Ġevil":13723,"append":13724,"Ġwheels":13725,"ìľ¼ë¡ľëĬĶ":13726,"ä¹":13727,"ìĻĢìĿĺ":13728,"itches":13729,"!âĢĿ":13730,"Ġattempted":13731,"ĠHappy":13732,"ĠìłĦëħĦ":13733,"ĠìŀħëĭĪëĭ¤":13734,"project":13735,"effective":13736,"rets":13737,"Ġventure":13738,"ibl":13739,"Ġcompete":13740,"Ġpasses":13741,"obj":13742,"Ġalarm":13743,"approx":13744,"Ġsmartphone":13745,"íĵ¨":13746,"Ġoptional":13747,"Ġrefrig":13748,"Ġintegrity":13749,"ĠEth":13750,"Ġmice":13751,"ìĭ¸":13752,"ìĬ¤ëŁ¬":13753,"Ġëª¨ìĬµìĿĦ":13754,"Ġdesigning":13755,"LD":13756,"ĠíĿĶ":13757,"there":13758,"Ġisolated":13759,"ĠìĪĺìĥģ":13760,"ĠPow":13761,"ĠAnnual":13762,"ì²´ëĵ¤":13763,"ritten":13764,"ĠPrivate":13765,"ĠGolden":13766,"Rel":13767,"Ġimaging":13768,"2003":13769,"ì¹´ì§Ģëħ¸ìĤ¬ìĿ´íĬ¸":13770,"Ġëĭ¤ìļ´":13771,"2020":13772,"ĠPartners":13773,"ìŀĲëĵ¤ìĿĢ":13774,"Ġauthentic":13775,"bourne":13776,"Ġflooring":13777,"ìĭľìĬ¤íħľ":13778,"ĠGuard":13779,"Ġê·¸ëĮĢë¡ľ":13780,"template":13781,"Ġcharity":13782,"door":13783,"Ġëĭ´ëĭ¹":13784,"ĠSW":13785,"Const":13786,"./":13787,"Ġft":13788,"aware":13789,"ĠToy":13790,"Ġstom":13791,"fers":13792,"Ġexercises":13793,"ĠíĻľìĦ±":13794,"Ġê°Ļëĭ¤":13795,"Ġnerv":13796,"ĠëĬĲëĤĮ":13797,"vol":13798,"ĠSale":13799,"Ġsettled":13800,"onut":13801,"Pol":13802,"ĠRs":13803,"æĹ":13804,"Ġprox":13805,"Ġbanking":13806,"Ġcooperation":13807,"Ġconsec":13808,"Ġhearts":13809,"Ġìĸ´ë¦°ìĿ´":13810,"ìĿ´íģ¬":13811,"ìĿ¼ë³¸":13812,"Ġletting":13813,"Ġfinest":13814,"Ġexterior":13815,"Ġë¯¼ì£¼":13816,"ªħ":13817,"ë°©ìĨ¡":13818,"iro":13819,"ĠAG":13820,"ouses":13821,"description":13822,"Ġrolling":13823,"Ġinvestigated":13824,"ĠRon":13825,"Ġappell":13826,"ĠìĬ¤ë§ĪíĬ¸íı°":13827,"ë¦¬ìĿĺ":13828,"Ġê´ĳì£¼":13829,"Ġinvesting":13830,"Ġê¸Īìķ¡":13831,"Ġê°ľìłķ":13832,"íĭ±":13833,"iments":13834,"mn":13835,"ĠFox":13836,"íķĺëĭ¤ê³ł":13837,"Ġtumor":13838,"ĠLinux":13839,"Ġadvertise":13840,"Ġìļ°ë¦¬ëĤĺëĿ¼":13841,"900":13842,"Ġstylish":13843,"ELL":13844,"ë¶ĦìĿĺ":13845,"evin":13846,">,":13847,"nesota":13848,"íĪ¬ëį°ìĿ´":13849,"Ġproducer":13850,"Ġfed":13851,"Ġemission":13852,"ĠTransport":13853,"ìŀ¬ìĿ¸":13854,"ë²¤":13855,"Ġjewelry":13856,"ëŀįëĭĪëĭ¤":13857,"ĠFre":13858,"Ġvirtually":13859,"Ġportable":13860,"ĠâĢĻ":13861,"ê²½ê¸°":13862,"ĠFilm":13863,"Ġbeta":13864,"ymph":13865,"Ġuniversities":13866,"ì§Ģë¡ľ":13867,"Ġmovements":13868,"Ġsupplier":13869,"ĠDam":13870,"Ġvoltage":13871,"Ġê·¸ëłĩê²Į":13872,"ĠOnt":13873,"ĠFA":13874,"Ġlabels":13875,"mg":13876,"Ġgotten":13877,"Ġcurriculum":13878,"ĠìĦľë¡ľ":13879,"Ġurl":13880,"Ġstruggling":13881,"ĠìŀĶ":13882,"child":13883,"itudes":13884,"Ġë¶ĦìľĦ":13885,"Ġsour":13886,"izabeth":13887,"åį":13888,"Ġpresum":13889,"Ġì°į":13890,"quire":13891,"Ġíĺľ":13892,"ĠConsider":13893,"Ġcalculate":13894,"Ġvice":13895,"Search":13896,"utable":13897,"Ġobligation":13898,"ë³µì§Ģ":13899,"Ġstamp":13900,"Ġsectors":13901,"icular":13902,"*/":13903,"rand":13904,"Ġë°ĺëĮĢ":13905,"ĠëĮĢíĨµëł¹ìĿ´":13906,"Ġvariation":13907,"achelor":13908,"Str":13909,"pa":13910,"ĠCome":13911,"ìļĶìĿ¼":13912,"Ġtalented":13913,"Ġì»´":13914,"Ġmodules":13915,"Ġìłķë³´ë¥¼":13916,"Ġdatas":13917,"Ġacute":13918,"ĠArchitect":13919,"ĠBand":13920,"Ġexperiencing":13921,"Ġhydro":13922,"ĠStudent":13923,"ĠContent":13924,"íĨµìĭłìĤ¬":13925,"Ġì§Ħì¶ľ":13926,"ë¦°ëĭ¤":13927,"Ġframes":13928,"ĠAV":13929,"asses":13930,"tab":13931,"FM":13932,"ARD":13933,"ĠExp":13934,"Ġboss":13935,"Ġprecisely":13936,"Ġopposition":13937,"ìĩĦ":13938,"Ġcaptured":13939,"µìħĺ":13940,"Ġemphasis":13941,"ëĮĢíļĮ":13942,"Ġdevelopments":13943,"Ġarrangements":13944,"Ġfabulous":13945,"ori":13946,"Ġfailing":13947,"Ġaest":13948,"Ġactor":13949,"Ġorth":13950,"Ġconstitutional":13951,"Ġdisturb":13952,"Direct":13953,"Ġê¶ģê¸Ī":13954,"ĠëĳĲê³ł":13955,"FOR":13956,"\\]).":13957,"uset":13958,"books":13959,"ĠíļĮë³µ":13960,"Ġenzy":13961,"Ġspectacular":13962,"ĠëĤ©":13963,"ì½¤":13964,"ĠExchange":13965,"ì§Ŀ":13966,"Ġhosts":13967,"ULT":13968,"such":13969,"ĠOregon":13970,"ĠBC":13971,"Ġadopt":13972,"Ġpepper":13973,"Ġmeters":13974,"float":13975,"íĺĦì§Ģ":13976,"Pack":13977,"ë¹Į":13978,"gree":13979,"ĠMember":13980,"ĠRyan":13981,"ologists":13982,"Ġspecialized":13983,"Ġcontractor":13984,"Ġcher":13985,"Ġminister":13986,"ito":13987,"ĠMu":13988,"ĠëıħìĿ¼":13989,"Ġincent":13990,"**(":13991,"ounge":13992,"ropical":13993,"Ġtrem":13994,"Ġremarkable":13995,"aft":13996,"ĠëĮĢìĦł":13997,"Format":13998,"ìľĦëĬĶ":13999,"STR":14000,"}}}":14001,"ZE":14002,"equiv":14003,"Ġëĭ¹ìĭł":14004,"ĠArm":14005,"Ġattribute":14006,"oli":14007,"Ġelder":14008,"Ġdisabled":14009,"ĠIC":14010,"\\{":14011,"aved":14012,"Ġunsigned":14013,"server":14014,"Ġignore":14015,"onymous":14016,"iley":14017,"Ġtempor":14018,"Oper":14019,"market":14020,"ĠImm":14021,"Ġrubber":14022,"ĠCub":14023,"ĠFollowing":14024,"Ñı":14025,"display":14026,"ĠìĺģêµŃ":14027,"ëĵ¤ìĹĲ":14028,"Ġvine":14029,"Ġscar":14030,"ĠíĺĦì§Ģ":14031,"loc":14032,"root":14033,"ĠSUV":14034,"Ġë¬¸ìłľë¥¼":14035,"ijuana":14036,"Ġ78":14037,"Ġ77":14038,"ista":14039,"ĠHig":14040,"Ġcomplexity":14041,"Ġgauge":14042,"ader":14043,"Ġharvest":14044,"olds":14045,"Ġwrt":14046,"ãĢį":14047,"Ġsurrounded":14048,"ĠDue":14049,"Ġworship":14050,"ĠConsult":14051,"Ġchip":14052,"Ġminds":14053,"ĠìŀĪìĸ´ìĦľ":14054,"Ã¨":14055,"Ġterminal":14056,"Lear":14057,"Ġgovernments":14058,"Ġ1988":14059,"orate":14060,"Ġexecuted":14061,"stic":14062,"Ġì¹´íİĺ":14063,"Ġthereby":14064,"++)":14065,"íĨ¤":14066,"Ġclust":14067,"Ġphosph":14068,"ĠAssistant":14069,"ìĸ´ëĵ¤":14070,"giving":14071,"yo":14072,"ĠComputer":14073,"Ġplacement":14074,"vo":14075,"ummy":14076,"Ġought":14077,"Ġcontributed":14078,"TT":14079,"ìĭľê³ł":14080,"ĠGR":14081,"Ġentrepreneurs":14082,"ĠPrinc":14083,"Ġì¤ĳëĭ¨":14084,"¬ìĺģ":14085,"Ġedited":14086,"ĠiPad":14087,"Ġbalanced":14088,"Ġultra":14089,"Ġparticle":14090,"Ġì¡°ê±´":14091,"El":14092,"Ġëª¨íħĶ":14093,"Ġprocessor":14094,"íķĻê³¼":14095,"Ġcomposed":14096,"Ġìŀ¥ìķł":14097,"Ġì¤ĳìĿ¸":14098,"ĠIF":14099,"ë²Īì§¸":14100,"aron":14101,"Ġroughly":14102,"Ġrust":14103,"Ġradi":14104,"ìĿ´ëŀĢ":14105,"Ġexhibit":14106,"Ġ88":14107,"ĠSaint":14108,"Ġtradem":14109,"ìĥģìĹĲ":14110,"´ëł¤":14111,"direct":14112,"Ġpic":14113,"widet":14114,"Ġë°Ľìķĺ":14115,"Handler":14116,"Ġìłķë¶ĢìĿĺ":14117,"Ġë°ĺìĿĳ":14118,"Ġcooked":14119,"Ġnose":14120,"widetilde":14121,"Ġíķ´ë":14122,"ìħĶìĦľ":14123,"Ġanalyze":14124,"ĠOcean":14125,"Ġlin":14126,"ìŀ¬ë°°íı¬ê¸Īì§Ģ":14127,"ìĹĨëĬĶ":14128,"Ġhol":14129,"ëĳĲê³ł":14130,"Ġ84":14131,"Ġbelt":14132,"oder":14133,"GS":14134,"Ġbankruptcy":14135,"uid":14136,"Ġbasketball":14137,"Ġster":14138,"Ġì§ĢëıĦ":14139,"best":14140,"ĠPlant":14141,"ìĬ¤ëŁ½":14142,"ĠTech":14143,"Ġfulfill":14144,"oa":14145,"Ġeffectiveness":14146,"adelph":14147,"Ġtours":14148,"Ġthoroughly":14149,"Ġcosm":14150,"Ġmixing":14151,"urches":14152,"Ġlen":14153,"anny":14154,"ĠImp":14155,"oen":14156,"hist":14157,"Ġcontacts":14158,"ĠMade":14159,"asm":14160,"Phys":14161,"Ġlawsu":14162,"chers":14163,"ĠIndiana":14164,"ëĵ±ë¡Ŀ":14165,"ighth":14166,"Ġ97":14167,"aped":14168,"´ëĤĺ":14169,"Ġê³¼ìłķìĹĲìĦľ":14170,"ĠTal":14171,"hot":14172,"Ġarmy":14173,"ponent":14174,"Ġobservation":14175,"plug":14176,"êµ¬ë¥¼":14177,"?!":14178,"inction":14179,"ĠTheatre":14180,"Ġcopper":14181,"Ġcapability":14182,"128":14183,"Ġarrangement":14184,"graph":14185,"Ġseal":14186,"MM":14187,"Ġcollective":14188,"Ġdiameter":14189,"Ġcombat":14190,"Ġovernight":14191,"ĠChall":14192,"ìĺ¤ëĬĺ":14193,"Ġfinishing":14194,"ĠìĺĪìķ½":14195,"Ġ360":14196,"}=\\":14197,"chor":14198,"ëĬĲëĥĲ":14199,"Ġassemb":14200,"neg":14201,"ensing":14202,"Ġtags":14203,"Ġaffects":14204,"overs":14205,"Ġpreserve":14206,"Ġrib":14207,"ĠSource":14208,"ëħķíķĺìĦ¸ìļĶ":14209,"Ġcaps":14210,"Ġstops":14211,"Ġuniversal":14212,"cking":14213,"Ġinterval":14214,"ITE":14215,"ĠSir":14216,"shot":14217,"Ġfinancing":14218,"ername":14219,"ìłķìĹĲ":14220,"Ġflights":14221,"Right":14222,"Ġelections":14223,"âŀ":14224,"OCK":14225,"Ġattributes":14226,"Ġphysically":14227,"Ġoverview":14228,"piece":14229,"Ġhandy":14230,"Ġëĭµë³Ģ":14231,"essert":14232,"Ġìĸ¸ìłľ":14233,"sign":14234,"ĠAdam":14235,"Ġprevention":14236,"Ġartificial":14237,"ĠTrade":14238,"Ġíĸ¥íĽĦ":14239,"Ġhorm":14240,"iah":14241,"ĠFlow":14242,"Ġmanifest":14243,"Ġë¹Į":14244,")))":14245,"Ġdivorce":14246,"Ñĭ":14247,"ĠCredit":14248,"Art":14249,"ĠíĿ¬ë§Ŀ":14250,"Ġsteam":14251,"ĠíĮ¬":14252,"ĠAmong":14253,"IGHT":14254,"adelphia":14255,"ĠLind":14256,"Ġtablet":14257,"assion":14258,"ĠCrim":14259,"Ġsimulation":14260,"asted":14261,"Ġconservation":14262,"å°":14263,"ĠëĲĲ":14264,"Ġengineers":14265,"Ġwrap":14266,"ĠRepublican":14267,"Ġearnings":14268,"eli":14269,"ìķĦìĭľìķĦ":14270,"inition":14271,"bec":14272,"ĠëĤĺíĥĢëĤ¬ëĭ¤":14273,"intend":14274,"pot":14275,"Ġhal":14276,"Ġ\"[":14277,"isting":14278,"Ġhill":14279,"Ġpaths":14280,"2002":14281,"ĠHas":14282,"Ġmassage":14283,"Ġpuzz":14284,"BN":14285,";\\":14286,"linear":14287,"Ġministry":14288,"Ġpup":14289,"Ġcheaper":14290,"ģëĭĪëĭ¤":14291,"ounce":14292,"Ġstruck":14293,"Update":14294,"Ġbuttons":14295,"Free":14296,"¯¤":14297,"Block":14298,"ëĮĢíķĻêµĲ":14299,"Ġadoption":14300,"ìŀĪëĭ¤":14301,"Ġcompleting":14302,"izable":14303,"Ġoccasions":14304,"Ġfitted":14305,"rapeutic":14306,"Ġconversations":14307,"Ġ74":14308,"ĠCand":14309,"ĠìĻ¸êµĲ":14310,"ĠìłĦìĹĲ":14311,"è¯":14312,"ĠSix":14313,"Ġverdict":14314,"ĠìĹ°ëĿ½":14315,"Ġrejected":14316,"ìħĢ":14317,"Whether":14318,"ĠBrook":14319,"aning":14320,"Ġpour":14321,"Ġlitigation":14322,"Ġswing":14323,"Ġì¶ľìĭł":14324,"ova":14325,"Ġcolumns":14326,"Ġtang":14327,"ĠëĶľëŁ¬":14328,"Ġìķ¡":14329,"Ġcontrary":14330,"mal":14331,"jack":14332,"ìĸ´ë¡ľ":14333,"Ġliable":14334,"ì¤ĳìĹĲ":14335,"Ġassessed":14336,"Control":14337,"âĤ¬":14338,"ħëĭĪëĭ¤":14339,"Ġì±":14340,",'":14341,"agers":14342,"Ġsleeping":14343,"Ġcater":14344,"ĠMiami":14345,"Ġê²Įìĭľ":14346,"ĠBru":14347,"Ġsnap":14348,"week":14349,"Ġimpressed":14350,"ationally":14351,"ĠíļĮìĿĺ":14352,"ĠëĮĢìłĦ":14353,"123":14354,"Ġadvise":14355,"Ġsigning":14356,"SQL":14357,"Ġgenerations":14358,"ermine":14359,"ĠHawai":14360,"Ġpurchases":14361,"Ġhem":14362,"Ġfruits":14363,"IONS":14364,"exec":14365,"fix":14366,"ĠRetrieved":14367,"Ġplacing":14368,"Ġheritage":14369,"Ġlaboratory":14370,"ĠRog":14371,"Ġê²½ê¸°ëıĦ":14372,"ĠDJ":14373,"ĠOwn":14374,"ften":14375,"Em":14376,"ĠSciences":14377,"ĠìĿ´ìĥģìĿĺ":14378,"Ġdough":14379,"íķĺê¸°ëıĦ":14380,"Ġìļ´ëıĻ":14381,"enu":14382,"Ġeverybody":14383,"Ġemotion":14384,"Ġprofits":14385,"Ġì²´íĹĺ":14386,"number":14387,"Ġchemicals":14388,"gence":14389,"[\"":14390,"ĠDream":14391,"ilitation":14392,"ì°¨ê°Ģ":14393,"Ġappeals":14394,"Ġsecured":14395,"aph":14396,"ê²½ìĺģ":14397,"ĠPra":14398,"uce":14399,"inance":14400,"igious":14401,"Ġsmell":14402,"ëŁīìĿ´":14403,"ìĿĺíļĮ":14404,"Ġ76":14405,"}}^":14406,"ais":14407,"Ġaccused":14408,"Ġvendors":14409,"Ġspecialists":14410,"Ġaccompanied":14411,"Ġmounted":14412,"ĠâĹ":14413,"ĠMinnesota":14414,"Ġhospitals":14415,"Ġsensitivity":14416,"Ġhip":14417,"Ġcord":14418,"Ġtoilet":14419,"Įį":14420,"Ġë°Ľìķĺëĭ¤":14421,"ëĸ":14422,"Ġsurgical":14423,"Ġcow":14424,"Mode":14425,"Ġdeaths":14426,"His":14427,"ìł¤":14428,"Ġdifferently":14429,"´ëĲ":14430,"ìĽħ":14431,"âĢĿ)":14432,"íı¬ìĿ¸íĬ¸":14433,"ĠìŀĳìĿĢ":14434,"Ġ\"\\":14435,"Ac":14436,"unit":14437,"è¡":14438,"Ġwisdom":14439,"ĠChange":14440,"´ë©Ķ":14441,"ìĬ¤íĨł":14442,"Ġparks":14443,"Ġexch":14444,"Ġsalary":14445,"ĠëĤĺëĪ":14446,"ĠÂ©":14447,"Port":14448,"grad":14449,"Ġrefuge":14450,"Ġinstantly":14451,"Ġ69":14452,"Ġìłķìĭł":14453,"Ġscratch":14454,"Ġweapon":14455,"some":14456,"Ġriv":14457,"FP":14458,"ìŀ¥ê´Ģ":14459,"Address":14460,"Ġvacuum":14461,"umni":14462,"onna":14463,"Ġnations":14464,"usetts":14465,"ĠìĽ¹":14466,"Ġpets":14467,"Ġexpanding":14468,"ìĭľì¼ľ":14469,"Ġdirectors":14470,"Buffer":14471,"Ġaver":14472,"Ġglobe":14473,"achusetts":14474,"ĠêµŃë¯¼ìĿĺ":14475,"ĠëįĶë¶Ī":14476,"Ġprescription":14477,"Ġcompliment":14478,"Ġcrown":14479,"Ġdelivers":14480,"ĠHay":14481,"ulator":14482,"ĠDonald":14483,"¸ëĭ¤":14484,"tw":14485,"mers":14486,"Ġokay":14487,"åĬ":14488,"drop":14489,".....":14490,"Ġsinging":14491,"ĠNAS":14492,"Ġfoam":14493,"Ġìŀħìŀ¥":14494,"graduate":14495,"AAAA":14496,"Ġdict":14497,"Ġconsiderable":14498,"oker":14499,"ĠíĨµìĭł":14500,"Ġ{{\\":14501,"clip":14502,"Ġwinners":14503,"ONE":14504,"ĠResort":14505,"Ġinfin":14506,"DM":14507,"ben":14508,"ĠëĤĻ":14509,"ëĲĺë©°":14510,"ë²Īíĺ¸":14511,"fish":14512,"ĠSolutions":14513,"unter":14514,"Ġê·¸ë£¹":14515,"Ġseller":14516,"ëĲĺë©´ìĦľ":14517,"Ġfer":14518,"Ġcomputing":14519,"ĠëıĦìĽĢìĿ´":14520,"pad":14521,"Ġcub":14522,"Ġtoken":14523,"ê°Ģê³ł":14524,"Ġvariations":14525,"ĠBad":14526,"Custom":14527,"Ġìĸ¸ê¸ī":14528,"Ġrated":14529,"wear":14530,"Ġclip":14531,"Ġselecting":14532,"ocial":14533,"Ġpublishing":14534,"Ġprecision":14535,"ĠTitle":14536,"Ġdivis":14537,"Ġexclusively":14538,"URE":14539,"SO":14540,"ribution":14541,"hav":14542,"íķĺëĤĺ":14543,"Ġë§Ŀ":14544,"ĠNH":14545,"Ġnervous":14546,"Ġrows":14547,"Ġprecious":14548,"ĠSound":14549,"ĠíĶĦëŀĳ":14550,"=\"../../":14551,"Ġë¶Īë²ķ":14552,"PER":14553,"Ġëī´ìĭľìĬ¤íĨµìĭłìĤ¬":14554,"ogram":14555,"Ġsignificance":14556,"ĠCover":14557,"Did":14558,"ìľ¨ìĿ´":14559,"IAL":14560,"cycle":14561,"ĠëħĦ":14562,"Dev":14563,"ìĤ¬ë¡ľ":14564,"Ġsuspend":14565,"ndry":14566,"Ġproceeding":14567,"Ġtrace":14568,"Ġlawyers":14569,"bean":14570,"Ġprominent":14571,"Ġbatt":14572,"Ġ08":14573,"Ġ1983":14574,"ĠShare":14575,"Ġembod":14576,"ëį°ìĿ¼ë¦¬":14577,"Ġpushed":14578,"ĠFront":14579,"Ġë¹Ī":14580,"Ġimposed":14581,"Ġrelaxing":14582,"Ġdramatic":14583,"Ġthrows":14584,"Ġconverted":14585,"Ġë°ĽëĬĶ":14586,"Ġidentifying":14587,"iller":14588,"ê¶ģ":14589,"NET":14590,"onsin":14591,"Ġ],":14592,"Ġlemon":14593,"itzer":14594,"Ġalgebra":14595,"Ġcats":14596,"Ġneur":14597,"Ġmorph":14598,"ILITY":14599,"boards":14600,"Ġresponded":14601,"ĠAustin":14602,"ìĦ±ìĹĲ":14603,"ussion":14604,"ortion":14605,"arding":14606,"Ġloading":14607,"ìĿ´ëĤł":14608,"Ġhappiness":14609,"ĠíĶ¼ê³ł":14610,"Ġbeautifully":14611,"ockey":14612,"Ġsalad":14613,"Access":14614,"Description":14615,"ë¬´ìĽĲ":14616,"Ġspecify":14617,"operative":14618,"inth":14619,"Ġsophisticated":14620,"icating":14621,"Ġworn":14622,"Ġgathering":14623,"attering":14624,"Ġëĭ¤ë§Į":14625,
[...]
